#version: 0.2 - Trained by `huggingface/tokenizers`
č Ċ
Ġ Ġ
Ġ čĊ
Ġ t
h e
Ġ a
o u
Ġ s
ĠĠ Ġ
i n
Ġ m
r e
Ġ w
h a
n d
Ġt he
Ġ b
i s
e r
ĠĠ ĠĠ
o r
l l
Ġ f
Ġ o
e n
i t
e s
Ġ I
Ġ c
Ġ d
Ġ y
Ġ l
Ġ h
o n
Ġ n
a r
Ġ p
Ġt h
Ġy ou
Ġa nd
Ġt o
ha t
Ġo f
Ġ he
a n
v e
o t
o m
s t
in g
o w
Ġ g
a t
Ġ A
Ġb e
Ġ in
Ġ T
s e
c e
l e
Ġ ha
Ġm y
e t
l d
a y
e d
i r
ĠĠĠĠ ĠĠĠĠ
Ġ S
u t
Ġm e
it h
i m
c h
Ġ is
Ġn ot
g h
e a
' s
i ll
Ġ W
Ġt hat
Ġf or
ou r
o o
k e
Ġ e
Ġ u
Ġw ith
en t
ĠĠ ĠĠĠ
Ġw e
Ġ it
Ġ H
om e
Ġyou r
i d
he r
t er
r a
Ġh is
Ġ k
Ġs t
a d
a s
r i
Ġth ou
or d
Ġ B
Ġh im
a l
Ġth is
gh t
en e
Ġha ve
c t
Ġ re
Ġ C
E N
l y
g e
I N
Ġs o
Ġo n
Ġ M
Ġa s
Ġl i
A R
' d
c ene
o re
v er
u r
r o
U S
Ġ E
ou ld
Ġ P
Ġw ill
a in
oo d
Ġd o
h i
Ġ L
Ġ O
a m
u s
Ġs ha
c k
Ġ |
es t
ĠT he
es s
Ġ N
i on
ĠA nd
n t
A N
ou s
E S
Ġ F
Ġhe r
a nd
Ġb ut
Ġd e
i f
Ġn o
Ġa n
t h
E R
Ġs u
Ġs e
Ġa ll
Ġth y
Ġ G
Ġl o
ĠĠĠĠĠĠĠĠ ĠĠĠĠĠĠĠĠ
e ll
a ke
i l
r u
Ġs p
Ġ '
Ġf a
O N
Ġsha ll
e ar
Ġk n
A nd
ar t
i ght
Ġa re
Ġ v
h o
Ġthe e
ha n
Ġb y
r om
Ġ our
ar d
a st
r y
I O
Ġs cene
Ġ D
Ġm an
Ġs h
Ġn e
an t
q u
Ġa t
O R
a ge
in e
Ġa m
A L
T he
Ġl ord
Ġu p
e nd
Ġw hat
Ġg ood
Ġc om
Ġm u
ou t
se l
' ll
re s
i e
Ġp r
i ve
Ġw he
Ġ R
Ġg o
Ġ Y
i c
in d
Ġc on
on e
b le
hi ch
ow n
Ġs he
on g
Ġf rom
i ous
er s
S T
u l
ĠS cene
v en
E L
k es
ot h
n ter
Ġw ould
Ġw as
o st
Ġthe re
O L
Ġthe m
Ġlo ve
IN G
Ġ if
Ġn ow
Ġs w
u re
Ġm ore
Ġb l
Ġc a
- -
e l
at h
Ġc an
h y
Ġthe y
e m
p p
x t
Ġs ir
Ġkn ow
Ġ hat
Ġ or
ĠT o
Ġt han
e p
Ġ V
Ġl et
f e
Ġthe ir
o l
sel f
Ġh ome
Ġa r
U C
Ġhe re
Ġs ay
K ING
Ġw or
I US
o nd
I C
Ġu s
in k
am e
at e
l a
ĠT h
is h
Ġb r
E T
f ore
n g
p ea
re at
ot her
Ġwe ll
ĠT hat
R O
u m
Ġthe n
Ġk ing
o d
Ġon e
v es
or t
Ġc ome
at her
Ġhat h
Ġse e
Ġli ke
I A
oo k
Ġ qu
i g
Ġ j
i ce
ĠN e
an ce
Ġd id
re v
ou nd
Ġm ay
ha kes
pea re
hakes peare
p age
Ġsh ould
Ġhome page
Ġ r
e re
ĠB ut
Ġm ake
Ġs a
T o
ĠA ct
Ġu n
L O
Ġm ad
ĠW hat
Ġup on
u e
Ġd is
Ġh o
g ain
u n
AR D
Ġmu st
Ġwe re
ĠNe xt
Ġ out
Ġ J
rev ious
u nt
Ġw hich
Ġha d
ir st
A T
p t
ver y
ea k
Ġto o
id e
Ġp ro
it y
en ce
Ġp art
p e
ent le
Ġwhe n
Ġt ru
Ġg ra
R Y
i es
r ow
Ġsu ch
im e
a re
Ġh on
i re
or n
L A
t her
x e
a ll
Ġp o
Ġha nd
ĠE nter
Ġsp eak
T hat
T h
Ġhe art
a u
f f
n ess
Ġa gain
Ġy et
o se
Ġof f
Ġw ho
is e
is t
Ġm a
Ġh ow
Ġ ro
m an
i ck
w n
Ġl ea
Ġa l
ad y
Ġ 1
Ġthe se
L E
o y
Ġs ome
Ġth ink
Ġf ather
ou gh
Ġe y
Ġp l
Ġm ine
ha r
Ġ K
Ġ 2
ast er
EN RY
xe unt
Ġg reat
ES S
Ġg ive
ĠY ou
Ġf o
in ce
Ġa b
Ġt ake
ur n
Ġf ri
e et
C EN
ĠF or
he n
ĠH e
Ġm ar
b er
I L
' t
Ġhe a
Ġt ell
AN D
Ġwhe re
Ġt w
ĠM y
u st
Ġmu ch
F F
at ion
A s
w ay
res s
f ul
ĠL ord
x it
Ġt ime
re e
Ġm ost
Ġbe t
l es
ĠH ENRY
ĠA s
a ve
Ġ en
he re
Ġne ver
Ġe x
R A
ig n
Ġhe ar
as s
Ġ 3
Ġl ook
ing s
it her
e c
ĠI f
er v
B ut
Ġd ay
o ld
Ġd es
Ġfri end
Ġw ord
Ġb re
Ġm en
Q U
Ġo ther
u d
Ġbl ood
a ck
Ġhon our
Ġ ra
I AN
u ll
Ġde ath
p er
Ġar t
Ġe ar
Ġli fe
m ent
i gh
e en
n ot
K E
e f
Ġg entle
t is
P H
a k
i o
l i
ou se
t le
g er
C H
t o
Ġan y
Ġ 4
I R
s s
ĠS hakespeare
oo l
en ry
T H
ou l
Ġp le
ES T
ea d
Ġfa ir
Ġw r
o ve
Ġf ear
Ġ ri
I S
, --
ou nt
ĠH enry
ĠG od
Ġcom m
Ġw ar
ĠP revious
nd er
ĠA N
Ġca ll
E D
a se
w ard
Ġp er
Ġs on
E nter
W hat
C E
F irst
re n
Ġa d
Ġd oth
e ed
A ct
c es
l and
it e
Ġpr ay
Ġt r
Ġo wn
Ġs c
CEN E
Ġhea ven
S CENE
F or
ĠĠĠĠĠĠĠĠĠĠĠĠĠĠĠĠ ĠĠĠĠĠĠĠĠĠĠĠĠĠĠĠĠ
A M
Ġmad e
if e
e e
Ġ very
h ing
a ble
Ġw h
I I
u se
r own
Ġtru e
Ġsw eet
Ġ ke
D U
an s
ll ow
Ġc our
Ġa pp
Ġf l
ct ion
Ġcan not
Ġl a
ĠB e
Ġbe en
Ġha st
I ST
S hakespeare
t y
ĠH ow
Ġw it
o ck
ĠI n
ĠO F
Ġa way
EST ER
s w
ĠTh is
Ġh ouse
Ġbr other
Ġst r
Ġa f
Ġwor ld
Ġn ight
Ġbe ar
Ġw ay
c he
ĠW hy
c c
o p
a g
M y
Ġd one
Ġst and
IC K
au gh
ĠI t
Ġcom p
Ġn ame
Ġw om
or row
Ġ ru
Ġl ady
ea l
Ġd own
Ġhe ad
Ġar m
Ġtw o
Ġc l
Ġe ver
c i
Ġey es
Ġn or
Ġp res
ow er
Ġlea ve
Ġbe fore
ĠW ith
Ġ im
ĠS ir
Ġgra ce
i er
u ke
Ġp la
Ġc ha
I M
R ESS
Y ou
re t
ĠN o
k s
v ing
er t
P revious
Ġm ight
le d
Ġcon t
A FF
U L
M AR
T ON
Ġth us
Ġf ool
ĠC ome
ain t
ĠS o
Ġo ld
ST AFF
AL STAFF
Ġcom es
Ġl ong
Ġno ble
UC ESTER
LO UCESTER
A S
ec ond
ear s
Ġm aster
Ġthou ght
e w
or s
Ġha r
Ġbet ter
ĠA n
ve d
Ġbe g
DU KE
O M
ou ght
hi p
W ith
Ġc ould
Ġne w
re d
er c
ĠI s
at ter
Ġp ur
is s
Ġre m
on s
ea ce
l ess
ĠĠĠĠĠĠĠĠ ĠĠĠĠ
OR D
Ġ 5
E EN
ĠE xeunt
Ġs oul
at ch
ĠC a
IN E
o s
ĠM ar
m en
Ġbe ing
nt o
E M
c ome
Ġke ep
Ġin to
Ġd ead
R IN
ĠW ho
QU EEN
ĠO f
Ġpo or
F ALSTAFF
T is
I f
Ġ U
Ġre p
augh ter
Ġb oth
Ġman y
L ES
ow s
d s
i an
Ġf ind
Ġe nd
RO S
r ance
Ġ ent
f or
ĠW ell
H e
Ġmy self
ĠE ng
ie ld
Ġb est
Ġg l
re w
Ġnot hing
Ġb ra
ĠThe re
p s
Ġt ra
m e
ĠK ing
u ck
ĠE xit
ĠL et
ĠTh ou
it tle
m b
Ġe very
ĠW e
n ce
Ġin d
Ġt a
i ed
A G
U R
un e
A D
E xeunt
ĠA nt
Ġli ve
I n
S econd
I D
Ġl ittle
Ġfo llow
a ce
ĠW hich
Ġli e
Ġs et
Ġd aughter
et h
n e
Ġp ut
Ġw ife
Ġfriend s
v il
G LOUCESTER
Ġf ell
se d
ha ll
I T
U N
ĠW here
Ġt ong
ĠN ow
Ġs m
Ġpla ce
Ġst ill
g ed
Ġqu een
i a
Ġh igh
Ġlord s
ea s
ĠB y
Ġth ing
m p
t end
Ġf irst
Ġfor t
IC H
Ġyou ng
Ġd ie
Ġho ld
Ġpl ay
in t
ar k
Ġan sw
ĠV I
A B
Ġh our
Ġu nder
Ġc hi
Ġcour t
r ant
Ġth ose
b e
U M
on y
Ġs le
ut h
Ġcon s
Ġs erv
f t
E xit
al k
ĠO r
i le
Ġple ase
A ST
e ct
Ġhim self
T IO
ist ress
Ġre st
Ġp a
Ġe l
S o
ĠW hen
N o
in ess
Ġc h
Ġc o
Ġg u
Ġn at
Ġp eace
Ġg one
est y
Ġcon f
il t
P RIN
in s
Ġagain st
B ER
Ġsh ow
S IR
IST RESS
l t
ĠH ere
ĠF rance
Ġwom an
it s
Ġde ar
g et
UC H
O P
W hy
Ġn one
as on
Ġpr ince
H ow
Ġb oy
a c
Ġst ay
Ġbr ing
O f
H AM
i z
Th is
Ġt ill
Ġfa ce
ĠI V
Ġm ind
Ġre s
OR K
ou d
Ġansw er
ICH ARD
Ġp re
Ġfa ll
Ġt ri
i us
Ġk ind
l f
ĠA t
Ġthere fore
Ġp ass
Ġg ri
Ġv ir
Ġey e
Ġpres ent
Ġc rown
Ġf ull
is on
Ġc har
Ġc ount
ce ive
Ġsw ord
t he
Ġl e
Ġwor th
Ġme an
har d
Ġg i
ĠP r
Ġword s
s and
ĠS t
Ġtong ue
O B
Ġm other
Ġthou gh
ĠJ o
en s
Ġp al
ar ry
Ġc ou
Ġs ame
Ġaf ter
E Y
p on
Ġel se
Ġme et
es ar
Ġri ght
W hich
ĠA y
Ġu nto
ĠR ome
L UC
Ġc he
it ion
Ġt urn
Ġc ur
Ġfor th
Ġsa id
Ġd ra
Ġsu b
Ġth ine
Ġfa ith
Ġh us
Ġp ri
ir d
O T
ĠY our
Ġwho se
Ġne ed
W ho
h n
ul t
ĠI II
ĠD o
ee ch
Ġbe l
Ġchi ld
Ġb id
Ġo ver
Ġho pe
Ġt re
Ġth ree
b and
M ISTRESS
U T
or se
. '
p ose
c l
Ġw hy
at i
Ġse em
is ed
Ġon ce
a b
ct or
ĠG entle
Ġsp ir
b t
Ġa cc
Ġh um
Ġre t
Ġwr ong
as ure
hi le
ĠJo hn
C US
Ġind eed
Ġm atter
Ġb es
ur d
ri ed
l own
ĠThe n
a ch
ĠM AR
Ġlet ter
Ġc han
Ġwh om
Ġb ack
Ġan other
Ġstr an
C T
Ġ [
ic hard
Ġab out
Ġhus band
Ġe ven
W e
Ġv ill
ess en
Ġthou sand
I t
Ġs er
Ġth r
Ġhe ard
Ġha s
ut y
ĠG o
G AR
Ġd ou
Ġst re
Ġear th
Ġhe nce
an y
Ġas s
B e
U D
t w
B y
Ġb od
Ġp ower
Th ou
ert ain
Ġp ra
is ter
ĠI I
ĠR ICHARD
ar y
ĠCa esar
ĠL E
Ġmad am
Ġthan k
a il
ĠR ichard
Ġca use
Ġ ea
Ġm on
Ġf al
Ġd uke
Ġhe l
ĠS he
Ġdis c
Ġim p
sel ves
p le
v y
Ġtr uth
As ide
p h
ĠG ood
ard on
LE ON
I s
on t
RO M
ent er
Ġsu re
Ġk ill
Ġli ght
Ġj ust
ĠAN TON
Ġp e
ant s
AN IO
Ġm is
essen ger
Ġs l
ĠEng land
Ġ i
Ġvir t
Ġso ld
Ġsle ep
b l
pe ct
Ġhand s
P ER
y al
Ġc ame
ĠN or
Ġbe d
Ġla w
ĠB r
ur y
The re
i ke
ĠW ill
Ġwith in
d ay
Ġd re
ĠT ro
PRIN CE
im es
O F
he s
ain s
Ġfal se
ar s
Ġv al
Ġgo ld
ROS AL
Ġs ent
Ġnew s
W here
Ġf ight
OR T
Ġma id
Ġbre ak
L Y
m s
Ġh ither
ĠThe y
fe ct
Ġma j
ĠAnt ony
Ġst ate
Ġdo st
ut e
Ġe re
Ġma kes
a ir
Ġd i
Ġs ince
om et
S H
W hen
ĠA l
g ue
Ġl and
Ġsha me
ET R
Ġb us
or k
Ġwe l
AG E
L I
Ġs ea
our s
et s
f ort
Ġm er
ha m
Ġre ason
ĠM aster
i x
AS S
Ġnat ure
Ġr ather
Ġy e
an c
Ġgentle man
or y
Ġm o
Ġha ng
Ġpal ace
c ious
Ġfell ow
Ġu se
Ġyou th
Ġha pp
Ġen ough
H AR
L AND
Ġn ear
ĠC A
g u
p en
w ell
Ġfort une
Ġf ar
get her
Ġb u
EN T
b s
ĠN ay
ĠANTON Y
ous in
A V
C ome
Ġad v
ou ch
Ġde vil
Ġgo ds
Ġb o
at es
ĠH er
Ġf e
AN T
OL K
Ġmaj esty
L et
, '
Ġm istress
ve re
Ġl ast
ĠA ll
ie ve
Ġth ings
ĠH is
Ġw ind
ver s
C lown
j ect
Ġwith out
Ġhel p
D ON
Ġs ound
Ġst ri
E US
IN A
LA UD
ĠR e
AT RA
LE OP
LEOP ATRA
Ġca re
ren ch
Ġsha lt
Ġp ers
ion s
Ġb an
n er
n ight
Ġse c
O r
Ġl ay
Ġdo es
Ġbod y
Ġwel come
N ow
id es
che s
d d
i ld
W ICK
a p
i ly
ene m
Ġun c
A y
Y our
O TH
Ġ ill
AR WICK
ĠN ot
us ic
Ġ enem
IN CEN
Ġsw ear
INCEN TIO
G R
Ġp ati
ET H
Ġcomm and
Ġin st
Ġarm s
Ġg r
el s
GAR ET
Ġyour self
u ch
w een
d e
ĠT han
Ġhon est
Ġrem em
Ġfa ult
Ġsa w
S P
Ġse nd
Ġh orse
Ġt ears
ARD IN
i ers
he d
ĠY ork
Ġf ield
Ġsu n
Ġro yal
ĠE d
Ġlo st
IAN A
Ġk iss
Ġstran ge
Ġgri ef
H N
O HN
Ġon ly
l ish
Ġf ire
ĠS erv
ef t
Ġw ish
Ġyour s
erc y
ond er
AT HAR
en er
Ġg et
ho ld
Ġj oy
at s
Ġd ru
Ġstr ong
W ARD
Ġs omet
it iz
le t
IN D
OL I
Ġru n
Ġf ore
V IA
i ves
n ing
Ġspir it
it t
ĠS hall
st er
C O
Ġp ardon
Ġme ans
Ġp rom
ĠH ave
Ġde ed
Ġdes ire
Ġret urn
Ġto gether
B AST
Ġc ousin
ER S
ĠD uke
ĠY ORK
Ġb orn
Ġd are
au se
m orrow
Ġl eft
Ġse en
one y
k en
u ff
Ġof t
Ġthr ough
ad e
Ġbre ath
ou th
Ġsp o
R UT
ĠV INCENTIO
G O
re st
Ġd en
D R
u c
ent s
l ing
Ġd an
ren ce
O G
Ġc ra
Ġre ad
Ġpro ve
o f
Ġt alk
EL LO
Ġcou n
S he
li ke
Ġhar d
Ġwe ep
The n
Ġg row
d om
Ġa w
Ġh u
Ġl ess
Ġex ce
Ġw ant
Ġs la
Ġg re
Ġst ra
if t
Ġbus iness
RUT US
b our
ĠGentle man
C LEOPATRA
Ġw ilt
Ġj ud
b y
Ġs ing
Ġf ly
Ġf ree
Ġha lf
D Y
Ġs ick
Ġbe a
Ġpur pose
Ġ KING
Ġt em
ĠS h
Ġit self
H ere
MAR K
Y RA
g s
ĠS YRA
Ġsee k
CUS E
ĠSYRA CUSE
it he
Ġdou bt
ROSAL IND
H EL
I PH
ARDIN AL
Ġo ath
Ġto ld
ĠF rench
ĠĠĠĠĠĠĠĠĠĠĠĠĠĠĠĠ ĠĠĠĠĠĠĠĠĠĠĠĠ
r ink
Ġro om
i et
ro ss
ĠE D
W ell
s c
Ġm et
Ġsay s
for m
Ġcom fort
ĠBe fore
Ġv o
Ġthought s
c om
OL US
IPH OLUS
Ġpr ison
Ġserv ice
O CT
ĠC la
Ġdra w
i al
w ick
ĠAN DR
H is
m er
r ay
Ġsu pp
L ET
ĠĠĠĠĠĠĠĠĠĠĠĠĠĠĠĠ ĠĠĠĠ
ĠY et
IM ON
Ġcount ry
C A
L EN
S t
Ġw a
EL IA
gain st
Ġl ate
Ġde f
Ġvill ain
Ġf ound
ro ke
AB EL
Ġs orrow
Ġf oul
AR US
AN TON
i ol
Ġwe ar
Ġat tend
IR ON
om an
Ġpr oud
AD R
it or
Ġblood y
Ġc ast
ar wick
Ġp ity
ĠP AGE
ĠO ur
Ġf ur
op le
f ord
at er
ithe e
A CH
Ġg ener
Ġqu ick
A ll
S ir
Ġs en
ĠJ OHN
Ġre ven
ABEL LA
Ġmar ry
UN T
Ġbes eech
M EN
T han
Ġs ad
ĠC le
W ARWICK
l s
u res
Ġc ry
ĠMAR GARET
ĠEd ward
ĠB EL
Ġsu ff
LAUD IO
Ġdan ger
a w
k ing
Ġg ave
ĠT hy
Ġs il
Ġcomp any
P AR
oo se
Ġkn ight
Ġdis t
Ġso on
HAM LET
i or
s hip
Ġw in
ĠW arwick
Ġfo ot
IAN O
u p
v our
Ġm usic
Ġc ertain
Ġin f
Ġli es
The y
T ES
V OL
l o
Ġs ister
Ġal one
Ġl ear
Ġin t
EN CE
pt ain
Ġmar k
Ġb ri
Ġlo se
UC KING
ment s
Ġhigh ness
UCH IO
ROM IO
ETR UCHIO
UCKING HAM
i ble
Ġwar rant
m ost
Ġc ond
N ot
IN IUS
Ġchar ge
Ġs in
Ġc ar
Ġc old
ot t
ĠED WARD
N ay
u es
Ġt end
B O
s h
Ġt imes
Ġde p
ER D
Ġlook s
Ġunc le
ha l
ĠĠĠĠĠĠĠĠĠĠĠĠĠĠĠĠĠĠĠĠĠĠĠĠĠĠĠĠĠĠĠĠ ĠĠ
Ġpe ople
Ġdre am
J UL
U G
Ġa ir
Ġs ight
Ġb ound
ce d
Ġgra cious
o e
Ġs it
Ġy ield
B RUTUS
U FF
r an
Ġso vere
Ġpr in
Ġknow s
ID A
UFF OLK
n ow
ĠA R
A C
D o
c ess
Ġy ears
ĠEng lish
BER T
Ġtru st
Ġd am
ere r
Ġt er
Ġp ar
ĠA r
ad am
ĠT OB
ĠG ive
la im
Ġbet ween
Ġfur ther
ĠBEL CH
ĠTOB Y
Ġm urd
Ġcomm on
EN A
IN AND
ĠF rom
Ġthy self
ure d
Ġdis p
ERD INAND
T w
Ġc ho
Ġhat e
r ing
ĠĠĠĠĠĠĠĠĠĠĠĠĠĠĠĠĠĠĠĠĠĠĠĠĠĠĠĠĠĠĠĠ ĠĠĠĠ
ĠC itiz
ĠV II
Ġbr ought
Ġother s
B EN
V AL
n o
Ġw ound
ES AR
Ġho ly
AND ARUS
C OR
G ood
a le
a ff
L AN
Ġas k
Ġde l
op at
ANTON IO
Ġs k
OL LES
Ġa ff
Ġlo ves
opat ra
D EM
F ORD
b ed
ha nt
er y
Ġre c
RESS IDA
Ġb ar
Ġgi ven
Ġbel ieve
Ġser ve
Ġea ch
D ROMIO
Ġd rink
ow ard
ENT INE
! '
Ġw ise
Ġc ut
ce ed
ic es
T EUS
AL LO
RO TEUS
Ġgra ve
Ġremem ber
ALLO W
Ġw is
AT O
LA DY
C LAUDIO
n ed
Ġb at
Ġp ay
ond on
Ġday s
Ġhapp y
ll y
Ġbe at
ĠS old
ĠL ondon
che d
Ġbra ve
ĠCle opatra
am p
AN S
Ġworth y
B IRON
P ETRUCHIO
Ġc or
ces ter
K ATHAR
Ġs ide
Ġkn own
Ġm oney
Ġf our
ĠA re
Ġfa rew
RO IL
Ġfarew ell
ROIL US
Ġf it
ĠP ro
un es
Ġcont ent
S hall
Ġpo ss
ĠU pon
Ġg all
G o
Ġm in
Ġc ol
Ġl ad
Ġg ar
Ġfor g
Ġe m
ent y
est ion
Ġvirt ue
B EL
H ave
fe ction
Ġsub ject
Ġgr ound
C AL
T R
Ġs ake
Ġw hile
Ġlove d
IC E
Ġple asure
ĠĠĠĠĠĠĠĠĠĠĠĠĠĠĠĠĠĠĠĠĠĠĠĠĠĠĠĠĠĠĠĠ ĠĠĠ
Ġgener al
Ġ QU
Ġwor k
Ġr ing
Ġrep ort
P ANDARUS
Ġli ves
ĠL ike
Ġlea d
B US
R e
Ġpers on
C RESSIDA
Ġp ast
Ġe at
Ġmer ry
VAL ENTINE
i ant
C ARDINAL
Ġt en
Ġa ge
et er
are well
Ġex p
a z
Ġa c
Ġm ock
Ġo pen
Ġpo int
Ġsovere ign
Ġt ouch
IC LES
ORT IA
W ill
us h
AV IUS
o int
ir th
ĠD id
ie ce
F ERDINAND
Ġb old
ĠV en
M essenger
Ġa ct
Ġm outh
Ġsa ve
Ġwom en
P ROTEUS
Y ORK
ĠP ED
ie f
pea k
Ġpro f
Ġbea uty
ĠPED RO
Ġm ercy
Ġkn ave
Ġhe ll
ĠC om
all y
ED ICK
ĠCA ESAR
p her
in ed
Ġw oo
Ġw onder
ot s
Ġre qu
ur t
Ġde ep
ĠG l
ĠLE ON
ĠVII I
N OR
ĠW ould
Ġsu m
Ġsu it
ĠTro il
Ġdi v
HEL ENA
st and
Ġpr ot
ĠJ ul
Ġri ch
Ġenem y
Ġto wn
OL PH
ARD OLPH
Ġlie ge
i xt
Ġne xt
oth ing
Ġent er
B E
ĠHe ctor
Ġ ord
Ġm orn
oo f
Ġear s
Ġtend er
Ġ est
Ġin c
Ġat t
Ġex c
Ġpati ence
B UCKINGHAM
ou cester
ĠL ook
PAR OLLES
s ue
u ous
Ġm ove
EN IUS
Ġhea vy
IST OL
ceive d
ink s
A P
B OT
I ON
u b
Ġs ign
ĠD e
ICK LY
Ġpra ise
ur se
Ġkn ew
Ġv is
ĠQU ICKLY
P O
Ġ EN
Ġha ir
AR BUS
Ġgo es
Ġheart s
S UFFOLK
ir m
Ġconf ess
ĠCitiz en
B RO
C ASS
Ġh ot
Ġp en
ĠC or
ĠC an
Ġfa st
OB ARBUS
ĠEN OBARBUS
BRO KE
g g
Ġw ater
Ġsp eed
Ġsh ort
Ġbl ess
ere d
J A
L ord
a v
i res
ĠE PH
hi l
ES US
OM IT
LAND O
OTH ELLO
ĠEPH ESUS
OMIT IUS
L AR
Ġs ur
ra ce
ĠC h
Ġde v
Ġne ither
Ġgentle men
Y M
m ber
ĠA d
ĠT w
ĠO n
IA GO
ROS PER
OG EN
ROSPER O
u ght
ve l
Ġcan st
Ġp ret
ri es
ol k
Ġpl ain
nd s
ĠH el
ĠM ay
Ġtoo k
ĠGl oucester
G EL
ra h
as k
IO LA
Ġent reat
VOL IO
BEN EDICK
GEL O
w ith
Ġd ro
Ġp u
Ġe mb
F rom
re ady
Ġwor se
um ber
SH ALLOW
S AL
ĠH ath
os om
Ġstra ight
B U
H ER
at ed
ri age
Ġqu ar
RA M
Ġdes er
Ġchan ge
BU RY
T ROILUS
Ġw eak
Ġb urn
Ġb ase
our ish
Ġcour se
E ED
O ur
p r
it ies
Ġde li
ĠAn other
Ġcoun sel
R I
b ly
Ġc oward
eth inks
Ġb osom
ow ers
Ġbe hold
Ġsomet hing
e ep
Ġw all
Ġth ri
Ġe xt
Ġpro v
IS ABELLA
Ġhast e
MEN ENIUS
D ER
Ġdo g
Ġtw enty
Ġgl ad
Ġvo ice
Ġw atch
les h
Ġtra itor
N or
v ent
ER N
ic les
Ġthem selves
Ġqu estion
Ġbeg g
pher d
Ġd uty
Ġnot e
ort al
Ġapp ear
Ġsold ier
o ver
Ġval iant
ĠServ ant
ind s
Ġbl ack
Ġdid st
B AN
Ġw alk
it es
ot e
ĠE ven
Ġs at
ĠF l
P ORTIA
o or
Ġto ward
ĠP er
ĠL A
Th ird
ress id
ull y
Ġsc orn
LEON TES
e k
Ġf lesh
Ġfa vour
fe it
Ġjust ice
F E
Y et
on es
Ġapp ro
dd en
Ġsuff er
A n
F L
f ter
ĠA b
ĠL ife
Ġcom ing
Ġcon st
Ġoff end
Ġstand s
A l
T hy
ce pt
ĠC ressid
IN O
Ġlo ss
Ġhar m
ĠU n
Ġgu ard
g es
h ood
Ġc ity
on a
P ISTOL
r ist
s o
t hat
Ġb ad
erc hant
Ġpresent ly
y ou
Ġhe ir
ĠP age
ast e
ci us
PER ICLES
N E
V IOLA
e el
ĠAt tend
Ġden y
UG H
S S
p l
p are
Ġa ction
Ġsp ort
Ġtru mp
Ġdes p
Ġsold iers
Ġspo ke
Ġbe come
Ġu nd
ĠL ady
OR LANDO
Ġsw orn
Ġal ready
Ġwar s
Ġwit hal
Ġcl ose
ĠThere fore
LEON ATO
w eet
Ġo w
Ġg rant
Ġu nt
IO LAN
Ġmar ried
IOLAN US
B ETH
Ġw ret
al m
ĠC y
Ġj est
AC BETH
Ġbat tle
i p
Ġo pp
en ess
Ġre g
Ġpl uck
Ġcha mber
IM OGEN
m ed
Ġc reat
ĠF ORD
ci ence
Ġmo on
OLI VIA
ĠVen ice
ĠD E
Ġpr ithee
Ġheaven s
P EY
Ġc le
et ch
oo p
Ġst ir
th y
Ġpro p
OM PEY
Ġban ish
SP EED
Ġfor b
ver n
am ent
em pt
Ġdeli ver
R ICE
U pon
Z AB
ĠE LI
Ġsp eech
AT RICE
ZAB ETH
ĠELI ZABETH
P ROSPERO
i ence
l er
Ġt ak
Ġl ack
ea st
ĠW as
as hi
Ġal most
Ġneed s
E BAST
m and
s es
in al
ll ent
Ġg ro
ĠThe se
Ġres pect
Ġmurd er
LAR ENCE
EBAST IAN
an g
Ġtr ou
Ġfe el
P ro
Ġm od
Ġm ount
ĠS ome
AN GELO
Ġoff ice
AD O
Ġstre ng
Ġreven ge
Ġdo or
ck s
eas ure
Ġstre et
D OMITIUS
Ġt it
re l
re y
Ġw ild
Ġl ow
ĠL UC
Ġsu dden
Ġking dom
Ġhour s
! --
v ol
Ġb ro
Ġb ond
Ġwor ship
aint ed
be y
Ġgri e
b it
Ġd ark
le x
LA UN
Ġoff er
CH AR
Ġson s
UCH ESS
OT SP
ĠSold ier
OTSP UR
p es
id ow
ĠM istress
ĠO R
Ġthan ks
Ġmorn ing
C ESS
h ind
Ġre b
ĠM ore
ĠAN T
use d
LUC IO
UNT ESS
FE U
t ing
Ġf ra
ea ch
Ġe mp
Ġre d
hen s
Ġsc ar
ĠCor iol
M ADO
b ury
Ġ id
in es
ĠĠĠĠĠĠĠĠ ĠĠĠĠĠ
ut ion
ĠH arry
Ġre ady
ĠC ass
Ġb ook
Ġf at
ĠO ut
ET ER
n k
Ġv ile
OL ING
Ġbeg in
Ġlords hip
ĠPr ince
ĠAR MADO
OLING BROKE
xe c
Ġad d
ĠWho se
C ELIA
S IL
o ss
Ġha ving
el ine
Ġmar riage
mb eline
Ġpa le
Ġstri ke
OCT AVIUS
Ġf am
Ġin ter
ru st
Ġwho le
Ġpri v
M AL
en ch
an us
im on
ĠP l
IL L
JUL IA
Ġm al
Ġf ashi
Ġd ish
Ġso ft
ign ior
Ġwr it
Ġcomm end
Ġunder stand
ĠPr ay
ham ber
D ES
G ON
ar um
ĠH UGH
ĠC l
Ġli ps
Ġse ver
Ġking s
Ġletter s
BE ATRICE
inds or
Ġm ot
EN S
Ġspeak s
ix th
V ANS
on st
ĠM urd
ĠE VANS
ĠF irst
Ġwh ite
Ġcons cience
Ġserv ant
Ġch ur
G od
H ath
T IMON
Ġf east
Ġc amp
ed y
ĠW indsor
ĠP om
ĠK ate
Ġchild ren
ĠCh rist
ĠANT IPHOLUS
Ġt ent
nd red
Ġl augh
Ġse lf
ĠTh ough
Ġtru ly
ire d
Ġab ove
Ġstreng th
u ra
Ġca se
um ph
ud io
ĠLE AR
A re
E W
H ENRY
Ġw oe
ĠT y
ĠT ake
Ġab s
PRIN CESS
Ġres ol
ĠRome o
BERT RAM
S EY
U KE
r on
Ġm orrow
Ġg ot
Ġbe hind
Ġj o
ec ause
Ġad m
Ġpret ty
B Y
H OTSPUR
b ot
i ct
is f
Ġh ide
ĠS ay
ĠB OLINGBROKE
ard inal
Ġra ge
Ġwit ness
LI FF
H ost
P A
g ment
o ly
Ġ ve
at or
Ġre l
ĠF arewell
ant age
ĠV er
Ġla bour
BAST ARD
ĠANDR EW
COR IOLANUS
I EL
Ġh ost
ast ers
eal th
ADR IANO
Ġsen se
A t
e em
p in
Ġhe al
Ġe ither
ĠD UKE
ie u
ust ice
y ra
Ġs igh
Ġb a
Ġf ive
ĠW OL
ĠL ove
TH UM
BER LAND
Ġlear n
ĠWOL SEY
THUM BERLAND
R EY
n y
Ġc ross
ing er
ĠM adam
Ġli ber
Ġan g
ON A
Ġen c
Ġfort unes
Ġspir its
Ġinst ru
Ġord er
P OMPEY
S EBASTIAN
V ER
y ing
Ġs hip
Ġm ortal
it ter
Ġd ire
id er
ra w
ST ARD
ation s
Ġsl ain
ĠCla udio
Ġfashi on
v ost
Ġm ist
an ch
Ġbe ast
Ġis sue
ĠM ost
ĠM easure
Ġche er
Ġhu ndred
aw d
Ġa g
Ġn ay
ĠW ere
Ġli ving
ĠP ar
ĠN othing
LA FEU
Ġdre ad
Ġprin ces
H UM
a ith
Ġ eas
is es
is hed
it ed
Ġl im
Ġth row
ĠĠĠĠĠĠĠĠ ĠĠĠ
ĠS c
Ġe xec
ic er
Ġac qu
k ed
he ad
Ġa p
Ġf ill
en ge
ĠT ill
id d
la ck
Ġal ong
Ġmight y
With in
IT ES
tw as
ERS ITES
Ġsla ve
ĠTroil us
C U
D UCHESS
b les
l ain
n own
ĠS en
Ġfor ce
Ġli on
Ġr an
Ġple as
Ġlong er
ĠGentle men
H OP
M OR
R AN
v est
Ġ Q
Ġs ho
Ġf etch
Ġlo ving
ING S
Ġhonour able
IS HOP
Ġpres ence
AST INGS
Ġpass ion
anc y
BEL INE
YM BELINE
D id
L ORD
T IT
f fect
z e
Ġ ut
Ġs eas
re r
Ġd in
Ġfor m
la w
IL IA
Ġch oose
Ġoft en
i ent
Ġs im
en ed
Ġc r
Ġbe ard
il s
res h
Ġmar ch
Ġsoul s
Ġval our
Ġsec ret
ĠDe ath
c a
Ġd ied
Ġp ost
ĠA way
LO T
C ON
c her
Ġg ift
ĠT al
se t
Ġst ru
ĠG LOUCESTER
IC INIUS
Ġoff ence
Ġhead s
hil st
Ġb le
Ġf eed
if f
Ġaf fection
ag es
CO UNTESS
DEM ONA
ĠCy mbeline
O n
Y SS
r ous
s p
Ġt y
Ġo b
Ġp it
ĠS ee
Ġst ud
ON IC
Ġpro ceed
ead s
UL YSS
Ġdou ble
ĠANDR ONIC
ULYSS ES
u nder
Ġa y
Ġw ood
ĠH a
ri ght
Ġseem s
Ġsat isf
ĠANDRONIC US
Ġb irth
Ġl an
Ġp rev
ill es
Ġour selves
Ġcon qu
Ġsa fe
Ġpart s
IL LO
Ġbu y
Ġpati ent
Ġdeed s
Ġexce llent
Ġtit le
E ven
W ould
s u
v ia
Ġ ign
ĠN ight
Ġwould st
um ent
Ġta le
ANT IPHOLUS
Ġenem ies
Ġcast le
v o
ĠS ixth
Ġe ffect
ĠL e
ĠY es
ST HUM
OL Y
el come
AT US
led ge
Ġprom ise
ĠMurd erer
LOT EN
STHUM US
: '
Ġ 6
Ġt each
Ġs n
Ġo cc
ĠT ell
et y
al t
Ġsm all
ORT ENS
Ġdanger ous
TR ANIO
ĠTal bot
E O
T A
g in
u gh
ar ch
ing ly
ĠO ne
AL BOT
Ġca p
um b
Ġro b
ĠLord s
TH ERSITES
Ġtr oth
Ġpa per
LY S
ETR IUS
Ġdep art
ĠLEON ATUS
Ġw ed
Ġb ow
Ġo bs
if y
Ġbre ast
ĠMar ry
Ġlad ies
C K
E AR
T IST
Y ET
Y LO
c ent
w or
re m
Ġh urt
Ġbe c
IS BURY
Ġcons ent
Ġchan ce
AP TIST
Ġpu bl
YLO CK
APTIST A
h om
p est
ut us
Ġst op
ĠM essenger
ru pt
ĠAl as
ĠCla rence
N e
n ers
in a
Ġl ust
Ġfor sw
ast ard
Ġgo d
ĠJ ew
IM O
Ġgi ves
Ġcur se
Ġsec ond
Ġfore st
Ġbri ef
S h
U n
f ully
Ġs eal
Ġm atch
ve y
ĠS ignior
Ġfor ward
Ġst eal
as ion
al s
il ity
qu e
Ġvirt uous
Ġjud ge
ĠCressid a
Ġtrou ble
ĠCoriol anus
B ASS
g l
g y
Ġ er
Ġg ates
ĠH ad
EL L
IL LES
Ġke pt
Ġfool ish
Ġhum our
ĠTro y
Ġjud gment
Ġposs ess
CAL US
ĠHel en
MAL VOLIO
A U
es sed
ĠS il
Ġv ow
end s
Ġbre ed
ak ed
ĠĠĠĠĠĠĠĠĠĠĠĠĠĠĠĠĠĠĠĠĠĠĠĠĠĠĠĠ ĠĠĠĠĠ
Ġc ardinal
Ġd rown
Ġfor get
Ġsu cc
ie w
em n
ud e
Ġfl atter
Ġquick ly
ORTENS IO
Ġb reat
Ġd ea
Ġy ear
Ġne igh
Ġpray ers
E G
Ġw on
Ġw ent
ch illes
Ġsha d
AN O
Ġpr ide
ĠTh us
pe y
au ght
Ġlea st
erv ant
Ġwr ite
tw ere
Ġaw hile
Ġwis dom
Ġheal th
G U
Ġf ine
ĠT imon
al es
ĠC har
ĠM ac
ĠF al
Ġca ptain
Ġent ertain
uck ing
Ġpra ct
ĠPer icles
ĠAttend ants
ura l
O UCH
b orn
Ġo pin
ĠS aint
ĠE x
Ġno ise
ON E
ST ONE
Ġbl ow
Ġpo ison
Ġper form
NOR THUMBERLAND
HER M
Ġchur ch
Ġang ry
OUCH STONE
C YMBELINE
Ġs or
er n
Ġso le
ĠR oman
Ġbear s
b ut
m ore
le ep
ĠS uff
Ġme asure
ĠL uc
Ġan on
ĠD ON
Ġam ong
Ġgo ing
Ġr ound
CO STARD
ĠVer ona
H er
M ore
u nd
u ri
Ġd ri
st aff
Ġsha r
Ġpro c
DES DEMONA
C LIFF
M ED
O W
S ICINIUS
g ing
m y
o ke
Ġd a
EN TIO
th ough
IO MED
Ġwor st
Ġqu iet
ove d
Ġfool s
Ġdin ner
IOMED ES
E X
S ervant
i led
Ġd u
ĠB el
Ġsa f
Ġper ceive
ĠAt hens
Ġtre ason
ROM EO
I RA
c on
t s
Ġf resh
Ġc ru
Ġh orn
ĠS econd
ĠS peak
Ġman ner
AM ILLO
eal ous
MAR IA
OM ERS
ĠĠĠĠĠĠĠĠĠĠĠĠ ĠĠĠĠĠ
ĠBr utus
KATHAR INA
OMERS ET
I P
M OTH
S ome
u al
id ed
ak ing
Ġquar rel
b roke
s a
on our
ĠM erchant
am es
Ġra sc
Ġcou nter
Who se
BO YET
W as
l oy
ar ge
Ġp ains
Ġe le
ge lo
and er
il es
Ġwh ore
for ce
Ġpre pare
ĠTw o
ĠPom pey
B ARDOLPH
E PH
F OLK
G ive
M IAN
d ge
g are
w ill
Ġ QUEEN
Ġs hi
Ġw ert
er ry
ĠT it
ĠH ast
ra ct
EN ES
Ġv iew
Ġgo vern
ic ul
Ġbl ind
SH YLOCK
ADR IANA
Ġtak en
ĠSuff olk
C LARENCE
H OR
M ON
a kes
g le
Ġs ort
Ġc arry
Ġin no
ea se
ea ven
Ġst ar
Ġan ge
ĠG ree
ru e
Ġv i
um e
Ġfear ful
os ition
ph in
itt ed
I ET
r or
r id
ĠT ower
ir on
ES CALUS
Ġv ain
Ġcon cl
Ġun k
IS ANIO
ĠAn gelo
ucking ham
M ay
Ġm asters
Ġb itter
Ġd ull
Ġp age
ĠA h
ĠA chilles
Ġher self
Ġkn ock
Ġqu al
Ġgold en
C LOTEN
P AGE
a x
Ġm ed
re ad
er ve
Ġp ain
ĠS ha
Ġde mand
Ġour s
IA CH
Ġsa c
ĠJ ove
Ġgre en
KATHAR INE
gare t
IACH IMO
Ġw hi
ĠB uckingham
ĠJ ack
ick ed
ber t
Ġarm y
Ġdru m
PO STHUMUS
ĠPar is
Ġpubl ic
U EL
W ere
Ġf ier
Ġf led
Ġc red
Ġj ew
air s
Ġfault s
UEL LEN
T ill
m on
Ġf rown
ho st
Ġsh ore
Ġsh ows
Ġpro per
ose d
Ġal ive
ĠSh ould
l anch
w oman
Ġs land
ir c
ER IUS
ound s
Th ough
os al
Ġgl ory
ID ERIUS
Ġcourt es
c han
Ġt ry
Ġp iece
ent ine
ĠH am
ĠL a
Ġam b
ĠV al
Ġla id
ĠMar garet
Ġprince ly
S A
T OUCHSTONE
s per
u ce
z en
Ġth ither
ve ll
le y
Ġli ved
Ġgreat ness
There fore
ROSAL INE
OCT OR
ACH ILLES
Ġcol our
Ġopin ion
H ASTINGS
Ġs ch
Ġw ea
id s
as ons
ĠM erry
ur st
Ġar g
Ġwhere fore
Ġta kes
M ACBETH
c y
m ia
u a
Ġt or
ou nter
Ġs us
re ed
re nt
Ġb astard
ĠC hi
IN S
Ġde c
il ty
AND ER
Ġbra in
AD E
UM IO
UT OLY
Ġmon th
Ġforg ot
Ġem per
ĠAb out
Ġscar ce
Ġign or
BASS ANIO
UTOLY CUS
' re
B RA
C AMILLO
j oy
m n
Ġl ist
ĠS weet
ON IUS
Ġsor ry
ĠHam let
Ġm ut
Ġm ethinks
Ġd est
Ġp owers
Ġin tend
ĠS ince
ĠW ives
Ġe vil
Ġst ood
AR IUS
ĠP UC
IA M
Ġj ealous
Ġfo lly
Ġpla gue
Ġcont in
Ġprot ect
JA QU
Ġwall s
Ġjo in
i v
Ġb roke
ll o
Ġc laim
om er
Ġg ent
ĠT ra
le ase
ĠP eace
fe rence
ĠAnt on
Ġhum ble
ĠBr it
ĠCA IUS
H E
R eads
S ay
c ha
Ġw ast
ĠI nd
ĠS IR
ur s
ĠE nds
Ġsha pe
ET TA
Ġpur se
Ġplease d
Ġdra wn
Ġpri est
Ġdef end
ĠJul iet
ĠFal staff
Ġcru el
A IN
b eth
Ġo bey
Ġl oud
Ġg a
ĠS al
ĠW in
ĠR o
Ġhon esty
Ġbec ause
Ġshar p
p it
Ġ es
it ors
Ġd ance
ar l
Ġp et
at ri
Ġbe ha
am ing
Ġfa ire
ort une
Ġhad st
au phin
Ġro gue
Ġcall s
Ġtra in
Ġremem b
Ġdru nk
Ġprison er
LEN DER
CASS IUS
RI AR
EPH ANO
C an
H ORTENSIO
J ustice
O S
Ġ ed
Ġa uth
Ġw ine
Ġc re
ĠM ust
ĠR osal
Ġknow ledge
un ning
AT IANO
Ġgreat er
DEM ETRIUS
Ġsucc ess
H a
M adam
S INO
g ers
Ġg ross
Ġu r
ter s
ĠM ake
ĠO ff
Ġv an
Ġcon ce
Ġsir rah
Ġway s
UL INA
Ġle g
CT OR
Ġwound s
ĠOR SINO
ĠMac beth
C a
M arry
h ouse
m ble
Ġp un
Ġhe ld
our th
Ġe qu
Ġsha ke
ĠĠĠĠĠĠĠĠĠĠĠĠĠĠĠĠ ĠĠĠ
Ġgood ly
Ġpr oof
Ġun f
ĠAN NE
Ġboy s
Ġcond ition
B ISHOP
B APTISTA
G US
L ike
d ing
g o
y s
an io
ĠĠĠĠĠĠĠĠĠĠĠĠĠĠĠĠ ĠĠĠĠĠ
EL AND
ol ing
ĠTh ird
Ġthen ce
EST MOR
ĠĠĠĠĠĠĠĠĠĠĠĠ ĠĠ
ĠĠĠĠĠĠĠĠĠĠĠĠ ĠĠĠ
EM IO
Ġdel ight
Ġrequ est
FL UELLEN
LAUN CE
omer set
ESTMOR ELAND
e ks
st ance
at ure
Ġin j
Ġe ld
ĠP ER
us ion
ĠThe ir
ell ow
Ġsw ift
Ġr ough
per ate
ĠMar cius
Ġfell ows
ĠSh rew
ott en
TIT US
Ġemper or
A UTOLYCUS
L ook
Ġm id
Ġo bed
Ġl end
Ġth ro
Ġre ceive
am b
ĠF ord
if ul
Ġfa re
ĠD auphin
TH UR
ci ent
Ġvis it
Ġbegg ar
Pro vost
oling broke
Ġin s
ĠS omerset
ch ief
ĠB olingbroke
The se
row s
Ġhonour s
Ġcha st
iss ion
Ġinst ant
Ġborn e
ĠChrist ian
gy pt
X ENES
Ġf ie
Ġc atch
Ġc irc
ĠS uch
Ġst or
Ġre f
ĠL anc
ĠG u
ĠK ATHAR
Ġex pect
OM INIUS
AB IAN
OLI XENES
JUL IET
ĠChi ef
ĠLanc aster
m in
p ar
u ed
Ġ ver
Ġme lanch
ho se
Ġhear ing
ĠAn ne
ĠSt and
Ġprom ised
Ġdisp atch
Ġemb race
Ġsever al
Ġstru ck
ĠLe on
; '
C ADE
E AS
N ON
O ne
Y es
Ġt aste
Ġd eal
Ġy ea
Ġp ure
Ġin v
ĠB ARDOLPH
Ġde g
if ford
ON G
ĠY ea
AM EM
Ġcha in
Ġbest ow
Ġter ms
JA X
Ġcreat ure
Ġcle ar
AMEM NON
G entle
H OL
M ost
i ch
i ance
s ic
w ise
es ter
Ġl est
ĠA gainst
ĠS p
ĠĠĠĠĠĠĠĠĠĠĠĠĠĠĠĠ ĠĠ
Ġv iol
ard en
Ġne ck
Ġbl essed
hy sic
ac le
Ġdro p
Ġtrump et
Ġmot ion
Ġsaf ety
Ġmelanch oly
V IUS
j o
Ġw icked
ĠĠĠĠ ĠĠ
Ġth ird
Ġre ceived
ĠE gypt
AL L
way s
Ġcour age
Ġle gs
Ġemp loy
Ġpriv ate
ĠSen ator
K ENT
or al
or ge
Ġf ru
Ġc orn
Ġp in
Ġhe els
ĠE arl
Ġshe pherd
Ġbl ame
Ġus ur
AT IO
Ġru de
MAR INA
Ġche ek
ĠHer o
GR UMIO
Ġow e
Ġcourtes y
ĠAnton io
Ġauth or
C IUS
O AN
V IRA
i ans
o llow
or ous
Ġc unning
ĠB es
Ġre vol
Ġfa il
ard ol
ST EPHANO
EL LE
el f
AT ES
Ġwit s
Ġtong ues
pose d
Ġmon ster
Ġadv antage
LAUD IUS
Ġcho ice
Ġsum mer
CHAR MIAN
ILL IAM
Ġut ter
VIRA GUS
ardol ph
Ġg ain
Ġme re
ĠC all
Ġas ide
Ġne cess
are nt
Ġhold s
ĠCl ifford
Ġocc asion
M ER
W IS
j ax
s on
s ay
Ġb ones
Ġd ies
Ġl arge
ĠA lex
ut ation
ĠC LAUDIUS
ĠM uch
Ġv ent
ic ious
Ġra re
Ġtr ans
Ġrem ain
Ġtri b
Ġpers u
Ġgre et
Ġsubject s
PO INS
Ġmal ice
yra m
ĠQ u
GU IDERIUS
ĠPUC ELLE
R ICHARD
r im
r ate
Ġ 7
Ġt ear
Ġf ig
Ġth reat
ĠĠĠĠĠĠĠĠ ĠĠ
id ent
Ġan cient
ust om
ock s
Ġpre cious
Ġexc use
Ġwret ched
Ġforb id
D ELLO
D IOMEDES
U BERT
is ho
Ġbe nd
Ġwe ary
Ġyour selves
Ġst uff
Ġde bt
ĠG re
Ġman ners
Ġbl ows
Ġr ans
Ġwhen ce
Ġwhere in
Ġwr ath
LUC ENTIO
Ġmon st
ION DELLO
ĠCass io
Ġvi ctor
: --
T ake
t ake
v ish
Ġb are
Ġf ew
Ġf inger
ĠP H
ic al
Ġbrother s
Ġvir gin
Ġoath s
Ġdam ned
Ġenc ounter
Ġproc laim
C om
a unt
m it
y our
Ġa ught
Ġw o
Ġw idow
Ġf ought
en ance
Ġp ol
Ġp hysic
Ġhe at
Ġu sed
Ġwe ight
if th
Ġsp end
Ġwas h
Ġqu oth
Ġqu ite
Ġdes ires
OF ERN
Ġmaid en
Ġcol ours
NOR FOLK
SAL ISBURY
OFERN ES
P UL
T ALBOT
e g
Ġd ue
Ġst ory
ard s
Ġr ise
Ġcall ed
Ġbear ing
Ġsm ile
Ġgu ilty
ĠĠĠĠĠĠĠĠĠĠĠĠĠĠĠĠĠĠĠĠ ĠĠ
Ġbri ght
Ġthri ce
PA ULINA
Ġliber ty
PUL ET
or ious
Ġf i
Ġth under
ĠA m
our se
Ġst eel
Ġre ve
ĠM il
Ġcha ll
Ġend ure
iz e
ĠServ ing
com es
Sh ould
Ġshad ow
ĠVal entine
JAQU ES
Ġa id
Ġs ong
at ing
Ġre vere
IN US
ĠD es
pp y
Ġdis m
IAN CA
Ġcomp an
Ġche eks
GR EMIO
Ġgrow s
BEL ARIUS
oint ed
hamber lain
Ġconqu er
ugh ter
I BAN
P ISANIO
S ince
Y ea
Z AL
d ain
m o
Ġd ry
Ġh or
ed s
ĠW est
ĠH ear
ri a
ĠB ened
Ġno se
Ġkn eel
OR C
Ġbr ow
Ġdis g
Th us
Ġfear s
Ġad ieu
Ġgl ass
Ġsm o
BER RY
Ġthr one
GR ATIANO
OG BERRY
Ġsil ence
Ġprin cess
Ġappro ach
ĠLUC IUS
SIL VIA
ron ic
HE CTOR
ZAL O
O ut
b b
d er
t hi
Ġs ix
Ġb ene
is ing
Ġf ame
om ach
Ġg ir
ay s
ĠB ardolph
ĠP ercy
Ġse ven
Ġlo ver
Ġam az
ie ur
ic ers
Ġtw ice
Ġdes ert
Ġper fect
Ġim ag
EM ILIA
Ġpa id
Ġsword s
Ġimp ort
Ġwa it
Ġsil ver
Ġdam n
yram us
Ġrans om
P OLIXENES
p he
u g
w ixt
Ġn urse
ar ing
om p
ĠA jax
Ġme nd
EN EAS
ĠP OL
Ġdo ing
ĠL ear
ĠG e
Ġwhe ther
Ġun less
AND A
IR ANDA
DU M
IM P
ĠMar k
ace d
Ġwrong s
gu es
Ġwant on
Ġwin ter
Ġmin ister
Ġprot est
Ġmove d
Ġid le
elf th
ĠPOL ONIUS
p o
Ġs ens
Ġm our
Ġw ench
en et
Ġd uc
Ġp ot
Ġth ief
Ġg arden
Ġme at
Ġst ain
Ġst ars
ĠD oth
Ġshould st
Ġsa ck
Ġro se
Ġfo e
ID IUS
ged y
Ġsole mn
F RIAR
H ad
S LENDER
Z O
k in
k er
ha ve
Ġb as
is p
Ġd well
Ġhe ed
ir t
EN ZO
ES EUS
Ġan ger
OR ENZO
ST AN
Ġfo es
ci an
Ġrep ent
Ġaw ake
Ġhu ng
ote us
Ġeas y
EAR L
Ġneigh bour
Ġrememb rance
? '
A JAX
N IA
Ġo d
Ġc ried
ĠH eaven
Ġst omach
Ġre ign
Ġkn ee
el ve
Ġsa il
li p
Ġle is
Ġsla ughter
umber land
ĠTit us
HOR ATIO
ĠRosal ind
T OM
W ILLIAM
r t
w hat
Ġb ount
Ġf ond
Ġc ost
Ġd ign
ĠS e
ro ad
ĠL u
ĠG reat
Ġsp ring
Ġv ows
Ġcon c
Ġshe ep
Ġgall ant
CASS IO
ĠSil via
Ġcounter feit
L US
T ell
c il
f er
g ar
Ġt une
he art
Ġw ives
Ġw ealth
Ġf ood
Ġn iece
Ġn umber
ĠH ark
ct ed
ĠE p
Ġgra nd
Ġra in
ĠBe ing
Ġfollow s
Ġcrown s
Ġforg ive
ĠAd o
Ġsim ple
Ġstud y
HOL OFERNES
DUM AIN
C OMINIUS
D OL
Ġb uck
Ġf aint
Ġh ol
Ġh unt
Ġp ort
om as
ĠW ARWICK
Ġfor mer
Ġre asons
Ġon es
Ġcon j
LE ANS
Ġbet ray
EM ANT
Ġcons ider
ĠPr oteus
Al as
Ġbro ken
Ġpract ise
Ġsland er
ĠLeon at
Ġfru it
Ġleis ure
EMANT US
ou nce
Ġs qu
Ġf ancy
Ġme ant
ĠB ecause
Ġsp ent
Ġear n
ors es
Ġkeep s
Ġlaw ful
Ġdeser ve
Ġarg ument
D OCTOR
I Z
P ray
S ee
S OMERSET
f l
y ond
Ġl ament
Ġp ound
Ġwe igh
ĠC lown
ĠP ri
ru ly
Ġsp are
Ġkn a
OR IZ
ĠNe ver
Ġr id
Ġpart icul
Ġen joy
AG AMEMNON
Ġtri al
Ġcount enance
Ġmis er
itt ing
Ġaff airs
Ġexp ress
Ġprof ess
Ġexec ution
Ġforsw orn
CLIFF ORD
Ġrasc al
Ġmonst rous
ORIZ EL
b ra
e ous
re ck
Ġc at
Ġd ust
Ġbe f
Ġst one
Ġst ol
al f
ĠC on
ĠM ISTRESS
th umberland
Ġse at
Ġfri ar
Ġtw elve
Ġchar ity
Ġtoward s
ĠTy re
Ġbreat he
Ġusur p
A gainst
D OGBERRY
E n
H UBERT
a fter
e es
s he
v ours
Ġm irth
Ġb ig
at ors
Ġme m
ĠW elcome
ĠP o
Ġdo ctor
pp ed
Ġun ha
ist ol
Ġwhere of
ction s
Ġrem edy
ouch sa
Ġdish onour
GON ZALO
umph rey
ATES BY
isho p
ĠBened ick
b an
i est
r ors
Ġa ble
Ġf eet
Ġf ury
Ġc i
Ġc uck
Ġg ate
Ġre alm
ĠR O
el ess
all ow
Ġthink s
Ġab road
Ġfl owers
Ġwit ch
Ġcont r
Ġta il
Ġsoon er
Ġble ed
Ġlan gu
F ABIAN
N urse
U E
a id
Ġa im
Ġm essenger
is c
Ġf le
Ġf ain
en ces
Ġy onder
ce nd
Ġha p
Ġre nown
ĠF ortune
and s
Ġlo yal
el t
ĠTh omas
um p
Ġmay st
Ġpro sper
ĠK eep
Ġfl ood
Ġgu ilt
Ġsupp er
up id
Ġcor rupt
ask et
Ġdread ful
Ġty rant
Ġprotect or
ĠPH IL
M ust
Ġ &
Ġc ustom
Ġl en
Ġh it
Ġto p
ĠC O
Ġdo om
Ġv enge
Ġsh ut
Ġho pes
ĠK now
aint ain
Ġfall s
Ġkind ness
Ġmean ing
Be fore
Ġhapp iness
CAL IBAN
C EL
I G
M UN
i am
ou ds
in ation
is bury
Ġg own
ĠT H
et ween
our t
ĠB l
ĠB ass
ĠC ARDINAL
ĠP RIN
ĠF ourth
ER LE
Ġlo ath
la ce
Ġdis gu
Ġlea ves
eet h
Ġdes perate
EST OR
Ġfl ight
ag ger
Ġchi ef
UM ERLE
AP EMANTUS
BOT TOM
LYS ANDER
Ġpun ish
ĠKATHAR INE
Ġrevere nd
Ġduc ats
CEL OT
MUN D
F aith
M IRANDA
c us
e y
o ot
v al
Ġw hilst
ĠC ount
if ied
Ġsp ite
Ġsh rew
Ġsw ore
pp ing
Ġmad ness
Ġal ways
Ġfl ower
MAR GARET
ĠMar s
Ġnat ural
Ġtri umph
itiz ens
Ġlear ned
ott om
Ġtrump ets
Ġjew el
Ġcirc um
a ult
f olk
h um
o ard
Ġa nt
Ġb ought
Ġf ee
Ġf irm
Ġd et
an e
ĠA UMERLE
ĠH old
ĠH umphrey
Ġst art
ad s
Ġas leep
ĠP et
Ġno b
Ġcom b
Ġcon vey
Ġun p
IL LE
ED GAR
Ġcl o
Ġsm ell
ac her
Ġem pt
CHAR LES
onst able
Ġap art
ĠChar les
Ġsch ool
C IS
S uch
b ar
i ving
in ing
Ġw ings
Ġw ont
Ġb ab
is her
at t
am ed
Ġgood ness
Ġdis ple
Ġfri ght
Ġper il
Ġaf fect
Ġgu est
ail s
Ġdisc ourse
Ġsl ow
ĠNor thumberland
Ġland s
Ġweep ing
Ġposs ible
RAN CIS
ĠHast ings
A h
F arewell
M ake
d o
Ġb awd
ce l
ed ious
im er
ri us
IN CE
ĠM ort
Ġdo ors
ĠF ifth
il ing
ON S
ol er
Ġgreat est
TH ESEUS
Ġru in
ID ES
Ġle an
LUC ETTA
AV ILLE
IMON IDES
ĠTroil es
HERM IA
Ġcred it
ĠTra gedy
ONG AVILLE
ĠPHIL IP
P r
W ESTMORELAND
h im
Ġt able
it ude
Ġl ed
ĠW ales
id ings
Ġk ins
Ġst ep
hi re
ĠO CT
and ar
Ġall ow
Ġpro d
Ġheaven ly
Ġfollow ing
UM NIA
Ġea se
Ġcoun cil
ĠSold iers
Ġdesp air
Ġwret ch
ĠSal isbury
Ġrevol t
L ORENZO
S weet
b ear
h is
Ġt eeth
it er
Ġh orses
Ġp ack
at har
ad ua
Ġde ce
ant ag
OR ACH
ic y
Ġun s
Ġout ward
Ġpl ot
Ġhar k
ĠNor folk
Ġgrief s
Ġfree ly
Ġvo ices
Ġint ent
atri ce
Ġequ al
Ġauthor ity
ĠGe orge
ONS O
ORACH IO
J OAN
t here
er ved
Ġc her
Ġc ure
om in
ĠA g
Ġst ones
ord s
ĠC upid
AR IEL
ĠL y
ĠAnd ronic
Ġlo vers
ru m
Ġwar m
Ġcl ot
ĠCa ptain
Ġgu ess
Ġmeet ing
Ġbid s
tw ixt
Ġhang ed
Ġbo ot
Ġsing le
lo gue
Ġcond u
Ġthri ve
uri ous
ĠSha llow
Ġfi end
Ġci vil
D IANA
c ri
e at
i ar
n et
Ġt edious
Ġm ir
Ġf urn
it ch
Ġbe comes
im ent
ĠC am
ĠM ont
ĠM ACBETH
AR VIRAGUS
ĠP adua
Ġde ceived
ER IS
ĠD ian
Ġsay ing
Ġro ot
Ġex am
Ġapp ears
Ġcl ouds
IM ACH
Ġcont empt
UL T
Ġbeg ins
RIN CU
ne y
Ġbes ides
ont ent
Ġspo ken
Ġdeser ved
so oth
Ġabs ence
EX ETER
ĠLu cius
ouchsa fe
ERIS SA
IMACH US
RINCU LO
B ecause
n a
Ġ z
ou red
Ġs al
Ġm ild
Ġth ick
Ġto mb
Ġis land
ĠP yramus
ĠF ALSTAFF
Ġse arch
Ġv ar
Ġv ice
Ġho llow
Ġoff icer
Ġen vy
Ġwar like
Ġwh ither
Ġim per
eth ought
Ġtri ck
ĠWill iam
ĠTro j
Ġsomet ime
Ġsomet imes
She pherd
Ġtem pest
ĠTw elfth
FL ORIZEL
Ġacqu aint
Ġran k
Ġdea rest
Ġange l
Ca ptain
Ġparticul ar
A way
C AST
C hamberlain
C LUS
E x
P eace
P ID
r at
r ough
Ġm ain
Ġw ond
Ġb orrow
Ġf ish
ĠS AL
ill o
ter n
ĠB oy
Ġre nder
Ġre ward
IN CH
ĠE r
ĠĠĠĠĠĠĠĠĠĠĠĠĠĠĠĠ ĠĠĠĠĠĠĠĠĠĠĠĠĠ
Ġsp ec
ĠD em
Ġbr ide
RO CLUS
AT ROCLUS
DU FF
pen se
AC DUFF
Ġsk ill
HER O
Ġprop he
Ġsudden ly
ORC ESTER
Ġearn est
ĠAndronic us
CAST ER
PID US
A ENEAS
e ver
f it
Ġt idings
Ġa ud
in y
ĠI nto
Ġl oose
Ġh oney
Ġn aked
Ġth rust
ĠT ale
Ġha z
Ġme lt
ĠW ilt
ĠW hom
ĠB o
ĠC o
Ġher s
Ġshall ow
The ir
Ġca pt
Ġbr ings
Ġj oint
Ġal as
Ġwom b
ĠPr ithee
cl ock
Ġstran ger
Ġser ved
Ġass ured
Ġden ied
Ġsick ness
Ġtem pt
Ġtem per
ĠUn less
Ġforb ear
Ġinno cent
c ing
d le
u ng
w s
Ġm il
Ġm aintain
en ant
Ġh ig
Ġn ames
Ġbe ll
Ġin cl
et rius
ĠW ORCESTER
Ġu ng
ck et
ĠF are
ĠR ich
Ġdis dain
pt ion
CH BISHOP
Ġdead ly
Ġtra itors
Ġbel ow
Ġtre acher
Ġacc ount
Tw as
Ġprof it
ION E
Ġund one
LAUN CELOT
Ġgir l
a ld
c an
r ont
Ġw ander
Ġd if
Ġd ig
Ġd eter
ore d
ĠF air
Ġlo ck
Ġsp ake
Ġfa ces
ĠD ost
ig ence
ĠK athar
Ġen g
Ġcomp l
Ġru le
Ġarm our
ĠU nder
Ġco ver
Ġhum bly
ĠMAR K
Ġdiv ine
ĠFl ore
ĠFl ourish
MON T
chan ce
Ġstor m
ĠEp hes
B es
B AL
B awd
S IMP
b us
Ġt ree
or ter
Ġh id
Ġn ought
Ġg rown
ĠT aming
ver se
ĠO LI
AN US
ĠF r
rom io
IC ANUS
Ġbr ook
Ġper j
Ġpur cha
LUC IANA
Ġvirt ues
ĠHer mia
Ġest ate
Ġext rem
Ġconst ant
OW ER
rid ge
Ġignor ant
Ġchall enge
Ġcontr ary
Ġlen g
ĠMort imer
m ong
o pe
w e
re es
Ġw ide
Ġc up
ĠP ost
ĠD ou
Ġbl est
em ent
Ġpart y
Ġcomm ission
Ġfl ies
ĠBe atrice
Ġcomp lex
os es
Ġgl orious
ati ence
Ġdisc har
Ġbu ried
Ġcra ck
Ġmod esty
Ġmount ain
Ġsigh s
EG AN
Ġvenge ance
S peak
S IMONIDES
a ul
c hamber
e x
h or
m ond
v ious
Ġt ort
Ġm ess
is ion
Ġp ict
Ġg az
ĠS H
ut enant
as h
Ġso re
ĠM usic
Ġno bl
Ġkn ife
Ġkn ees
Ġthere in
Ġr ide
Ġapp re
ĠIt al
Ġfollow ers
Ġunder take
Ġco z
Ġmind s
ĠSt ay
Ġass ure
Ġmis chief
ĠBr ook
Ġmer it
Ġcra ve
VOL UMNIA
Ġqual ity
Ġvictor y
ĠPRIN CE
antag enet
ĠEphes us
F ool
M aster
i ver
s ing
Ġw ol
Ġb ird
Ġc am
se mb
ĠS T
ill s
ĠW or
Ġfor feit
ct ly
ro s
Ġma king
Ġfl ourish
ons ieur
Ġpa ir
Ġseem ing
ĠAl arum
Ġgar ments
Ġreg ard
Ġob ject
wor thy
Ġobed ience
ĠOCT AVIUS
B oth
g n
h ither
t ime
Ġs alt
ha ps
Ġb ark
Ġf un
Ġc ere
Ġn ine
Ġp ress
an ces
et ter
id ius
Ġst ock
ĠB ar
ĠP oor
hi les
th ur
AL ONSO
Ġsw ell
od y
Ġple ad
ĠĠĠĠĠĠĠĠĠĠĠĠĠĠĠĠĠĠĠĠĠĠĠĠĠĠĠĠĠĠĠĠ ĠĠĠĠĠ
Ġlady ship
Ġnor th
ĠWith out
Ġend s
the llo
Ġpri ze
Ġprev ent
Ġthro at
Ġreve rence
Ġsmo oth
Ġempt y
ĠDem etrius
F l
v ous
re am
om ed
Ġha bit
Ġst o
ord ing
ĠB ian
Ġso oth
ĠO thello
ER TR
ĠG ERTR
il iar
ĠTh ink
Ġbr ows
all s
MAR CIUS
Ġvill any
UD E
Ġexce pt
Ġcond emn
Ġbeat en
oss ible
Ġlim bs
Ġprev ail
Ġsac red
Ġbeha lf
ĠCam illo
ĠGERTR UDE
A IS
B IONDELLO
C onstable
J OHN
L ONGAVILLE
P UC
g en
l ook
n s
t a
Ġ X
Ġs an
Ġw ing
Ġw aste
Ġc ries
Ġp ie
ent io
ri ble
Ġre ck
ĠM oor
ur sed
ĠE re
ĠD romio
Ġshe d
ud ge
ag o
Ġcomp ass
for th
Ġconf irm
sand er
Ġret ire
Ġbu ild
Ġdare st
ĠĠĠĠĠĠĠĠĠĠĠĠĠĠĠĠĠĠĠĠ ĠĠĠ
ĠAr t
COR N
Ġdro ps
LYS IMACHUS
ĠBrit ain
Ġdeg ree
Ġmem ory
Ġcondu ct
AIS A
. --
A b
T IUS
c le
i pe
k est
l ock
w hich
Ġ ing
Ġa pt
Ġd urst
Ġp ear
Ġg host
Ġbe lly
Ġin vent
ĠH al
ĠC LEOPATRA
ĠF ie
Ġbl ush
Ġqu it
Ġbet wixt
Ġbre d
Ġgentle woman
ED MUND
Ġapp are
ĠSir rah
Ġtre asure
tw ill
Ġbod ies
Ġadv ance
ĠĠĠĠĠĠĠĠĠĠĠĠĠĠĠĠĠĠĠĠĠĠĠĠĠĠĠĠ ĠĠ
Ġest eem
Ġatt empt
ĠCass ius
ĠSc ot
Ġseas on
Ġsatisf ied
Ġfier y
Ġsus pect
ĠInd eed
ĠBass anio
C Y
O ld
T RINCULO
Ġt aught
Ġa vo
Ġs y
in ite
Ġw reck
Ġf in
Ġfor sooth
ra nd
ĠC al
ĠM en
ĠM al
Ġli est
ĠP lease
ĠD i
ĠD raw
Ġca ve
Ġr hy
Ġhea v
ĠHere ford
Ġbel oved
Ġwind s
PAR IS
Ġdisp osition
Ġshort ly
Ġdev ice
Ġdesp ite
Ġty ran
ĠPER CY
Gentle man
STAN CE
ĠBian ca
B ORACHIO
D oth
N ESTOR
r s
Ġ iron
Ġw ake
Ġw ither
Ġp ick
ĠT ime
Ġha ll
AN NE
ĠG R
Ġv es
ie ved
Ġlove ly
Ġab use
Ġtell s
li pp
atch man
Ġtre ad
Be ing
Ġpe ers
Ġsent ence
ĠĠĠĠĠĠĠĠĠĠĠĠĠĠĠĠĠĠĠĠĠĠĠĠĠĠĠĠ ĠĠĠ
Ġprison ers
Ġmark et
Ġunt il
Ġresol ved
Host ess
Ġgift s
Ġhorn s
Ġfaire st
Ġmid night
Ġhaz ard
? --
A nt
B oy
I GO
V ERS
a vy
b ow
d raw
e ld
f aced
p ir
p ort
Ġs its
Ġm iss
Ġw at
en ing
Ġbe yond
Ġin fect
ĠS yra
ut es
ĠW INCH
Ġst ab
ri ved
ĠM ine
ĠP istol
ĠF ollow
Ġsu per
Ġlo d
ĠR em
ic ate
Ġsw ay
Ġsa v
Ġpart ed
QU INCE
Ġfair ly
ĠCa ius
Ġrep utation
Ġtri f
els h
Ġinf inite
BO ULT
ĠAr thur
DER IGO
ERN ON
Ġmod est
ĠPl antagenet
umb ers
Ġed ge
Ġpol icy
ĠMil an
Ġkins man
ĠWINCH ESTER
C R
C all
n at
Ġs ides
Ġm erchant
Ġf ing
Ġf ro
Ġd ying
Ġl ine
Ġp ainted
ur ing
ĠP is
ĠG et
Ġsh ot
ass ad
Ġper force
iz ed
Ġpre fer
LUC IUS
Ġpri ck
Ġadv ice
ĠEd m
HEL ICANUS
Ġsk y
Ġmin ute
Ġoffend ed
Ġunk ind
ĠWin ter
ĠGu ard
ĠGre cian
ĠServing man
ĠDi omed
Ġves sel
G UN
P ATROCLUS
W ER
d ed
i b
r ite
s oe
Ġt ide
Ġd er
om ans
ed ant
ĠS EN
ill on
ĠW elsh
id ence
ra id
Ġst aff
ri b
ro ach
ĠP ut
ĠF ri
Ġde er
Ġse es
ru ction
IO R
ĠD en
em ber
ol ute
Ġun w
Ġfather s
Ġra ise
PH IN
Ġcl oud
Ġim m
UR GUN
Ġdear ly
Ġstre ets
Ġsleep ing
OLI VER
GO WER
Ġdev ise
Ġfam iliar
AU PHIN
Ġda res
Ġamb ition
Ġamaz ed
ĠSEN IOR
URGUN DY
B IANCA
H ear
W hom
b ours
r is
s hall
he st
is per
er ing
Ġf its
Ġf ix
Ġc ool
Ġc ease
Ġl in
Ġp at
Ġth ie
se mble
ad o
ĠC LARENCE
ĠL est
th is
Ġv en
Ġgra ces
Ġmar ks
Ġear ly
Ġfair y
Ġaf raid
ĠWith in
Ġcha ir
Ġserv ants
Ġsl ight
Ġmaid s
Un less
ĠLuc entio
Ġprepare d
Ġmonth s
Ġdisg race
Ġod ds
ĠRich mond
D EN
E nt
N ERISSA
R EGAN
d es
p et
nd y
Ġc ell
Ġc ock
Ġl uck
ar m
ĠA fter
ĠT em
le ans
Ġfor ces
ĠB oth
ct av
ur ance
ro ll
ĠL o
am our
ER TES
Ġsu ck
Ġfa vours
ĠR omans
ul es
ĠTo by
ol s
Ġwor thi
Ġro ck
Ġal ter
Ġal ike
Ġri pe
ED FORD
ĠU nto
Ġch ide
Ġnat ive
Ġres c
Ġser p
Ġkill ed
Ġsound s
St and
Ġreven ged
Ġdream s
pr ise
vol io
Ġfra me
CON STANCE
HERM IONE
OW BRA
THUR IO
ĠAlex and
Ġfig ure
Ġcompan ion
Ġcuck old
OWBRA Y
A US
D E
I nd
U nder
a pe
f ather
p ic
t on
t ed
Ġs cept
Ġb ottom
Ġf art
en cy
Ġp ier
Ġbe w
ĠT hose
Ġwe ather
ad ies
ĠB ur
ĠB UCKINGHAM
AR ON
ĠP ardon
ĠP andar
ĠO ctav
ER IL
Ġpr on
Ġhere after
Ġun b
Ġheart ily
Ġcl er
Ġim age
Ġpur su
UR N
ĠOr leans
Ġchar m
Ġcur sed
Ġchan ged
Ġstre am
Ġmon ument
ĠANTON IO
ute ous
Ġattend ed
Ġint ell
ott ed
Ġmurd erer
ĠCom edy
Ġburn ing
Ġviol ent
ĠPri am
Ġlangu age
Ġcomplex ion
E IG
I ER
N IER
a ct
i ate
Ġt all
Ġw ag
Ġb ade
Ġn ice
Ġp arent
Ġin her
ĠT IT
ch io
ea ve
ĠH u
ra ld
ri er
ĠB a
al ks
AR INO
AR CHBISHOP
am emn
ĠF isher
Ġbut cher
ru chio
ie ge
Ġal though
Ġra sh
ED WARD
Ġpur p
Ġbra ins
AG UE
UR REY
Ġdaughter s
Ġfriends hip
BER ON
Ġpre y
ĠBr ing
gu ndy
Ġhard ly
Ġwa x
MEN AS
ran io
ĠLEON ATO
Ġgrie ve
Ġunk nown
Ġeld er
hum us
ĠEr rors
Ġdeter m
Ġsan ct
ĠBur gundy
EIG NIER
amemn on
' ?
C on
F IDIUS
O V
g ood
l ic
Ġt est
Ġt ame
Ġt arry
he ld
Ġs our
Ġm erc
Ġc ens
Ġc alm
Ġd umb
Ġin k
Ġin form
oo ps
ĠH ence
Ġst at
Ġst roke
EN CR
ĠE n
ĠP AR
out s
Ġar rest
ĠMar ch
Ġsle w
Ġdisc over
Ġimp ossible
ĠCA PULET
Ġbo ast
ANT Z
Ġbless ing
Ġpriv ile
Ġve x
CU TIO
Ġwhore son
ĠLy sander
Ġpict ure
Ġappare l
ENCR ANTZ
F air
e z
i vers
p ons
Ġw ants
Ġb ind
Ġf ant
Ġc row
Ġc itizens
Ġd im
Ġp ill
Ġhe rald
ĠT r
ĠS w
ut ed
Ġe ight
ri f
ĠC ould
ĠC OR
Ġwill ing
ĠN OR
nt il
Ġv antage
ĠD is
ĠD ream
Ġsh ine
Ġsw allow
Ġca res
ep t
Ġsay est
IC A
ig ious
ere st
Ġro ar
ESS ICA
Ġpray er
Ġcl im
Ġtra de
Ġsm iles
Ġsub stance
Ġadv ised
Ġban qu
Ġexce ed
Ġexp ed
Ġadm ir
ĠQ ue
Ne ver
ĠGree k
ĠRo bert
say er
Ġdign ity
Ġkna ves
Ġdisple asure
ĠFisher man
N YM
c o
l ight
p ing
he ther
in ius
Ġm art
Ġw ink
Ġw hip
Ġb and
Ġo dd
Ġd agger
Ġh ind
Ġp il
ĠS UFFOLK
Ġis le
ĠB RUTUS
ĠM ade
Ġdo gs
il ius
Ġv ol
han ge
Ġsh r
Ġne gle
AL D
Ġspeak ing
Ġab used
PH ELIA
Ġwh isper
erc ules
Ġgl ove
Ġput s
Ġcons ul
Ġmis c
itt en
Ġsorrow s
Ġcommon w
Ġdel ay
Ġaff li
BAN Y
Ġgro an
Ġdark ness
Ġreb ell
Ġfat al
Ġacqu ainted
Ġfier ce
ĠLa un
Ġshrew d
Ġclot hes
ĠMont ag
Ġspec ial
ĠFr anc
ĠEdm und
A d
A UNT
C OL
E ET
I nto
g ged
k ind
l eness
m es
m end
Ġs ink
Ġs aint
Ġm ass
ha nd
Ġb ot
Ġb ite
Ġp our
ĠT EAR
le nd
ĠS le
EN AS
ĠM ethinks
ain e
ĠL ab
AN IA
Ġde b
Ġno bles
ĠG AUNT
ru n
ru mp
Ġmu lt
sel ess
Ġwor n
Ġsee ing
Ġj our
Ġsa ved
Ġsa uc
les ome
Ġen force
che ster
Ġbeg u
Ġrep air
Ġco ff
ac y
Ġass ist
ĠLE WIS
bl ing
SH EET
Ġdevil s
Ġhate ful
Ġac cept
Ġund o
Ġwo es
Ġmour n
ĠPost humus
PUC K
Ġreck on
Ent ire
ĠAlexand ria
ĠTEAR SHEET
P age
c use
o ll
u x
he nd
re ak
Ġw rest
Ġb ull
ĠI S
Ġc la
Ġn aught
Ġp omp
ot ion
ea rer
Ġwe eds
her s
Ġk in
us es
th ink
Ġse est
Ġsw eat
um mer
Ġdis s
AT URN
Ġpo cket
Ġfo x
Ġother wise
Ġarm ed
Ġpla ces
UR ENCE
Ġmis ery
Ġlaw s
Ġfe ather
up iter
ĠLA URENCE
Ġaffection s
Ġshi ft
Ġunf old
Ġstol en
Ġdisgu ised
ĠAg amemnon
Ġleng th
Ġbanqu et
ATURN INUS
H ark
I TH
U nto
W idow
Y R
a ction
b oy
c hard
p ed
p lace
r ison
s hire
z z
Ġa v
Ġs now
Ġb ent
Ġb urt
Ġn umbers
ar ies
om ent
ĠH ercules
Ġst ick
ad ed
Ġre com
ĠL ie
ĠN ature
Ġde w
Ġsu p
Ġse ll
Ġr otten
Th ink
ĠK ent
TH AISA
ew is
ICH MON
Ġkind ly
ail or
Ġcommand ed
Ġsend s
Ġdru ms
Ġknight s
BO W
Tw o
BEN VOLIO
eter n
ĠJul ius
ĠOut law
Ġba be
ked om
more land
Ġdu kedom
Ġange ls
ids ummer
Ġconce it
ĠBes ides
Ġnecess ity
ĠWest moreland
Ġbount y
Ġconc ern
Ġz eal
Ġpurp oses
ĠQue en
ICHMON D
A fter
B el
O X
f ellow
l ay
Ġt ask
Ġd ot
Ġl amb
ĠT ranio
ĠW hile
Ġe v
ra m
Ġst ret
Ġst oop
ro om
ĠL ong
ĠF aith
th ing
OR A
ĠR ous
oth sayer
Ġar ch
ort ens
LE PIDUS
ĠAs ide
Ġper ish
AM ORA
Ġapp et
Ġcont ract
MAR CUS
ĠCa pit
Ġturn ed
Ġfaith ful
Ġsure ly
Ġsec ure
Ġstrong er
Ġdef ence
LAN CASTER
Ġconst able
Ġbook s
Ġmist ake
Ġobs erv
Ġwea pons
Ġfaire r
Ġcre ep
ĠOff icers
Ġchast e
Ġbene fit
ĠPet ruchio
Ġnob ility
ĠTroj an
ĠMal volio
Ġthie ves
ĠHu bert
C ATESBY
D AUPHIN
M ade
O ff
p oral
Ġs ings
Ġm oment
Ġf elt
ar row
Ġp ause
Ġbe am
ir ty
ut s
ĠH EL
ra in
ĠC HAR
ĠF R
Ġno bly
ER IMON
ĠG REY
Ġv ouchsafe
Ġsh un
ĠR et
Ġbl us
Ġwor m
Ġun se
are d
LA ERTES
Ġlea gue
Ġmar vel
IL IUS
Ġwr ought
Ġfl ow
Ġhar sh
IT A
ĠWhere in
Ġturn s
Ġpra ised
bl ood
ham ed
Ġhang s
ĠServ ants
Ġcountry men
Ġbar ren
ĠPro vost
Ġgar land
ĠJul ia
Ġinstru ment
VER G
Ġpleas ant
Ġdri ve
Ġinno c
MER CUTIO
DOL L
Ġdif ference
ĠOLI VIA
Fl ourish
Ġfing ers
ĠMontag ue
ortens io
ĠCapit ol
H old
W elcome
W ALL
a pp
e ve
f old
u pon
Ġ et
Ġ etern
Ġf ate
ĠI ago
Ġy es
Ġy ester
Ġh ill
ar ter
Ġg ather
ĠA u
ĠA pp
ĠT ALBOT
ld om
Ġwe ars
ad es
Ġre de
Ġre jo
ĠP eter
ĠL ost
ĠL ewis
Ġsp le
ast ed
qu ire
ive d
Ġgo dd
un ate
unt s
pt ist
Ġpro ved
Ġtw ain
tle d
ove red
ret ion
Ġtra vel
Ġplay s
Ġsle pt
Ġpa wn
Ġco at
Ġstay s
Ġacc use
Ġvill ains
Ġearth ly
Ġea st
Ġsleep s
Ġfalse hood
Ġwound ed
Ġrec over
Ġcor on
Ġguard ed
Ġcreat ures
Ġfam ous
idd le
Ġsho ot
Ġpit ch
wor th
Ne xt
Ġunha ppy
ĠBo he
Ġpie ces
Ġavo id
Ġwat ers
Ġscept re
Ġpron ounce
ĠFranc is
Ġgodd ess
G E
L ANT
P er
Q u
W ELL
h ra
l ong
p ul
v ior
x ford
Ġs ins
Ġm ood
re land
Ġf il
Ġf ront
ĠI reland
Ġd ress
on est
Ġp eas
om en
se qu
ĠH ER
Ġst ore
ĠB E
EN ET
ro g
th ou
il ia
Ġsp ur
ast ing
Ġcon ference
Ġthere of
Ġshould ers
ĠJ upiter
LA VIUS
LE Y
Ġthink ing
Ġpl ant
Ġab ide
Ġab oard
ress ion
Ġen vious
Ġfind s
Ġgl o
AG ENET
ĠWhere fore
Ġcourt ier
Ġconf ound
Ġhum an
Ġhum ours
Ġmon arch
Ġmouth s
Ġtown s
Ġdeser ves
Al arum
Ġopp os
med iate
Ġgro ans
gl as
Ġentertain ment
Ġignor ance
Ġsens es
heart ed
cel ot
Ġfurn ish
Ġacquaint ance
Ġhig her
ĠItal y
Ġsav age
nat ural
ĠTem pest
ĠBa ptist
ĠSle nder
Ġrede em
LANT AGENET
G reat
K now
M ACDUFF
W hile
f ty
l ove
o ff
s ome
w ife
Ġa ch
Ġm oral
Ġo ak
Ġd ow
Ġhe ight
ĠT oo
ĠT urn
ĠB id
Ġas hamed
Ġli p
ro p
ro y
ĠP O
ĠN ap
Ġne phe
OR LEANS
ive red
RO DERIGO
Ġal so
Ġal arum
Ġra il
Ġcomm it
AM P
ag ed
MAR IANA
ĠIs ab
Ġyoung er
ĠSt ill
Ġacc us
Ġadv ent
Ġhu ge
Ġwis hes
Ġpen ny
reed om
Ġconj ure
ĠDou glas
Ġtort ure
ĠRous illon
ĠNap les
D e
H AN
K eep
N othing
O UG
O BERON
O PHELIA
R AT
a oler
c ol
t hen
Ġs ought
in ct
Ġb all
ll or
Ġy oke
Ġth orn
Ġg idd
ĠB ER
ĠM e
ĠM idsummer
ur b
ĠE L
ĠL adies
ous es
ĠG aunt
Ġkn it
ĠD OUG
AL BANY
Ġor chard
Ġun worthy
LO V
AT HAN
Ġpart ly
LA S
LE WIS
Ġdes ign
Ġfriend ly
Ġcomm itted
Ġper fection
Ġstand ing
Ġcha se
EM BROKE
Ġser ves
Ġadv ise
Ġtem ple
Ġrec ord
Ġcor re
Ġinc re
Ġbanish ment
Ġwhi les
Ġcomb at
ĠSAL ISBURY
ĠX I
ĠBaptist a
ĠDOUG LAS
ATHAN IEL
A ARON
P PA
b alt
e xt
n ock
u ries
w ould
z ed
Ġs ine
Ġm ile
Ġb ill
Ġp ee
Ġst ub
Ġso ci
Ġwill ingly
Ġdo zen
ĠO xford
if ty
qu es
Ġbl own
Ġex per
Ġapp ointed
Ġaf ear
Ġrem ains
AG RI
Ġkind red
Ġpass age
Ġbel ong
Ġtre mble
Ġhel m
Ġrun s
Ġread ing
Ġgre y
Ġsil ent
Ġpleas ures
Ġpossess ion
Ġamb assad
Ġga it
ĠPER ICLES
ĠLeonat o
Ġmess age
Ant ony
Ind eed
ĠBohe mia
Ġpee vish
AGRI PPA
B URGUNDY
b ray
e ward
t han
Ġt ou
Ġt ut
Ġw est
Ġb ur
Ġb ag
is hes
Ġy ond
Ġn ation
ar ried
ow bray
Ġin ward
ĠT rue
Ġha il
ĠS et
ĠS OMERSET
ĠW atchman
ĠB ISHOP
ĠP hi
Ġsp l
Ġam iss
ĠR ep
ble d
EL BOW
el iver
em per
Ġknow ing
Ġqu ench
Ġbre ad
Ġbre ach
Ġra ven
Ġper haps
ĠThis by
Ġcl ock
IM ER
ĠMar cus
for ced
Ġserv ices
Ġpre par
Ġtri cks
Ġpass ing
ĠBr other
ORT IMER
anc ing
Ġwind ow
ARDIN ER
Ġsla ves
ĠCitiz ens
Ġbrave ly
RI VERS
Ġprop ort
Ġreb els
Ġemp ress
Ġship s
RAN MER
Ġwed ding
WILLIAM S
Ġmiser able
Ġtail or
Ġcircum stance
Ġclo ak
Ġwond rous
Ġmil k
ĠFlore nce
ĠSH ALLOW
pic ion
Ġburt hen
Ġappet ite
F ie
S ON
c est
m ark
n ew
p u
p ur
r oop
Ġs tern
in o
Ġb asket
is ible
Ġf ifty
it able
Ġc and
Ġth rown
Ġto il
ĠS ic
Ġfor s
ĠH ortensio
ra c
as y
ur k
ro cl
ĠE ither
ĠF ear
Ġsp it
Ġfa res
han ce
Ġbl unt
pp er
Ġab hor
Ġlook ed
Ġsc ru
Ġru st
Ġcha rac
Ġrem oved
Ġtra vell
UR S
Ġch id
Ġchar ged
Ġcur st
Ġimp rison
,' --
Ġlate ly
Ġsen ate
Ġdep end
Ġcho ler
ĠPro logue
Ġenter prise
ĠHel p
Ġliber al
Ġer ror
Ġmed ic
ĠWin chester
Ġpet ition
Ġsple en
Ġafear d
B r
P LANTAGENET
b in
b ishop
c ap
f idius
h rew
j ust
l us
m ian
o on
s er
z y
he l
Ġm ill
Ġb ury
Ġh ie
ĠA men
Ġbe held
ĠS at
Ġfor ced
ĠH ost
ra ced
ĠB ear
EN TON
IN OR
Ġso il
ĠP AND
est ed
ous ly
ER OS
Ġkn ot
Ġsh own
ST ERN
Ġca ught
Ġbr id
Ġking ly
Ġun natural
Ġoff ices
IL DEN
RA DE
li ament
Ġad o
UL PH
With out
Ġrem orse
Ġta p
ĠAt hen
Ġcur t
Ġsub tle
Ġneed ful
ĠMAR IA
Ġhang ing
sc ri
SAL ARINO
Ġgrie vous
GON ERIL
Ġeas ily
Ġsatisf action
uri o
Ġda ily
ĠBel ieve
Ġconcl ude
Ġsac rif
Ġtor ment
Ġjealous y
Ġpet ty
mo gen
Ġdischar ge
Ġwol f
Ġserp ent
Ġrebell ion
Ġsauc y
ĠPAND ULPH
ILDEN STERN
; --
A r
C UR
L o
L est
V ERNON
b es
c ul
d em
m aster
n on
s ide
Ġ ir
Ġs iege
re ls
Ġb on
Ġb ud
Ġf ed
ĠI mogen
Ġl ower
Ġh ur
Ġn im
Ġn ails
at ic
ir ds
Ġwe ek
ĠB ra
ĠM erc
ĠM owbray
Ġli ft
ĠP aul
ĠL AD
Ġan cest
ĠG U
Ġlo vest
il us
Ġam en
res ent
Ġshould er
au g
Ġdes cend
Ġra p
Ġear l
Ġtr im
Ġnight s
os ing
ĠAnt ip
the y
Ġgi ving
Ġhence forth
Ġea gle
Ġdisc retion
Ġsound ed
Ġjoy s
Ġfore ign
Ġstra in
St ay
Ġpar ley
Ġexc hange
ĠOn ly
Ġgrant ed
bit ious
ĠTy balt
Ġabs ent
Ġrob b
Ġlust y
Ġtrouble d
AU FIDIUS
Ġgovern ment
Ġinv isible
Ġpin ch
Ġvar let
Ġaud ience
CORN WALL
Ġrhy me
Ġtyran ny
soe ver
Ġprivile ge
ĠLaun celot
ĠIS ABELLA
ĠAu fidius
Ġstub born
ĠLAD Y
D es
D OWER
G ILIA
J ESSICA
L ady
M ine
U LA
W ALD
Y Z
g on
p ass
w ar
Ġ 8
Ġm ask
Ġb ore
Ġf reedom
it ing
Ġc rest
Ġl ying
Ġp ate
at ive
at rocl
ĠA cc
ĠT ars
ĠS OL
ĠS IL
her iff
ri ke
ĠC ons
ge on
Ġas pect
Ġli king
ĠE X
ĠN one
ĠF RANCIS
ER ICK
Ġall eg
ĠG arter
Ġam bitious
ĠV ery
ĠTh ree
Ġun m
un s
ĠJ UL
Ġpart ing
Ġpo et
Ġlea p
IR GILIA
ED ERICK
land o
Ġtr oops
Ġke y
Ġru led
Ġbeg an
Ġend ed
mb l
Ġco ast
cl am
Ġvill an
Ġval ue
omet hing
Ġbo ots
Ġstri ve
Ġstri fe
Ġfield s
ĠSh ow
CA IUS
LEN DOWER
ran k
Ġter m
no on
ION YZ
Ġhair s
Ġbehold ing
Ġred ress
Ġabs olute
Ġag o
Ġconqu est
Ġforsw ear
Ġamong st
Ġgent ly
Ġvent ure
Ġhap ly
Ġpurcha se
ĠSyra cuse
Ġjour ney
Ġstret ch
ĠFR EDERICK
Ġnephe w
Ġgidd y
atrocl us
ĠTars us
ĠSOL INUS
IONYZ A
P ardon
b ble
u pt
u gg
Ġt um
Ġa le
ou bt
Ġs outh
Ġw eal
Ġb urst
or ough
Ġf ret
Ġc alf
Ġh om
st it
Ġg ru
ĠA ng
ĠT ROILUS
ĠW itch
Ġe vent
ĠH ang
Ġst ing
Ġst eed
ĠB AST
ĠC ade
Ġsp ace
ard ed
Ġsh ri
Ġr ouse
Ġdis ease
Ġwho lesome
Ġlook ing
TH AS
Ġsc our
Ġsc ore
Ġfl at
Ġlie utenant
Ġsm iling
Ġplace d
Ġcur ses
Ġcur rent
Ġyouth ful
Ġban ished
Ġjoy ful
ANTON Y
Ġcar ried
sh ould
ĠAR IEL
ĠAr m
Tw ere
Ġinc en
Ġsign s
Ġaction s
Ġbeast s
Ġshi eld
Ġsus picion
Ġobed ient
Ġtrib unes
ĠLeonat us
Ġbef all
ĠKathar ina
Ġcam est
Ġfart her
ĠPandar us
Ġinher it
Ġcommonw ealth
ĠBAST ARD
THAS AR
B EDFORD
C AN
D ITA
L ove
S URREY
T rue
m outh
p les
r ong
z o
re et
Ġb ru
Ġl ent
Ġn on
Ġp aint
Ġg oose
ĠA E
ĠA p
Ġnot ice
ill ain
Ġwe pt
Ġst age
Ġst amp
Ġre ach
ĠC ar
ĠM ight
Ġli qu
ur vy
ĠP ho
ĠP ORTIA
ĠN ATHANIEL
and al
Ġsu c
Ġsu its
ĠĠĠĠĠĠĠĠĠĠĠĠĠĠĠĠ ĠĠĠĠĠĠĠĠĠĠĠ
Ġsp urn
Ġor acle
ĠV ols
Ġtheir s
ĠJ a
Ġcomm ons
Ġwar ri
ase d
Ġad vers
Ġtr oop
Ġfl out
Ġcould st
Ġco ll
Ġdisc ontent
ROM WELL
PER DITA
Ġban k
Ġstrong ly
Ġweep s
Ġbea uteous
CA PULET
Ġlear ning
Ġter ror
stand ing
Ġreb el
Ġresol ution
Ġinstru ct
head ed
ĠEx eter
Ġconcl usion
Ġjew els
Ġcontin ue
ĠDian a
Ġexam ple
SIMP LE
Ġven om
COL M
hers ites
ĠEL INOR
ĠAthen ian
E B
E re
S old
S ATURNINUS
T AMORA
g an
w here
Ġw ail
Ġb urd
Ġf la
Ġd ote
Ġn est
Ġp ace
st ain
Ġst rew
Ġre ce
il ful
ĠD avy
Ġsh ines
ic a
Ġthem e
Ġr ate
QU O
Ġwr itten
Ġend ea
ROS ENCRANTZ
Ġconf usion
Ġgi ld
Ġover th
Ġser ious
Ġass urance
ĠAl ban
Ġbo x
Ġkiss es
Ġint erest
Ġwise ly
Ġdiv or
Ġquar ter
Ġcoward s
Ġprov o
ĠOR LEANS
Ġsever ally
Ġve ins
ĠHelen a
ĠGree ks
Ġinj ury
Ġgrand am
Ġprod ig
Ġperj ured
ĠPis anio
Ġrecom pense
ĠIsab el
D ICK
E CA
F ore
L UNT
R EIGNIER
S LY
T RAM
d en
f oot
i ps
l se
l ive
n zo
r ish
s bury
u ced
w er
Ġc al
Ġd rew
Ġp hra
Ġto oth
ow l
ĠA lack
Ġbe like
ill ing
ĠW hilst
ĠM onsieur
ore nzo
ĠE ight
ĠE ros
Ġsha pes
Ġse qu
Ġse ldom
Ġlo ad
ĠD OMITIUS
Ġman hood
ie l
Ġcon ven
el ing
Ġma g
erv ing
io ch
Ġper pet
ĠOr lando
So othsayer
ĠSt ep
Ġfe ver
Ġcommand s
Ġrun ning
Ġspo il
sc ape
Ġsupp ly
Ġsupp osed
COR IN
Ġdel ivered
Ġvis age
Ġprov ide
Ġtak ing
SIL VIUS
Ġresol ve
Ġhost ess
Ġdire ct
ELL US
Ġdea f
Ġsch ol
Ġtor ch
Ġeld est
min ster
ĠWest minster
po llo
Ġfle et
Ġdece it
Ġmir acle
Ġresc ue
Ġetern al
ĠBER TRAM
Ġprepar ation
Ġsuc ceed
ECA ENAS
B IA
C I
M uch
T hose
V INCENTIO
a ph
e le
g ive
g rim
m ony
n ken
in ate
Ġb ay
is ons
Ġo ce
Ġto ken
ĠT ruly
Ġu g
Ġst ale
ĠB etween
ĠC ast
ĠP ort
ĠL ay
ĠO nce
Ġsu e
Ġsp read
Ġsh ook
AL EX
Ġsw ears
Ġar rived
Ġr he
ĠMy self
ak en
li ed
to gether
Ġper f
Ġwh it
Ġla p
che ss
Ġru ff
Ġnew ly
ĠMar ina
Ġbra ce
ens ion
Ġpri ce
Ġacc used
Ġhusband s
It em
Ġpra ises
Ġgr at
ĠThan ks
Ġroyal ty
Ġdru nken
Ġgrow ing
Ġbea ut
Ġdep uty
Ġdrink ing
ĠAd ieu
ĠMay or
Ġbreed ing
ĠChar mian
Ġref use
Ġpersu ade
Ġimag ination
En eas
Ġcher ish
Ġbot tle
clam ation
BIA DES
CI BIADES
C ould
C ERIMON
E BE
F rench
F LAVIUS
G LENDOWER
H eaven
K EN
P o
f all
r oof
in ous
Ġm ing
re me
Ġw ard
Ġb irds
Ġy ellow
Ġl am
Ġl aughter
Ġn et
at he
ce llent
le an
ĠS m
ĠS ave
Ġfor ty
ĠH y
ra s
ĠB O
ĠB lack
ĠB iron
Ġre nd
AR THUR
ĠP ol
ĠL Y
ĠO li
ess ica
Ġde m
Ġse ize
ĠG oth
Ġsp y
Ġv oy
ĠD on
Ġam end
Ġgood s
Ġsw ain
Ġsir s
fe rent
Ġwor king
ĠTh urio
Ġbr an
ound ed
Ġun just
Ġdis ci
ĠJ essica
Ġpl ains
Ġtell ing
PH EBE
Ġfair ies
Ġfl att
ci ans
AS CA
Ġbeg et
Ġpur sue
ĠCa pu
Ġbra w
eas es
ac les
Ġche que
Ġtre es
Ġbreak s
Ġstrange ly
Ġdesire d
Ġless er
iet y
Ġdraw s
Ġcry ing
Ġbar gain
Ġest im
av in
ĠAd am
Ġburn s
Ġprov ided
ĠAttend ant
ĠCoriol i
SIL ENCE
TIT ANIA
CON RADE
Ġpit iful
rem io
urs ions
Ġur ged
ĠOff icer
ĠShrew sbury
Ġtrib ute
DOL ABELLA
Ġrenown ed
Ġloyal ty
Ġprosper ous
rum io
Ġcere mony
Ġcler k
Ġcens ure
Ġclim b
ĠHEL ENA
ĠEX ETER
Ġalleg iance
F RANCIS
M ethinks
b r
b on
i que
n el
o at
r atch
t ic
Ġt ick
Ġa unt
Ġm as
Ġf an
en ches
it al
Ġd at
Ġh y
Ġth in
Ġth read
hat h
Ġg rew
ĠA Eneas
ĠW hiles
Ġwith draw
ĠH o
ĠH ASTINGS
ĠH ugh
id us
ĠM akes
Ġli kes
nt y
Ġde ceive
Ġde cl
Ġhat ed
fe red
Ġbr own
Ġlike wise
ig nty
Ġj e
Ġlea ds
ec her
Ġim mediate
Ġcont ro
the m
Ġpal m
Ġbus h
Ġmer ri
let e
Ġbreath ing
Ġcoun se
Ġexce ll
Ġmet al
Ġinf ant
ĠCan not
Ġprop hes
Ġfeel ing
ĠPl ay
Ġsatisf y
ĠCon f
Ġbleed ing
cri ption
Ġtreacher ous
Bes ides
Ġinvent ion
ĠFri ar
ĠDen mark
ĠOctav ia
ĠPAR OLLES
Ġpil grim
Ġproport ion
ĠAntip ho
D is
G ARDINER
I GON
M e
M ORTIMER
R em
T IS
a res
a cc
a ches
l ter
p ro
v oy
Ġt ur
in ary
Ġw ot
ha d
er le
Ġo x
Ġc op
Ġc orse
ot en
ĠT hersites
se y
ke ep
ĠB IANCA
ĠC LAUDIO
ĠP art
ĠP ETER
ĠP atroclus
Ġwill s
Ġsha de
ĠG remio
AL ICE
res sed
Ġsee ks
Ġlike ly
Ġr ush
Ġgra ves
Ġoff icers
ĠK night
Ġhear s
Ġra gged
ward s
Ġper chance
Ġsweet ly
sw ain
Ġcomp lain
Ġpres erve
Ġcont ents
Ġind ign
Ġgu ide
Ġres ist
Ġafter noon
ati ent
Ġacc ess
Ġacc ident
Ġstran g
Ġjust ly
Ġbreak ing
Ġbus y
Ġtalk ing
Ġdef y
Sir rah
Ġsuff ic
Ġter rible
Ġcontent ed
Ġpen it
Ġheir s
Ġkingdom s
Ġstru mp
Ġobs erve
Ġbreat hed
Ġdest ruction
Ġphysic ian
Ġcompl aint
Ġappre hend
Ġintell igence
lend ower
Ġoppos ite
Ġincre ase
Ġnim ble
Ġrap ier
KEN BURY
Ġdisci pl
ĠCapu let
IGON US
B ring
C RANMER
M istress
T ro
W ilt
f ast
i ven
m aid
r ity
t ell
t les
w ind
Ġt ied
re g
Ġb ol
Ġo pe
Ġha unt
ut ch
ill y
ĠW hither
ĠH ail
Ġst y
ĠB ea
Ġre v
ĠC ry
ĠM ON
ĠM ant
Ġli ver
Ġli ons
ĠL eave
Ġsha re
ĠG rumio
ĠG lendower
Ġlo dge
ĠD ear
Ġman if
Ġam ends
Ġcom est
Ġbl ue
ep idus
ort hi
Ġdis posed
Ġma kest
Ġfear ing
Ġsc atter
Ġsc urvy
Ġapp la
ert es
Ġhar bour
mb ers
Ġta x
ĠAnt ioch
Ġansw ers
Ġch in
Ġcou ch
Ġsub d
Ġtre mb
Ġlight s
ars on
Ġdi vers
Ġfore head
Ġyield ed
Ġsovere ignty
Ġdel icate
Ġbar bar
Ġpoint s
Ġwonder ful
Ġsign ify
LAR TIUS
Ġsur feit
Ġweak ness
Ġsuffer ance
Ġcle an
Ġap ace
vo c
Ġshad ows
Ġwhi pped
Ġwea pon
Ġdest roy
Ġbeha vior
Ġur ge
ĠRO SAL
Pr ithee
Ġstep s
Ġimper ial
mong st
Ġpear l
ĠScot land
ĠTIT US
Ġrejo ice
LOV ELL
dem ona
Ġoce an
ĠAntipho lus
ĠMON T
C ROMWELL
H Y
S w
T urn
b ell
c ock
c ourt
e ction
h ine
i um
l or
m ont
n es
s ion
u pp
w it
w ere
w ork
Ġ ought
Ġ vers
he ar
Ġa pe
Ġs itting
Ġm ould
Ġm ethought
Ġw ore
er man
it ic
Ġd ine
Ġd un
Ġn amed
Ġn arrow
Ġp ark
Ġth irty
an k
an ley
ĠA U
ĠT rump
ĠB APTISTA
ĠB IONDELLO
ĠC ATESBY
ĠM on
ĠM ess
ĠL orenzo
ĠL avin
ĠO ld
ĠN ept
ER BURY
Ġse mbl
Ġfa ct
Ġv ul
ĠD IOMEDES
ĠD OCTOR
Ġam ity
Ġup right
ĠR ead
ic le
Ġcon ceive
um ed
Ġun l
Ġpro cess
Ġtru nk
AND RA
Ġen forced
Ġra ck
ak er
Ġke en
Ġapp oint
Ġapp arent
ĠBe hold
Ġbeg ot
Ġsle eve
Ġpass es
Ġle v
Ġle vel
Ġbid ding
Ġthr ong
Ġthank ful
Ġsl ay
ates by
ANT ERBURY
Ġmet tle
Ġsupp ose
Ġdist ress
Ġpar liament
ĠĠĠĠĠĠĠĠĠĠĠĠĠĠĠĠĠĠĠĠĠĠĠĠĠĠĠĠĠĠĠĠĠĠĠĠ ĠĠ
Ġact s
nds ire
with standing
Ġbosom s
Ġclose t
Ġopp osed
ĠLUC ENTIO
Ġqual ities
Ġdec ay
Ġconce al
ker chief
Ġextrem ity
Ġsuper fl
Ġpier ce
Ġexped ition
Ġdow ry
Ġmedic ine
Ġvoy age
Ġstrump et
Tro ilus
ĠLavin ia
ĠNept une
F ear
P lease
P edant
T oo
V IRGILIA
e ves
o very
s ha
s en
y et
Ġa ged
Ġa lack
er ity
or p
es er
Ġc udge
Ġl ines
ing ing
Ġg ame
ĠA ri
ĠA pollo
Ġbe re
Ġbe ds
se c
ĠW ESTMORELAND
Ġfor ms
ke y
ĠH im
Ġst ro
ri c
ri l
ĠB an
ĠB LUNT
ĠM EN
ĠP ROSPERO
ĠL epidus
us s
est or
ĠG aoler
Ġsp ect
Ġv ous
Ġv ass
ĠD EM
Ġgo ss
um es
Ġmay or
ĠJ es
Ġro ad
Ġro aring
Ġal oud
Ġbet imes
Ġex erc
ss es
Ġwr ink
ĠĠĠĠĠĠĠĠĠĠĠĠĠĠĠĠĠĠĠĠĠĠĠĠĠĠĠĠĠĠĠĠ ĠĠĠĠĠĠĠĠĠĠĠ
Ġhouse hold
My self
Ġmight st
ORD ELIA
os op
Ġset s
Ġfall ing
ab ly
bt ain
Ġwrong ed
Ġbes ide
ont in
Where in
Ġstri kes
Ġinst ance
Ġprom pt
Ġprom ises
Ġcra ft
St ill
Ġsuff ice
Ġdist emper
now ledge
Ġsk in
hil osop
Ġsur vey
pr ised
Ġow es
Ġadd ition
oss om
Ġwrit ing
Ġexec ute
Ġproceed ing
Ġdepart ure
Ġconcl ud
Ca esar
Ġcondition s
Ġinstant ly
Ġgreet ing
Ġvirgin ity
ĠDes demona
Ġsens ible
Ġpot ent
ĠRO SS
MONT AGUE
ĠRem ember
Ġbeam s
Ġyester day
Ġadvent ure
Ġscru ple
Ġvillan ous
Ġschol ar
Ġug ly
ĠPort ia
ĠDEM ETRIUS
A m
B etween
C LEON
C ELLUS
E ither
F ENTON
I LO
P EMBROKE
W hilst
b ast
g entle
k y
m ay
n ard
o ons
p as
s ame
t ies
Ġt ro
Ġt ents
ou n
Ġs ed
Ġs lipp
ha st
Ġb ul
Ġb atter
Ġf ul
Ġo btain
Ġc ook
Ġn ap
Ġn upt
Ġp i
Ġp ull
Ġp ush
Ġth rew
Ġg ird
Ġg ap
ĠT om
ed er
ent on
ĠH as
as p
ĠC ASS
ĠC LIFF
ly sses
Ġli very
ĠP ISANIO
Ġdo ve
am ond
ĠN er
ĠN ed
ĠF ERDINAND
Ġde ck
Ġde posed
Ġv ot
Ġman age
Ġar ise
Ġhere in
um erle
od ity
ig ent
un o
un ed
Ġgra ss
Ġoff ences
Ġal t
Ġal together
ĠYou ng
Ġmar vell
AND S
Ġra ised
Ġri ches
ĠAN GELO
Ġsc ope
Ġever l
Ġbeg un
Ġrem ove
Ġrep ose
AD SH
Ġco in
Ġconf ident
Ġpre ced
OB BO
ĠJo an
Ġacc ording
Ġmatter s
Ġpe er
CO X
CA ESAR
Ġsen seless
Ġsad ness
Ġdist ance
Ġcar ri
Ġgar ment
TR IA
ĠVen us
Ġwoo ing
Ġbegg ars
Ġbond s
oss ess
MAL COLM
Ġrel igious
Ġmarch ing
Ġsecret s
On ly
Ġeffect s
ĠBel mont
ĠGree ce
Ġevil s
iv ity
Ġconquer or
Ġhung ry
Ġmiser ies
Ġbab es
Ġtreacher y
Ġgaz e
Ġtrif le
Ġimm ortal
Ġnegle ct
Bel ieve
CUR TIS
Ġdivor ce
ĠEight h
Ġmerri ly
Ġnupt ial
ĠCLIFF ORD
ADSH ILL
B R
C ASCA
D OV
K ne
b ation
h orse
m m
m ing
s ues
t een
w ing
x com
Ġt im
Ġt ea
Ġt res
Ġw enches
en es
Ġhe y
ve t
ĠA L
Ġnot ed
ĠW hether
ter y
EN N
ĠF L
ĠF RAN
th ought
ĠG all
Ġam orous
AL CIBIADES
ul ate
Ġor n
Ġwor ks
IC O
ĠTh rough
Ġqu est
Ġho se
Ġout ra
Ġpro clamation
Ġpl an
here d
Ġri ver
Ġaf oot
Ġpres ume
You ng
ĠSo ft
ĠU lysses
ROS S
Ġco ats
Ġres ign
ĠDo es
Ġsure ty
Ġlight ning
Ġdi amond
Ġmo ves
Ġbo ar
ĠHer ald
Ġfe ign
Ġkiss ing
Than ks
Ġpay s
Ġfour teen
ĠPro ceed
Ġexp lo
Ġrequ ite
ĠHel ic
Ġtit les
Ġdouble t
Ġsafe ly
Ġdrown ed
Ġshore s
Ġins ol
ĠMil ford
ĠPo ins
Ġlod ging
Ġfro st
ĠLab our
Ġinnoc ence
Ġpeas ant
Ġsine ws
Ġsoci ety
Ġsacrif ice
Ġburd en
DOV ICO
ĠFRAN CE
C ARUS
D IONYZA
E ON
E IUS
G OBBO
H ast
H ang
K ing
O nce
P ut
T ER
c ra
f ret
f ield
g ra
j ou
k ins
l ate
m pt
o c
o gue
p ers
p ence
w as
Ġt on
Ġa xe
Ġs lip
Ġw et
Ġb ully
Ġf em
Ġo st
en con
Ġc hat
Ġc el
se e
Ġha w
ir ing
ĠS ure
ch or
Ġnot es
ĠW h
Ġit s
ĠH or
ra int
Ġhis t
Ġst out
Ġst um
ri end
ĠC ousin
ĠC amb
ĠC AMP
EN CON
EN ETTA
Ġli ken
AR L
ĠE ach
ĠP he
ĠP ISTOL
ĠP hil
ĠN estor
AN TH
Ġsu itor
ĠĠĠĠĠĠĠĠĠĠĠĠĠĠĠĠ ĠĠĠĠĠĠĠĠ
Ġsp ark
qu is
AL ENCON
EL AUS
Ġthere by
hy lock
Ġr us
Ġr oof
ĠJ ud
Ġpo x
Ġhand kerchief
Ġdeath s
Ġwr ites
ĠIn n
OM AS
iss a
Ġbra gg
Ġyoung est
Ġmother s
Ġright ly
ĠDo ctor
Ġacc ord
Ġacc ursed
Ġhapp ily
AV Y
AV IA
ANT IGONUS
Ġstri ct
Ġcare ful
Ġdoubt ful
Ġwa ger
Ġsen ators
Ġcertain ly
Ġint eg
Ġcho sen
Ġgall ows
Ġlad s
Ġemb ass
Ġharm ony
Ġgro om
Ġtrou bles
ĠPom fret
Ġba che
Ġdire ction
ca pe
EG EON
Ġele ven
Ġgovern or
Ġmut iny
OS WALD
Ġexpect ation
Ġdism iss
Ġprofess ion
ĠKeep er
Ġfant ast
Ġconcern s
Ġcorre ction
Ġambassad or
URS ULA
ĠAng iers
ĠPho e
Ġphra se
ĠLY S
Ġflatt erer
ĠCAMP EIUS
ANTH INO
A pp
A EM
B ear
H el
M ight
N one
N ARD
P R
P ETER
a e
i en
m ission
o ft
y m
y ard
å Ĳ
Ġt ar
he ard
Ġs and
in ces
Ġw aking
ll en
Ġf rank
it ness
Ġc ord
Ġd il
Ġd ame
Ġl ark
Ġl echer
Ġh ouses
Ġn un
Ġp hilosop
Ġhe dge
st one
at hed
our n
our age
Ġst eep
ri an
ri ve
ri al
ri ef
Ġre ar
Ġre pe
ĠC atesby
ĠM an
ĠM aine
ver ty
ĠP ETRUCHIO
Ġsu gg
ĠG rey
Ġsp e
Ġsp r
Ġfa wn
Ġv iz
Ġour self
Ġpr int
Ġwhe el
Ġcon g
Ġcon ver
Ġcon verse
ul ous
ul ation
ost er
Ġqu e
Ġdis per
Ġdis eases
Ġho le
Ġmust er
Ġpro ver
pe ci
Ġgra ndsire
Ġpo verty
Th rough
Ġro ses
ĠK nock
Ġsc andal
Ġhast y
Ġaf ar
Ġcont ain
Ġhar vest
Ġco zen
Ġco xcom
the e
ĠSt anley
Ġacc omp
Ġimp ed
Ġsl umber
Ġdi est
ĠAl though
Ġsound ly
HEL EN
ĠFrench men
form ed
Ġcomfort s
ĠĠĠĠĠĠĠĠĠĠĠĠĠĠĠĠĠĠĠĠ ĠĠĠĠĠ
Ġinf irm
Ġint ents
Ġcar riage
Ġrequ ire
Ġappro ve
Ġgrie ves
Ġinter p
eem ing
Ġinstru ments
Ġflatter y
Ġthro ats
Ġchast ity
Ġhung er
ey ed
Ġprophe t
ez an
Ġexceed ing
Ġreckon ing
Ġcoron ation
Ġexper ience
Ġcand le
Ġancest ors
Sold ier
ĠMant ua
Ġvers es
Ġvul gar
A rt
C ANTERBURY
D ost
F ourth
F ollow
M OWBRAY
P OLY
S ave
S ignior
b ack
f ed
h ow
m ion
Ġ 9
Ġt ren
Ġt aint
Ġa h
re pare
er al
er ation
or a
it ive
es e
Ġc as
Ġd ain
Ġd iff
Ġl ee
Ġl inger
Ġp est
Ġp ite
Ġp red
ing u
Ġg n
ĠA umerle
ĠT ut
ĠT urk
Ġmy ster
ĠS end
Ġnot withstanding
ĠW AL
ĠW idow
ad vent
ord er
ĠC rom
ĠM any
ĠM OWBRAY
Ġas hes
ĠP OMPEY
ĠO VER
am y
ĠF ore
han o
ard y
ĠD ies
ul via
ig o
Ġj ot
Ġsa ils
Ġdis pose
un ch
ire ct
Ġmar s
Ġex ile
ec om
Ġsweet est
Ġapp eal
ĠCa eser
ian o
Ġhour ly
Ġunder go
Ġel bow
Ġmean est
esar io
Ġsub scri
Ġbel ie
Ġback s
Ġbo ard
DON E
itt ance
Ġcra ves
Ġattend ing
Ġcar ries
Ġwater y
SAL ANIO
BAN TIO
Ġscorn s
Ġfra il
Ġag ree
idd en
ĠSen ators
Ġbow els
IRA S
IP POLY
Ġdest iny
Ġcruel ty
Ġvan ity
Ġinj uries
Ġemploy ment
ĠQu ick
Ġwo ful
Ġpunish ment
ĠKathar ine
BAL THASAR
SIMP COX
ĠCOR IOLANUS
ĠNOR FOLK
Ġhind er
YR EUS
Off icer
VERG ES
ĠHER M
ĠBE AU
RAT CLIFF
Ġfors ake
ĠCar rier
Ġperpet ual
ĠCast le
Ġsembl ance
Ġhist ory
Ġliken ess
Ġinteg rity
Ġdain ty
ĠOVER DONE
IPPOLY TA
M OGEN
P oor
W hiles
b el
b ol
d is
n icious
r oth
s m
w art
Ġt ales
Ġa ck
ĠI MOGEN
Ġl es
Ġl atter
Ġp ul
Ġha re
et wixt
ri p
ĠC ame
IN IA
Ġli ef
ĠF ull
ĠF ool
ĠF enton
th ren
ER IA
Ġse x
Ġv ig
Ġne at
end om
ĠR ICHMOND
Ġcon sequ
EL IUS
Ġbl ot
Ġcan ker
od er
Ġr ites
un ity
ĠJ uno
Th ree
Ġma le
Ġro cks
ec hes
Ġart icles
li hood
Ġri ot
Ġsc ratch
Ġfl ock
che th
Ġcha mp
ĠNo ble
Ġkeep ing
Ġent rance
UR IO
mp h
Ġcourt eous
ac ious
Ġbring ing
Ġfall en
Ġtri ed
Ġgi ant
ĠDo ll
Ġret reat
Ġkill s
Ġhang man
Ġpers ons
ran ch
ĠĠĠĠĠĠĠĠĠĠĠĠĠĠĠĠĠĠĠĠĠĠĠĠĠĠĠĠĠĠĠĠĠĠĠĠ ĠĠĠĠĠ
Ġrec on
ĠPro sper
Ġlad der
Ġpen ance
Ġprov ost
Ġmount ains
Ġsoft ly
ĠCl oten
Ġadm it
Ġba ld
Ġdire ctly
Ġmist ook
Ġpleas ing
rer s
Ġobs c
cent io
ĠSil ence
Ġstar ve
Ġmed dle
Ġdemand s
ĠCO UNTESS
Ġguest s
ĠWor thy
Ġprevent ed
Ġsto pp
Ġfix ed
Ġmult itude
Ġspl it
Ġrhe um
Ġsuffic ient
Ġvass al
A cc
A EGEON
D ear
G ADSHILL
H enry
S ANDS
U ntil
a wn
b ridge
l ies
p se
t il
w h
æ ĭ
Ġs ire
in cul
in centio
Ġm iles
Ġw aked
Ġw alks
ha bit
or ies
Ġc ove
Ġd rows
Ġd ancing
Ġy on
Ġl ance
Ġl un
Ġl ew
Ġl ute
Ġh ounds
ot ed
ĠA DR
Ġin ch
ĠT R
ĠT am
le ad
Ġha ught
ĠS n
ut land
ra cious
Ġst ead
Ġst ocks
as ing
ri ch
ĠB er
ĠB EN
ĠP atience
Ġan n
Ġsu ng
Ġsu gar
ĠG host
ĠG OWER
ĠG erman
ell ows
Ġv ast
Ġv ine
Ġv ault
ĠR ou
ĠR utland
Ġbl ast
Ġbl ock
Ġbl az
ĠV ar
ĠV incentio
Ġmad man
LA M
Ġro be
ĠMy til
CH US
Ġple dge
Ġper d
Ġfl int
Ġever more
MAR CELLUS
Ġpur ge
Ġkeep er
ĠU ntil
Ġrep ly
Ġrep roach
Ġfort unate
Ġansw ered
TIO CHUS
Ġnat ures
Ġconf eder
Ġpre c
Ġchar ms
Ġche st
Ġacc om
Ġass ault
UD REY
Ġdi et
ĠAl encon
Ġreason able
Ġcare less
Ġpurpose d
Ġsil k
Ġdist ract
Ġdist urb
Ġinf l
UG BY
ĠAR VIRAGUS
Tw ill
Tw ixt
ĠDid st
ĠLEON TES
Ġsum m
Ġdiv ide
Ġsign ior
vel vet
Ġpu iss
Ġbond age
Ġgrie ved
ĠOR LANDO
onst ant
Ġhide ous
Ġbeast ly
Ġlim b
Ġlim it
Ġpleas es
Ġut most
Ġsim pl
Ġcr ook
ĠHa ving
Ġbreed s
Ġneigh bours
Ġele ction
Ġele ments
HOR SON
Ġfrown s
Ġcre ate
Ġvan qu
Ġmere ly
Ġpol itic
isp ers
STAN LEY
Ġguilt less
Ġsal ute
rat iano
ung s
Ġwander ing
Ġappre hens
Ġarch bishop
Ġball ad
ĠVols ces
Ġconven ient
ĠGoth s
Ġestim ation
Ġstro kes
bast ian
Ġmarvell ous
Ġton ight
ĠPhe be
mion e
ĠWAL TER
ĠCrom well
Ġlew d
ĠMytil ene
B l
M akes
M ECAENAS
S ha
S on
T ruly
V ery
d ra
k now
l ar
m as
m ity
Ġw ipe
Ġf ray
Ġf ires
en ius
ĠI mp
Ġd art
Ġl ungs
Ġn earer
ar ius
Ġp or
at io
Ġin quire
Ġha b
ĠS leep
ĠH ORTENSIO
ri pp
ĠB ASS
Ġre ap
Ġso lic
ain ter
ĠL ORD
est ial
if ferent
ĠG on
Ġfa ction
Ġsh out
qu o
ĠR eads
em pl
Ġhat es
Ġwor ms
Ġqu aint
ig er
Ġr at
Ġun re
LO DOVICO
ĠJ OAN
Ġro pe
Ġfo ld
Ġen ra
Ġra ging
Ġper i
Ġper nicious
Ġapp ea
Ġfl ame
Ġcomp ar
Ġcomp ell
Ġcomp lete
Ġcha p
ĠAn jou
erc hance
Ġfollow ed
Ġforth with
Ġsub stit
Ġhum ility
Ġpower ful
Ġmis chance
Ġswear ing
Ġgr im
Ġstra w
Ġsing ing
Ġcountry man
Ġbound s
Ġaff right
Ġlead ing
Ġten or
ĠCom inius
Ġdiv ision
Ġatt ain
Ġbless ings
pr us
BAN QUO
Ġjest s
Ġstir ring
Ġenc hant
Ġmist rust
Ġrob es
Ġer rand
ĠLa ertes
BRA KENBURY
ĠRo bin
Ġes cape
Ġleg ions
ĠAlex ander
Ġpersu aded
Ġdesert s
Ġimag ine
Ġminister s
Ġmour ning
Ġcapt ains
Ġcere mon
AUS TRIA
Ġdeterm ined
Ġpill ow
Ġbegu ile
Ġcurt ain
ĠPaul ina
Ġincen sed
Po et
Ġexcell ence
Ġsuperfl uous
ĠAri el
ĠJes u
Ġexerc ise
ĠPhoe bus
Ġspe eches
peci ally
Ġcoxcom b
Ġpite ous
A QU
C la
C RO
D raw
E ng
H ence
L ay
L ong
M ark
O UR
P l
P ost
R ead
S ings
W hither
a is
f rom
f aith
i as
o qu
s ick
é ģ
Ġ ice
Ġt ired
Ġa fore
Ġs illy
Ġb ishop
Ġf ift
en voy
it ary
Ġd ower
on ce
ar io
Ġp ounds
Ġth orough
an iel
Ġg age
Ġbe think
Ġin fection
Ġha ck
ĠS y
ĠS it
ĠS EBASTIAN
ut ies
ill e
ra ise
as ions
ĠC orn
ĠC esario
Ġso ber
Ġas semb
AR IO
ur ity
ĠN ym
ĠF ather
Ġbut t
if ic
il ence
Ġman ly
Ġne gl
end ing
ĠR es
Ġcon vers
ul ar
ven ge
OL OG
Ġsw im
Ġlet s
Ġbr anch
RO CU
Ġlike lihood
ĠJ ustice
ĠJ AQU
Ġpro logue
are r
Ġpo pe
Ġro gues
LE IUS
Ġsome what
FF ITH
Ġdes ol
Ġdes cent
Ġblood s
Ġart icle
Ġper t
AM ILL
ĠU p
Ġrep roof
ne ver
Ġsm oke
Ġunder t
be it
Ġrest ore
Ġrest ored
Ġcrown ed
Ġcou ple
Ġright s
Ġtre asons
ab b
Ġback ward
Ġeven ing
Ġimp atience
Ġfight ing
Ġmaj est
Ġmo e
Ġaw e
Ġreven ue
Ġtrust y
Ġaff ord
ĠPro c
Ġeat en
ots pur
Ġsur prised
Ġext reme
vent ry
ĠCy prus
Ġreg ent
Ġsho es
Ġproceed ings
Ġdea rer
Ġmed it
ĠKATHAR INA
jo in
Ġchall en
Ġhol id
ĠCO UNT
ĠCO STARD
Ġwond ers
Ġperj ury
ĠWor cester
ĠBar nard
Ġsto le
Ġlin en
Ġbew are
Ġparent s
ĠNOR THUMBERLAND
ĠCHAR MIAN
Ġblus hing
Ġcharac ter
Ġliqu or
Ġprodig al
ĠStep hano
Ġsty le
ĠMon mouth
ĠNer issa
Ġeverl asting
Ġtres pass
ĠJud as
AEM ELIA
ecom es
incul o
ĠRou en
CRO OP
OLOG UE
ROCU LEIUS
AMILL IUS
ĠBarnard ine
A men
C ORDELIA
G host
M ar
P orter
b oard
e ven
f av
i qu
k ens
l orn
p art
p ire
w ear
w hy
y mph
ä ½
å ı
Ġ velvet
Ġt al
re ant
Ġf ount
Ġf ert
Ġc asket
Ġh ue
Ġp ere
an gs
ĠT rib
ĠS ur
Ġe p
Ġe bb
ĠH UM
ĠH otspur
as sed
ĠB ed
al ter
al ty
Ġre lish
ge ant
ĠM OTH
ĠM ACDUFF
ro ve
ĠL AN
us ing
Ġsha mes
ĠF ly
ĠG ratiano
ĠD UCHESS
Ġman tle
Ġsh rink
ĠY e
ic ha
xt on
Ġknow est
Ġhat red
ĠTo pas
Ġsa p
Ġpo s
Ġoff ers
Ġro ll
Ġab bey
Ġen mity
Ġdes cription
Ġbre thren
Ġra vish
ger y
Ġri bs
ĠThis be
Ġcl amour
Ġset ting
Ġconf er
Ġche ap
ĠShe pherd
Ġdisc ord
Ġpe ep
Ġmo ons
Ġbu rial
ĠHer mione
Ġlay s
Ġreturn ed
Ġwa ves
Ġattend s
Ġsil ken
Ġsister s
Ġprin ci
Ġcho se
Ġbat tles
Ġmock s
Ġmock ing
Ġspeed y
Ġdev ised
Ġdev otion
ĠGloucester shire
Ġcounsel s
Ġext end
Ġopp ort
Ġmurder ous
Ġreb uke
Ġcheer ful
Ġexec uted
Ġwed ded
Ġbec ame
Ġrasc als
Ġlist s
Ġgent leness
Ġes p
Ġgross ly
Ġpersu asion
Ġhor rible
Ġdwell s
Ġcuck oo
ĠBl unt
Ġfee ble
Ġnob ody
Ġeng aged
ĠFlore nt
Ġnobl er
gn ant
Ġinfect ed
Ġparent age
Ġdeterm ine
Con f
Ġdiss ol
Ġfil thy
Ġtou ches
Ġimprison ment
Br other
ALEX AS
Ġbarbar ous
Ġpreced ent
Ġoutra ge
Ġmyster y
advent ure
Ġdrows y
C y
C ons
G ain
I ENS
L L
P ainter
R ep
S ET
Z ounds
a ven
a ves
d ea
g ate
g ments
k n
p ite
s ino
u ary
w hen
w ater
å ®
å ħ
å į
é Ģ
Ġt ie
ou ns
Ġs li
in er
in ter
Ġm iddle
er ves
Ġc urious
Ġd roop
Ġl ar
Ġl ime
Ġl aug
Ġh ire
Ġp ine
Ġth irst
an ing
at o
at est
ĠS hylock
im ents
Ġe c
ter bury
Ġst ake
Ġst uck
Ġst iff
Ġst eward
as ures
ĠM AL
ĠL ead
ĠL OV
ĠO h
am n
Ġsha m
ĠN ell
ĠAnd rew
ĠF ield
ĠF ABIAN
ĠF ulvia
Ġde vour
Ġsu stain
Ġse ized
Ġall iance
Ġlo sing
ell o
Ġsp ell
ĠD er
ĠD ROMIO
OR SET
ĠR oder
Ġshe ets
Ġthere to
Ġcan non
Ġhat ch
ĠNe ither
Ġr ot
Ġr uth
Ġdis like
ime ly
Ġal oof
Ġal oft
Ġpl ent
ĠHe c
ĠAs s
Ġen f
PH IL
CH IRON
Ġwr ang
ĠĠĠĠĠĠĠĠĠĠĠĠĠĠĠĠĠĠĠĠĠĠĠĠĠĠĠĠĠĠĠĠ ĠĠĠĠĠĠĠĠĠĠ
DU LL
sw er
Ġcl am
Ġind ifferent
Ġcons pir
OP SA
Ġtri ump
Ġle ather
orse t
Be hold
Ġimp atient
Ġwel kin
ix enes
Ġbo at
aw s
Ġinf er
Ġsight s
Do ctor
ĠĠĠĠĠĠĠĠĠĠĠĠĠĠĠĠĠĠĠĠĠĠĠĠĠĠĠĠĠĠĠĠĠĠĠĠ ĠĠĠ
no bar
oward s
Ġvis ion
DER BY
Al though
Ġdesp ised
Ġrespect s
Ġfam ish
Ġlaugh ing
Ġrel ieve
Ġag reed
Did st
Ġob li
Ġpatient ly
Ġflatter ing
Ġproc ure
Ġdu chess
con bridge
icul ous
BRA BANTIO
Ġcontin u
Ġcre pt
Ġvan ish
Ġdelight s
Ġvisit ation
Ġinv ite
Ġthreat en
Ġthreat ening
ĠAm ong
Ġdism al
ug by
ĠSe bastian
Ġhol p
Ġrid iculous
ourt ezan
Ġant e
rat itude
ĠCo ventry
Ġjoint s
Ġdischar ged
semb ling
Ġswell ing
Ab out
Ġsy mp
Ġstat ue
Ad v
ĠCHAR LES
Ġtut or
ĠJa ques
Ġwarri ors
Ġoverth row
Ġbran ches
Ġprophes y
Ġpenit ent
ĠBea u
Ġtremb ling
Ġfem ale
ĠHor atio
Ġbache lor
Ġmars hal
Ġfift een
ĠRoder igo
C itizens
R et
R ICHMOND
S p
f ace
g reat
g ress
g ins
l iness
m et
m ight
o b
s peak
t ong
u le
w omen
é Ľ
ī å
Ġt ire
Ġs ands
Ġm at
Ġm ouse
Ġw id
Ġb alm
Ġc ull
Ġn igh
Ġp ir
Ġp ant
Ġhe inous
ow ing
ĠA ud
Ġbe ats
Ġha lt
ĠS ound
Ġme ed
im ony
Ġfor lorn
ĠH ar
ad em
ĠB our
Ġre in
ur ous
Ġwill ow
ĠL ion
ĠF ind
Ġde fe
Ġno on
th orn
Ġsu llen
Ġall ay
ĠG ON
Ġlo cks
Ġv ap
ĠD u
Ġam ple
Ġup bra
Ġmu dd
Ġwhe t
ĠR ather
Ġbl ossom
el ia
pea ch
um n
Ġj u
Ġj er
Ġun ivers
Ġdis o
Ġtru er
au d
man ner
ec ome
Ġcomm odity
Ġad ore
Ġwh ist
Ġke ys
Ġcour ses
Ġcomp ound
Ġcomp are
Ġru b
Ġru e
Ġlong ing
ĠAn on
Ġend ured
Ġbra ss
Ġta vern
the ir
Ġbel ieved
ab s
ĠMAR CIUS
Ġstran gers
essen gers
Ġthousand s
Ġhel ps
Where fore
Ġbreak fast
Ġmo ving
Ġwind ows
Ġdan gers
Ġwant ing
ĠFrench man
Ġyield ing
Ġlead en
Ġexc laim
Ġconfess ion
ĠCan terbury
Ġquar rels
Ġcoward ice
Ġappro ved
Ġow l
Ġid ly
Ġunderstand ing
Ġve in
At tend
Ġinstru ction
Ġob st
Ġstud ied
Ġsn atch
GU ILDENSTERN
Ġdri ven
Ġdri ft
mon th
Ġsland ers
Can not
Ġviol ence
Ġnecess ary
Ġbend ing
Ġmaiden head
irt ue
omin able
Ġmerc iful
boy s
OX FORD
Ġglo ves
Ġach ieve
ĠPO STHUMUS
ĠPhi lip
ĠSic ilia
Ġhom age
Ġscour ge
ĠROSAL IND
ĠMONT AGUE
ĠTrump ets
Ġbere ft
Ġexplo it
cra ft
Ġconsequ ence
Ġrecon ci
Ġcove t
ĠTR ANIO
Cy mbeline
A w
C ry
F al
F ull
H IPPOLYTA
J O
M usic
P ANTHINO
R es
R IC
S c
a ur
b ook
c ore
c ons
e er
g room
h ore
p ly
v ised
² æ
ç ´
Ġt row
Ġs ixt
in th
Ġm or
Ġm ur
Ġm onsieur
Ġb ail
is ement
er d
ll e
Ġf ence
ĠI RA
Ġc ities
Ġc rows
Ġd ried
Ġd ined
Ġl ame
Ġp ath
Ġhe el
Ġg ilt
ĠT ha
ĠS LENDER
ĠS IMP
ĠS omething
ĠW orthi
ĠW alter
Ġe ats
Ġwe ed
Ġst ink
ri ce
ĠB ull
Ġre pea
ĠC ost
ĠC ELIA
ĠC LOTEN
ĠE m
ĠE ly
ĠE very
ĠP ROTEUS
Ġdo le
ĠN urse
ĠF RIAR
Ġbut ter
if er
Ġan ointed
ĠĠĠĠĠĠĠĠĠĠĠĠĠĠĠĠ ĠĠĠĠĠĠĠĠĠĠ
Ġsp ot
ĠD orset
qu al
AL A
ĠR ugby
ious ly
Ġbl iss
ol is
ET O
um ents
ig ion
un uch
ARD IAN
Ġpro ves
Ġpart ner
Ġ1 0
Ġpl ough
ĠK ENT
ESS ALA
Ġab und
Ġra ce
Ġpray s
Ġsc old
Ġstr ay
Ġnight ly
Ġru m
Ġcl oth
Ġfool ery
Ġnoble man
Ġent ra
Ġset tled
Ġput ting
Ġplay ing
Ġcons ist
Ġplease th
ect ed
LUC Y
UT E
Ġhands ome
Ġdi al
Ġland ed
Ġmo iety
let s
Ġcra dle
Ġhu nter
Ġfly ing
sc ap
Ġattend ants
VAL ERIA
Ġsk ull
Ġdrink s
Ġwis er
Ġtouch ing
Ġprof ane
ĠCom mend
Ġdeep ly
Ġdiv ided
Ġatt ach
Ġdesp ise
Ġfra med
Ġcommend s
ĠMurd er
ĠChrist endom
Ġsho e
Ġble m
Ġpit ied
Ġsmall est
Ġknock s
Ġfrown ing
ĠRosal ine
Ġsuccess ion
Ġver se
Ġdeg rees
Ġcompan ions
Ġhor ror
Ġgrand father
Ġkna very
Ġusurp ing
ĠMars hal
Ġdet est
Ġunp ro
Ġboot less
ĠTroj ans
Ġbell s
Ġheav ier
Ġunkind ness
semble d
Ġpursu it
ĠTr inculo
Ġbur nt
ĠSat urn
Ġmag ic
Ġruff ian
ĠPol ixenes
Ġcounse llor
Ġconclud ed
Ġcel estial
Ġimped iment
Ġack nowledge
Ġperi od
Gain st
PHIL ARIO
nobar bus
ĠAud rey
JO Y
ĠIRA S
' m
A lack
C ame
C ousin
E d
G et
L ie
O ST
S et
T ut
b o
i ction
m ake
m od
n ish
p iece
ä ¸
ä »
å ¾
æ ²
æ ·
Ġt ainted
Ġs ixth
Ġm ast
Ġm essengers
Ġw ilful
Ġb ands
Ġf urious
it an
Ġc ent
Ġc ro
Ġd ate
Ġd uties
Ġp atch
Ġto ys
Ġg ains
Ġg orge
ĠA GR
Ġbe que
ĠS ailor
Ġe pit
ĠH AM
ra ction
ĠM icha
ĠE ast
ĠE lse
ĠP ur
Ġdo ct
ĠL ea
ĠO pen
ck ets
ous ins
Ġher d
Ġno d
ĠG ower
ell a
Ġman kind
ant ime
ant ages
qu iet
Ġam ain
Ġwhat soever
Ġpr ime
ĠR ivers
ic ity
Ġshe lter
ĠV AL
Ġhome ly
Ġus es
Ġun will
un ction
Ġpart ies
Ġtru ce
Ġgra in
Ġlea ving
Ġal ms
Ġmar ble
Ġhea p
Ġwhere on
Ġex pense
Ġra w
Ġra gs
IAN US
Ġsc roll
Ġapp ly
sw ear
ag on
Ġim peach
Ġcont ag
Ġpur ple
ĠMar ian
Ġsm other
Ġhold ing
Ġplay ers
Ġchar itable
Ġworth less
Ġmean er
ĠSt rike
Ġafter wards
Ġturn ing
Ġdra m
ĠMAR INA
Ġchan ges
ĠLE PIDUS
Ġimp ud
bl er
fort une
Ġmo an
ĠRe ign
Ġsick ly
Ġseek ing
ĠED GAR
Ġsad ly
ĠBEL ARIUS
Ġreport s
Ġreport ed
BUS HY
Ġbold ly
Ġpret t
Ġplain ly
Ġprov oke
Ġmod el
Ġemp ire
Ġscar f
Ġid leness
Ġvile ly
Ġadd ress
Ġmot ive
ĠTy r
Ġresol ute
Ġba it
cher s
Ġay e
Ġcap able
Ġstop s
Ġsucc or
ĠLuc ilius
IP PA
ĠTit an
Ġstar ved
Ha ving
Ġstor ms
ĠBes eech
Ġtrans port
rate ful
Ġweight y
Ġreve ls
Ġbas eness
Ġfruit ful
ĠPo le
Ġdisgu ise
Ġaffect ed
Ġbride groom
Ġincl ined
Ġpurcha sed
Ġnobl eness
Ġfun ction
Ġfun eral
CORN ELIUS
Ġcoff in
Ġobserv ance
ĠRet urn
Ġprovo ked
Ġsubd ued
ĠBan quo
ĠHelic anus
Ġrepe at
Ġsubscri be
ĠVar ro
Ġenra ged
Ġfert ile
Ġpere mpt
ĠLAN CASTER
Ġlaug hed
ĠAGR IPPA
Ġepit aph
ĠHAM LET
ĠMicha el
D AVY
F ather
G l
I LE
I FFITH
M en
M AMILLIUS
M OPSA
N O
R EL
c er
c alf
d ers
d isc
f le
i ond
l ion
l arge
m ade
p al
s hi
u ction
v ion
v ided
w ord
w hel
ä º
å ¯
å Ĵ
ç Ľ
è ²
è ³
Ġ ULYSSES
in st
Ġw i
Ġw ave
Ġb ate
ll ies
ĠI AG
Ġd ed
Ġn ymph
ar on
Ġp angs
Ġto ss
an n
st ood
Ġg ames
ĠA CH
ĠA aron
Ġbe ef
ĠT rust
se ed
se th
Ġha l
ed nes
ch o
Ġnot orious
ea rest
Ġe ff
Ġe unuch
ĠH E
her n
Ġk ern
Ġst ates
as ca
ri kes
ĠB ona
al us
ĠC hamberlain
ĠC asca
EN ICE
ĠM is
Ġas under
Ġli vest
ĠE ur
ĠP ANDARUS
Ġdo l
ĠL ive
Ġde fect
ĠG ri
ĠG iving
Ġlo fty
Ġsp urs
Ġmu ff
Ġwhe l
ic ation
Ġca uses
ath om
ĠV IOLA
ĠV ENICE
ol a
la us
ĠTh ings
um ain
Ġr ated
Ġro d
LE OM
Ġab ject
ull us
li er
TH OMAS
oul t
Ġsweet er
Ġworld ly
Ġim it
Ġcont empl
Ġtra g
ID GE
vil ion
AB HORSON
Ġchi val
Ġch im
ac ity
Ġpre gnant
Ġche ese
Ġhus h
day s
Ġmer rim
Ġbo ister
Ġfe ats
ĠRe venge
Ġban ks
ap ly
GR IFFITH
Ġinst ead
com p
OCT AVIA
Ġwa ist
Ġfoot ing
Ġinf amy
ĠAr ch
Ġcho ke
Ġrec ount
Ġmin ion
Ġlead er
Ġprof ound
Ġsuit ors
Ġexc ursions
CASS ANDRA
Ġfast ing
Ġcoward ly
ĠLA FEU
Ġreg ion
Ġstir s
Ġgro ve
Ġmount ed
ĠLUC IO
Ġbro ad
Ġbegin ning
Ġfeast s
Ġrel ent
eem s
Ġcr im
Ġcr imes
Ġperform ance
SA Y
uce lle
Ġbastard s
JAQU ENETTA
Ġfellows hip
Ġtrans form
ORC AS
isp atch
Ġstomach s
Ġbount eous
Ġhol iness
Ġhunt ing
Ġwitch craft
Ġcorrupt ed
Ġcorrupt ion
IG OT
Ġprophe cy
Ġhig hest
Ġgaz ing
Ġnobl est
Ġing ratitude
Ġtrif les
ĠPis a
Ġder ived
ĠOctav ius
Ġshr oud
Ġmisc arry
Ġnaught y
YR REL
Ġunse en
VERG NE
Ġmill ion
Ġtap ster
ĠGU IDERIUS
ĠSIL VIA
ĠJUL IA
Ġgild ed
ĠOli via
Ġcontro l
Rem ember
Ġdiscipl ine
ĠAU VERGNE
Ġcudge l
BR IDGE
Ġinsol ence
Ġembass y
ĠLYS ANDER
Ġprover b
Ġlee k
Ġlun atic
ĠTam ora
Ġhaught y
Ġassemb ly
Ġopport unity
Ġobli vion
Ġperempt ory
NO UT
iond ello
ĠIAG O
ĠACH ILLES
ednes day
LEOM ENES
' ve
B oat
H as
L eave
N A
P lay
S ound
T ailor
c ast
c har
g ent
h us
i pt
i able
j ud
l ot
l ers
m a
m aker
p ress
p icious
r ot
t ree
t ied
t ered
u bs
y e
å Ĺ
è ¨
è ©
Ł æ
Ġt alks
Ġs ow
re cy
Ġb one
Ġf ol
Ġf ist
Ġf rant
Ġo il
ĠI rish
Ġc ele
Ġh ood
Ġn ourish
Ġp ed
Ġp orter
Ġto wer
at age
ĠA ENEAS
Ġbe ads
se ver
im o
id a
Ġst ool
ĠB reak
ĠB iondello
Ġre vel
ĠC ardinal
ĠC YMBELINE
IN NA
ĠM ethought
Ġas hore
ĠL end
Ġsha med
and ra
if ter
Ġsu ms
Ġse ar
Ġsp ar
Ġv io
ĠD ead
Ġsh irt
Ġmore over
Ġbl ank
Ġca ps
Ġar bit
Ġwor ser
Ġr ings
Ġr ising
Ġmad ly
ĠJ er
are rs
orn s
Ġpo pul
Ġma gn
Ġab ominable
Ġen sue
Ġen rich
Ġdes c
Ġdes erving
Ġra bble
ak est
li us
to p
Ġri cher
Ġcall ing
Ġown er
Ġsc ars
Ġapp le
Ġwit ty
Ġstr atage
Ġcomp osition
Ġcl ay
Ġgrace d
Ġent ers
Ġent ire
Ġind ust
ne ath
Ġplay ed
Ġcount y
Ġworth iness
ĠSt ran
Ġmeet s
Ġright ful
Ġpri vy
cl osed
Ġacc ent
tw ould
LEON INE
Ġbu zz
Ġdevil ish
Ġfe ature
Ġsec urity
Ġsec recy
Ġinst inct
Ġread iness
Ġgrow th
Ġmet e
Ġwear ing
Ġpar cel
Ġmock ery
Ġbold ness
Lord s
Ġdro pp
Ġappro bation
Ġoffend er
Ġopp ression
Ġcreat ed
Ġlack s
Ġlow ly
Ġinter chan
Ġmortal ity
Ġocc asions
Ġbrief ly
Ġer r
Ġintend ed
Ġgent ry
atri cians
OS RIC
ĠEgypt ian
Ġcorn er
Ġthreat s
Ġdebt s
Ġdism ay
Ġdisg raced
Ġgir ls
po c
Ġdign ities
Ġsqu are
Ġsqu ire
Ġtwelve month
Ġchief est
Ġbab y
Ġdig est
Ġwol ves
Ġtyran n
Ġstab b
Ġworthi est
Ġsanct uary
Ġadmir able
ĠPhi lipp
ĠHost ess
Ġbrid ge
ĠGU ILDENSTERN
Ġbeaut iful
Ġpilgrim age
Ġmanif est
Ġbul k
Ġalt ar
Ġlecher y
Ġchamp ion
iqu ity
ĠFlorent ine
ĠWorthi es
ĠCost ard
Boat swain
Ġfrant ic
A UDREY
C har
G AMEMNON
I mp
J o
M any
M easure
M ILIA
P yramus
R ichard
S m
S CARUS
W or
W hether
b ody
c or
c ount
e ys
f a
f ish
f fered
g ot
i ors
i ban
m ust
r ates
s kin
u ell
v ity
w all
¯ å
å °
æ ĵ
ç Ķ
Ġt ardy
Ġa ut
ou rer
Ġm ort
Ġm ute
re ment
ha s
Ġthe ft
Ġb ide
is m
Ġf ile
Ġf athom
Ġo mit
en or
Ġc ured
Ġh ook
ar re
Ġp up
Ġto e
ot ent
ow der
Ġg uts
at in
ĠA mb
ĠA GAMEMNON
ĠT en
ĠS aw
ĠS ICINIUS
im ple
id ing
ra d
ra ve
ĠB ret
ĠB etter
ĠC LEON
ĠC OMINIUS
ge ons
Ġli ly
ĠE MILIA
ĠP ent
ĠO ver
us ale
AN TIOCHUS
Ġse vent
ru ng
ru nk
art ered
Ġv ict
ĠD rum
ĠD eliver
ant us
ĠR ight
ĠR un
EL Y
Ġsw eep
ure r
em ned
em antus
Ġthan e
ĠV illain
Ġar rant
Ġqu ake
ice d
un eration
Ġout st
Ġpro ject
Ġtru ant
ire ctly
Ġro de
Ġthink est
ĠK ne
Ġfo il
ud es
TH YREUS
Ġri g
Ġad ul
Ġad verse
ĠĠĠĠĠĠĠĠĠĠĠĠĠĠĠĠĠĠĠĠĠĠĠĠĠĠĠĠĠĠĠĠ ĠĠĠĠĠĠĠĠ
Ġway ward
che ap
Ġcomp et
Ġmight ily
Ġcont end
UL L
iss ing
Ġbra zen
AG OT
ĠOr sino
Ġrest raint
Ġpa vilion
Ġel oqu
So ft
Ġnat ivity
Ġconf ined
Ġres ort
Ġres erved
the se
Ġdra g
Ġass ay
Ġimp art
Ġkill ing
Ġshame ful
anc ies
Ġbu ff
Ġbu ilt
Ġlast ing
Ġcommand ment
Ġcra b
Ġsla ck
Ġwa kes
Ġproud est
Ġdist in
LAN CH
Ġask ed
Ġbar ge
Ġpay ment
Ġbeat ing
Ġcor poral
Ġforg otten
Ġpast ime
ĠCom m
ĠCom mand
Ġprot ection
Ġrich ly
Ġatt orn
av est
av arre
Ġsur m
ĠFl uell
ĠLA UN
Ġloss es
Ġharm less
Ġbad ge
Ġunt imely
Ġopp ose
Ġinter rupt
Ġdish onest
Ġcommend ations
Ġchur lish
Ġrel igion
Ġran ks
sp ir
Ġstud ies
Ġign o
Ġpract ises
ĠBel arius
Ġscarce ly
Ġmut ual
Ġintend s
ĠBrit ish
Ġwast ed
Ha ven
Ġcirc le
Ġhor rid
Ġprod uce
Ġmelt ed
MONT ANO
ĠOLI VER
ĠItal ian
Ġstock ings
Ġwing ed
Ġadvance d
Ġsy ll
Ġfin ish
ĠCal ais
ĠSyra cus
Ġpursu ed
ĠPAR IS
Ġaffli ction
Ġbegu iled
oll es
Ġmood y
Ġaccus ation
Ġtravell er
ĠJUL IET
ĠAp emantus
Ġdiscontent ed
Ġbank rupt
Ġlam bs
lean or
Ġbraw l
Ġimmediate ly
Ġappla use
Ġgoss ip
oons hine
Ġtro d
Ġbatter y
Kne eling
ĠGall ia
Hel p
ĠKnock ing
ĠQuick ly
ĠBEN EDICK
Ġann oy
Ġsimpl icity
Ġapprehens ion
Ġhab its
ĠTrib unes
Ġenf ranch
Ġtriump hant
ĠBeau fort
Ġdefe at
Ġunivers al
ĠSIMP LE
Ġchival ry
Ġmerrim ent
Ġboister ous
usale m
ĠFluell en
B less
H ail
M an
X FORD
Y e
a led
b re
b alls
f ellows
h onour
i ard
m or
n othing
v ius
w d
w es
y r
¸ è
å ±
å Ģ
å ĸ
æ Ī
Ġt reat
Ġt orn
Ġt ext
in u
in ch
in ent
re ason
Ġw ra
Ġb al
Ġb aw
Ġf re
Ġf ut
en ix
Ġd ul
Ġd aring
Ġd ash
Ġl ull
Ġl atest
Ġh ides
Ġn ut
Ġp ence
Ġp atter
Ġth igh
Ġto morrow
ow land
Ġg avest
ĠT ouch
ĠS on
ea ble
ĠH ie
Ġk en
ĠB est
ĠB ell
ĠB ottom
Ġre hear
ĠC H
ĠC he
ĠM in
ĠM ene
ur ther
ĠE nobarbus
ĠE leanor
ĠP res
ĠL uce
ĠL atin
ĠO XFORD
us ions
ĠN ESTOR
Ġsu nder
Ġse pul
ĠG ives
Ġfa ster
ĠD el
ĠD ef
ĠD umain
Ġmu se
pp le
ĠV ERNON
Ġar ray
ig ation
Ġj ade
Ġdis order
ff er
Ġhow l
ick le
wn y
Ġlea f
Ġlea gues
ough s
Ġey el
Ġpl enty
Ġfo llies
Ġen large
Ġart s
to ck
Ġad ver
Ġla c
Ġla bours
ag gers
eal ing
Ġcl oy
ian us
Ġbra g
Ġta bour
Ġunder neath
Ġcons ort
Ġpa pers
No ble
Ġco al
Ġconf ine
Ġconf idence
Ġpass ions
ĠSt aff
LUC ILIUS
ĠDo ver
Ġbel ief
ab y
Ġval ued
Ġdi adem
Ġfe at
Ġcra fty
Ġaw aked
Ġsupp ort
Ġmusic ian
Ġinf ancy
Ġcold ly
Ġpar le
Ġpar ch
Tw ould
bed ience
Ġrec overed
Ġrec reant
Ġwis hed
Ġpast ure
ĠCom es
Ġatt ent
Ġatt ire
Ġpen alty
ĠCan st
gg ing
ĠAd v
Ġemb raced
Ġthri ft
Ġglad ly
Ġbegg ary
Ġappro aches
An on
Ġconst ancy
Ġreg al
Ġmot ions
Ġadm ired
Ġdire cted
Ġcr ush
Ġsecret ly
Ġpost s
su ing
Ġbow l
Ġlust re
Ġpract ised
Ġsort s
Ġproper ty
Ġcourtes ies
Ġdrunk ard
Ġproof s
Ġwrath ful
Ġbene f
Ġmend ed
Ġexecution er
Ġbig ger
Ġprosper ity
Ġloath some
Ġfright ed
Ġbawd y
Ġdece ased
Ġcapt ive
Ġtempt ed
Ġextrem es
ĠAlarum s
Ġpear ls
Ġheav iness
ĠGR ATIANO
Ġworthi er
ĠSw ear
Ġvol unt
Ġaffli ct
Ġev ents
Per icles
Ġthorn s
Ġdesign s
Ġbelong s
ĠMerc ury
Ġsteed s
Ġinherit ance
ĠAp ril
Ġendea vour
Ġhy poc
Ġcop y
ĠPart hi
wind ow
wit hal
ĠMEN ENIUS
Ġost ent
Ġfantast ical
Ġinfirm ity
Ġprec ise
Ġholid ay
ĠSur rey
Ġprinci pal
Ġjer kin
Ġrepea l
ĠEast cheap
Ġfol ks
ĠJer usalem
Ġsepul ch
' !
B id
C or
C ourtezan
D ORCAS
E ach
I ARD
I WARD
L ies
P ur
S ur
S ic
S leep
V IS
Y BAL
a f
a way
a ched
c ar
c ence
d own
d oor
d oubt
l ings
p led
s ir
s ong
t ry
u ally
ä ¿
å ½
å ¿
å Ī
æ ī
æ İ
æ ľ
è ª
è ĩ
é Ļ
é ł
ķ è
Ľ ç
Ġt iger
Ġa ges
Ġs heriff
in ers
in ish
Ġm ates
is a
or us
or ity
Ġf ren
en a
ĠI ACH
ĠI lly
Ġd it
Ġn ail
Ġp ud
Ġp ipe
Ġto w
Ġto ad
ot he
ĠA w
Ġbe ad
Ġin habit
ir ts
ĠS a
ĠS CROOP
Ġnot able
ĠW all
ĠW ILLO
ĠW ednesday
Ġe gg
id ents
ra ised
as ci
ĠB less
ĠB EDFORD
Ġre form
Ġre new
ĠC RESSIDA
ĠC ARL
ĠE S
ĠE gl
ĠP R
ĠP oly
ĠP arson
ĠP ucelle
ĠO TH
us hi
ĠN ear
ĠN avarre
AN LEY
ES DEMONA
ĠF all
ĠF etch
Ġde em
Ġno ses
ER G
Ġsu ffered
Ġv ouch
ĠD own
ĠD un
ĠD ESDEMONA
qu er
qu it
OR GE
AL IARD
Ġwhe res
ĠR AT
ĠR OB
ĠR EIGNIER
ĠR uss
ĠR owland
Ġcon v
Ġshe et
ST RAT
Ġsw oon
Ġwor shi
od e
Ġqu ant
Ġj ades
Ġr anc
Ġsa uce
Ġun like
Ġun law
Ġout side
pt on
Ġpro ffer
Ġgra vity
li ct
li est
Ġwr ing
IS LE
Ġper mit
Ġper adventure
Ġsc ant
AM IENS
Ġla zy
Ġdown right
Ġarm ies
Ġcl own
ĠSir s
Ġhar ms
Ġent ered
Ġgl ance
Ġgl oss
ĠAnt enor
ĠWhere of
Ġhigh ly
Ġunder stood
Ġpeace ful
Ġshow ers
Ġfull y
Ġle vy
Ġpal try
Ġcur b
Ġcur s
Ġsub orn
Ġacc idents
Ġret ired
Ġhusband ry
ail ing
Ġcause d
ple x
Ġfalse ly
Ġgold sm
Ġfight s
ĠAl most
Ġmo le
Ġdoubt s
Ġgener ation
Ġreven ges
MEN ELAUS
Ġyield s
Do es
Ġter r
Ġmin utes
Ġrequ ired
Ġtender ness
av ille
Ġsur geon
ĠAb bey
UGH BY
Ġchamber lain
Ġid ol
Ġadd ed
ĠPl ains
Ġadm itted
ĠPar olles
ĠSc roop
Ġchoose th
Ġbeard s
Ġfeed ing
sp ur
ĠSee k
Ġlan e
su ed
Ne ither
Sh ow
gl ass
born e
sa id
Ġmut ton
Ġpriest s
Ġes cap
Ġes pecially
Ġins ult
ĠSp ain
Ġbene ath
Ġwait ing
Ġdwell ing
ĠTH URIO
Ġant ique
Ġdet ested
Ġrevolt ed
ĠBoy et
MONT JOY
ĠST ANLEY
Ab ove
ĠCal iban
Ġpat ron
Ġtest imony
ĠEn ough
Ġarrest ed
ĠLab ours
Ġdeb ate
Ġcoff ers
ĠLie utenant
ĠLong aville
unts man
ĠHER O
ĠPO INS
Ġpaint ing
Ġrece ipt
ĠAntioch us
Ġdun gh
ĠMess al
Ġlev ied
Ġwrink led
ILO STRAT
Ġful f
Ġcarri on
ENN Y
Ġorn ament
ĠCamb ridge
Ġpest ilence
ingu ish
ĠFore st
wh ite
ripp a
ĠGon z
Ġdesol ation
fav oured
Ġfount ain
dea ux
ouns ieur
ĠDer by
manner ly
Ġcovet ous
Ġsixt een
ĠHE CTOR
Ġfut ure
ĠMene laus
YBAL T
Ġfren zy
ĠIACH IMO
ĠWILLO UGHBY
asci vious
ĠCARL ISLE
ĠEgl amour
ĠOTH ELLO
ĠRAT CLIFF
ĠROB IN
Ġgoldsm ith
ILOSTRAT E
E lse
F ly
N OX
O UN
P andar
P ROCULEIUS
R ight
S it
S end
T rump
U p
b a
b ag
c ould
c ame
d one
g ard
g led
m ine
m ind
m other
p or
r ans
v ile
¾ ç
å ¤
å ĭ
å ĵ
å ĺ
æ į
æ ĺ
è ¿
è Ĥ
é ļ
Ġa st
Ġa gue
ou ble
Ġs ith
Ġm ate
re hend
Ġw ester
Ġb ills
ll ing
Ġf res
Ġf itted
Ġf ifth
Ġf owl
Ġc ed
Ġc ue
Ġc rew
Ġd r
Ġy are
Ġh ills
ar ition
Ġp ent
Ġp assed
Ġto y
Ġto kens
an ish
ot hel
st rong
Ġg ust
Ġg ets
ĠA LE
Ġbe com
Ġin ches
ĠT alk
ce ls
ce nds
Ġha g
ir l
ĠS ing
ĠS ings
ĠS omet
Ġme ek
im ate
ĠW itness
Ġfor ged
Ġe g
ra b
ra ined
Ġst airs
ad vised
ord elia
Ġre lease
ĠC hat
ĠC onst
ĠC ordelia
Ġso l
ĠM eet
ĠM asters
Ġas king
Ġas cend
Ġli cence
ĠP ark
ĠP ub
ĠP resent
am ents
Ġsha kes
est ure
ĠN an
ĠF ive
and on
Ġse ated
Ġse par
ĠG ot
Ġlo athed
ho le
ĠD uns
Ġsh ower
Ġwhat e
Ġpr ating
ĠY onder
Ġsw agger
-- '
Ġar rows
Ġbr othel
Ġr out
Ġsa vour
Ġun ruly
Ġdis loy
Ġdis sembling
Ġout live
pt uous
Ġpro gress
are st
Ġpl ight
Ġpl ots
Ġgreat ly
Ġab st
Ġab andon
ree ch
Ġen ge
Ġex cess
Ġri vers
Ġper ceived
Ġsc ra
Ġcomp act
Ġru min
ci vil
Ġpres erved
Ġcha ins
ors hip
Ġbetter s
ĠAn y
ĠAn swer
ĠCa wd
Ġind ent
Ġta unt
Ġsm art
Ġch rist
Ġch ronic
Ġchar ges
Ġchild ish
Ġhum orous
Ġchan ces
Ġea ger
Ġfal con
Ġdisc om
Ġdisc overy
Ġimp ress
Ġlight ly
ĠAl b
Ġmer its
Ġhapp ier
Ġhorse men
ener ate
Ġget ting
ster n
Ġcra m
Ġgre ets
Ġjud gments
Ġtem ples
ĠED MUND
LEN NOX
St rike
Ġgener ally
Ġknight hood
Tw elfth
Ġaff ords
Ġwis est
Ġcor pse
Ġfour th
Ġposs essed
ĠDid o
Ġrequ ires
Ġdeep er
Ġsum mon
Ġexc used
ub a
Ġentreat s
Ġpu pp
Ġweak er
Ġwalk ing
Ġoffend ers
cept ion
ĠUn cle
Ġopp ress
Ġpluck s
Ġstir r
Ġrespect ed
Ġmal ign
Ġself same
Ġthrow s
Ġsho p
law s
Ġob sequ
Ġcap acity
Ġobs erved
Ġpubl ish
vey or
ĠLuc io
Ġsaf er
Ġrasc ally
May or
Ġlist en
ĠBrit ons
Ġga oler
ĠStand s
ĠBes hrew
Ġnecess ities
Ġfig ures
Ġfi ends
Ġamaz ement
Ġdamn ation
Ġlament able
Ġflood s
ĠBass ianus
Ġant ic
Ġcover t
Ġlod ged
Ġstat utes
Ġfant asy
Ġadmir ation
Ġnegle cted
Ġsaint s
Ġassist ance
Ġblus hes
Ġach ieved
AMP SON
Ġgrey h
ĠAcc ording
Ġpoet ry
Ġtum ult
CAN IDIUS
Ġadvers aries
Ġming le
Ġming led
Ġindign ation
Ġphilosop hy
Ġlinger ing
ĠProsper o
Ġdistract ed
Ġcrook ed
Ġvanqu ish
Eng land
ĠBed ford
ĠHec uba
ĠBour deaux
scap ed
Ed ward
Ġcent re
ĠReign ier
Ġchim ney
Ġeyel ids
ĠStaff ord
Ġsepulch re
OUN G
ĠALE X
ĠPub lius
ĠCawd or
A EL
C l
D ies
D eliver
D ORSET
F ind
F are
F all
G iving
H IT
M ethought
M ITH
M ESSALA
S inging
S AMPSON
T YRREL
V ILE
W atchman
a ger
b able
b bles
c all
d ges
g rown
i ot
i pp
i bly
p ri
p ol
p ens
p urse
p oster
t urn
t ta
å ¥
å §
å ·
å ¼
å ķ
æ ģ
æ Ĥ
æ ħ
æ Ķ
æ Ļ
æ Ľ
è «
é ĸ
Ģ ç
į ç
he res
Ġa u
Ġa che
Ġa pes
Ġs ans
Ġm us
Ġw ip
ha le
Ġb en
Ġb ias
ĠĠĠĠ ĠĠĠĠĠ
ll ed
Ġf en
Ġf row
it iff
ĠI m
Ġc ushi
Ġl ot
on na
Ġn avy
Ġp oo
Ġp uff
Ġth wart
Ġto ps
an im
an ge
an ks
st ances
Ġg un
Ġg ull
at han
at cl
ĠA LEN
Ġin n
Ġin vest
ĠT ears
ĠT IMON
ĠT OUCHSTONE
Ġha m
ĠS URREY
ut o
ut boys
Ġme al
im p
ill ings
ĠW rite
Ġe wes
ĠH OR
ĠH um
ĠH OTSPUR
Ġst ew
ad ise
ri bly
ĠC AL
ĠC ourt
EN CH
Ġas sembled
Ġli ar
ĠE ver
ĠE LY
ĠP erchance
ĠL ies
ĠL AV
ĠO phe
Ġsha ft
ĠN ich
ĠN ERISSA
ĠF aul
Ġan chor
ĠG race
ĠD ER
Ġman gled
qu ess
qu enet
Ġam ount
end ed
Ġpr im
ĠR OS
Ġgo est
ic ing
ul sion
Ġsw e
Ġca itiff
em b
ol as
Ġar ras
Ġus age
ĠTh row
ĠTh urs
Ġbr im
RO TH
um ps
um ption
Ġj ar
Ġj ump
Ġmad onna
ĠJ ust
ide le
Ġhand le
ff ith
Ġpl ants
Ġen v
Ġex quis
ec ess
Ġra d
Ġra v
PH REY
li a
Ġwar ning
Ġson net
Ġfl ames
sw eet
ag ne
Ġpla gues
Ġfool ing
Ġpur ses
Ġbra nd
Ġtra v
Ġta per
Ġta bles
AD AM
Ġsm ack
ICH AEL
Ġserv ing
Ġrest s
Ġpresent ed
ĠSt reet
Ġcur ts
Ġsub mit
Ġfaith fully
Ġpri cks
Ġneed less
Ġtre ble
cl oth
Ġbes hrew
Ġbed chamber
Ġbed fellow
Ġye oman
gu ed
ĠHer ne
GR EEN
GR EY
Ġsing ular
Ġtem perate
Ġvo id
Ġwa ft
Ġproud ly
ĠCle on
Ġcond emned
ĠEnglish man
Ġtrust ed
Ġdisp lay
Ġrec overy
ĠPro ve
Ġforg iven
ĠQU INCE
Ġord inary
Ġsign al
Ġspeed ily
Ġext ra
Ġwatch ful
Ġappear ance
Ġsuffer ing
FL UTE
ĠAb ove
pl ain
Ġwret ches
Ġtak est
ĠThese us
ang led
Ġstreng then
Ġwild ly
Ġinter im
ura ble
Ġwoe ful
Ġfill s
MOR E
Ġsim ply
Ġteach ing
Ġsteal s
ĠHad st
Ġopin ions
Ġdu kes
Ġwhi pp
Ġpublic ly
Ġtor ches
ĠPUC K
Ġjealous ies
Ġcontin ent
Ġcontin ual
Ġloud er
Ġga pe
Ġed ict
Ġins inu
ĠGu ild
Ġbestow ed
HOL LAND
Ġdebt or
ĠGre en
Ġvictor ious
Ġsail ors
Ġlangu ish
Ġcher ry
cri be
Ġmir ror
Ġimper ious
ĠCo le
Ġincl ination
Ġung entle
Ġcompl iment
ĠSH YLOCK
Ġcoz ened
ĠDraw er
Ġmerchant s
Ġcloud y
ĠTIT ANIA
Ġshr ill
Ġcla p
Ġfeather s
Ġav ouch
Ġdot ing
Ġyester night
Ġpronounce d
ĠBE ATRICE
Ġcorre ct
Ġcharac ters
Ar m
Ġhur l
ĠSIL VIUS
oubt ed
ĠArm ado
ĠJa quenet
Ġwarri or
Ġtick le
ĠMess ina
Ġnap kin
ĠCASS IO
Ġvot re
Ġquest ions
oc ate
Ġrus hes
Ġspr ings
Ġdisper sed
ĠHERM IA
Ġvig our
LAM OUR
Ġsolic it
Ġchap el
Ġsubstit ute
Ġnegl igence
ĠJAQU ES
Ġchallen ged
ĠHUM PHREY
ĠMAL VOLIO
Ġruth less
ĠHar fle
Ġmudd y
Ġmur m
ĠEm ilia
Ġabund ance
Ġblem ish
Ġbeque ath
ĠVAL ENTINE
ĠEur ope
ĠGri ffith
Ġcontempl ation
ĠArch bishop
Ġcrim son
Ġtyrann ous
Ġpup il
Ġsyll able
Ġbal ance
ĠIlly ria
Ġquant ity
Ġunlaw ful
Ġced ar
HIT MORE
Ġfrow ard
atcl iff
ĠALEN CON
ĠLAV INIA
ĠOphe lia
ĠNich olas
ĠFaul conbridge
ĠROS ENCRANTZ
ĠThurs day
Ġexquis ite
ĠJaquenet ta
ĠHarfle ur
A ULINA
B etter
C h
C INNA
F rance
H o
P resent
R UGBY
S blood
S heriff
T US
a gainst
b urn
b by
b etter
c od
f ool
g one
l ady
m id
m atter
m iss
n ame
p han
t oo
v ial
w itted
¦ æ
½ ç
å ¹
å Ħ
æ ¸
æ Ħ
æ Ĵ
æ ĸ
ç ¶
è ¬
è ĥ
è Ī
é Ĥ
é ĩ
é ľ
é Ŀ
Ġs ize
in us
in ity
in ane
Ġw ages
Ġb ars
Ġb ites
is eth
is sed
er th
er geant
Ġf ishes
Ġf ancies
Ġo bl
Ġo min
en own
Ġc u
Ġc y
Ġc ott
Ġc rop
Ġd ice
Ġd all
Ġd ally
Ġd omin
Ġy ard
Ġl ink
Ġn ort
Ġp icked
Ġp arson
Ġth umb
om y
st al
st ock
Ġg eld
at tle
ĠA JAX
le ct
ĠS ONG
ut io
Ġme w
Ġme mber
Ġme mbers
ea sed
Ġwith hold
id el
ra ces
ĠB lanch
Ġre nt
Ġre vell
ĠC ut
IN TUS
ĠM et
ĠM aking
ĠE l
ĠE sc
ĠE thi
ĠP ha
ĠP repare
ĠP AULINA
ĠF le
th ree
ĠG ad
ell er
Ġsp ider
Ġsp acious
ĠD est
ĠD ol
Ġne cks
Ġup hold
Ġgood man
Ġpr ate
ĠY or
ĠY ield
Ġcon sec
Ġsw ing
Ġsw ifter
ure nce
Ġca pon
Ġcan op
Ġor ator
Ġor phan
ĠV ent
ĠV OL
fe its
Ġar rog
Ġj ugg
ĠNe w
Ġr ats
Ġr iddle
Ġsa ll
Ġun fe
Ġho p
Ġtru n
Ġro ots
Ġmar r
ber y
Ġwhere upon
Ġany thing
Ġwar n
Ġhouse wife
Ġstr ings
Ġnight ing
ag ge
Ġcomp osed
Ġru d
Ġhead strong
Ġcha ri
Ġcha mbers
ret ty
AFF ORD
UL LUS
Ġhar lot
iss es
Ġend ing
Ġgl ow
me an
uck et
vil s
be fore
Ġco il
BER NARD
Ġsub mission
Ġneed le
ab out
ĠMAR CUS
ĠMAR IANA
Ġchan ging
Ġass ume
Ġpe ck
Ġlaw y
ours core
fort unate
Ġhapp en
Ġbo on
ĠRe gan
Ġreturn s
Ġden ial
Ġcomfort able
Ġwa its
Ġdef iance
itor ies
Ġpar ish
Ġpar agon
Ġfit ter
Ġgall ants
Ġperson al
ĠJul ies
Ġsur ly
Ġentreat ed
Ġentreat ies
An other
Ġspeech less
Ġbro ils
Ġgrie v
Ġfra ilty
Ġfam ine
Ġmal ady
Ġmal icious
Ġag ent
Ġcr utch
Ġfeed s
ĠHa ppy
Ġsn ake
Ġocc up
Ġwed lock
Ġhurt s
ĠMac d
ĠEx cellent
Ġele ment
ĠTit inius
Ġpage ant
mon ster
ĠLa urence
Ġarg uments
Ġdec ree
Ġdec rees
Ġga unt
Ġed uc
Ġmid st
Ġmid wife
Gentle men
Ġwicked ness
ĠAlex as
Ġproclaim ed
Com mand
Com mend
Ġbas er
Ġod ious
Ġslander ous
bra in
Ġmem or
Ġdet ain
Ġstart s
Ġschool master
att ling
Ġperil ous
Ġkins men
there fore
ĠAg rippa
Ġexam ine
ĠFair ies
ĠFr oth
ĠST AFFORD
ĠBar b
Ġghost s
ĠMen enius
ĠGR UMIO
ĠGR EMIO
Ġworthi ly
Ġwrest ling
De ath
col our
Ġambassad ors
Ġchid ing
Ġbud s
ĠBra b
ĠMerc utio
Ġdescend ed
Ġale house
Ġweal thy
Ġsequ el
Ġbol t
Ġfact ious
Ġslipp ery
Ġpi geons
Ġbragg art
ien na
Ġtren cher
ĠLOV ELL
ĠTha isa
whel m
ĠPhilipp i
Ġpatter n
ĠLuce tta
Ġadver tis
Ġvolunt ary
Ġterr itories
Ġwester n
ĠDuns inane
Ġomin ous
BERNARD O
B LANCH
C CO
H im
H arry
L e
N CAN
O CCO
R ather
R ONIUS
S ure
S omething
S MITH
U PH
U BAL
W inter
a it
c ies
c ont
e els
f ig
g les
g race
j ourn
k ers
m arried
n or
p la
p oor
s ur
s old
z es
¨ æ
ä ¹
ä ¼
å £
å ¸
å º
å »
å ī
å Ļ
å Ń
æ ±
æ ³
æ ĥ
æ Ĭ
æ ļ
ç Ļ
è ¹
è ħ
è Ĭ
Ġ ire
ķ ç
Ġt ack
Ġt ilt
Ġa th
Ġa ust
Ġs ess
in ence
in ty
Ġb iting
Ġf et
Ġf est
it a
it c
ĠI ll
ĠI ras
Ġc od
Ġd irt
Ġl ur
Ġl ass
Ġh ound
on ish
Ġn ick
Ġn urs
Ġp ard
Ġp edant
Ġp atricians
Ġth und
Ġof fered
Ġhe ath
Ġhe igh
ve ls
ot ect
st ant
Ġg ear
Ġg inger
ĠA f
ĠA dd
ĠT ar
ĠT ew
le ar
ĠS ister
ĠS imon
ĠS upp
Ġme l
ĠW ear
ent ly
ĠH all
ĠH oly
ĠH UBERT
ĠH alf
ter ing
Ġhis s
Ġst em
Ġst ark
ĠB URGUNDY
al o
al ms
ĠC ent
ĠM ENAS
Ġli ked
AR NARD
ĠE ROS
ould y
ĠP ers
ĠP OLIXENES
ĠP EMBROKE
ĠL ast
ĠL ORENZO
if ully
Ġse vere
ĠG any
ĠG rand
il ess
ru de
Ġsp ed
Ġsp here
Ġsp rite
Ġsp arrow
Ġkn eels
art ar
Ġv at
Ġv ac
ĠD ick
ĠD ieu
Ġman sion
Ġsh illings
OR IDA
ĠR aven
ul a
ul f
ath y
em broke
ĠV ienna
ol ve
ĠTh ine
um ing
od est
Ġj ack
Ġj aws
ere ly
Ġsa le
Ġun mannerly
Ġmad ame
Ġmad men
Ġdis hes
Ġdis semble
un is
Ġpro bable
Ġtru est
Ġpo ll
Ġpo le
ff ic
ff rey
Ġhow ling
Ġey ne
Ġpl ate
ave d
Ġen s
ign e
erv ation
Ġra ges
CH ORIDA
Ġri ve
Ġper use
Ġsc ale
ĠĠĠĠĠĠĠĠĠĠĠĠĠĠĠĠĠĠĠĠĠĠĠĠĠĠĠĠĠĠĠĠ ĠĠĠĠĠĠĠĠĠĠĠĠĠ
DU NCAN
che st
Ġcomp el
Ġcha nt
Ġcha ff
Ġcha sed
ks bury
Ġcont ains
Ġcont rad
Ġlong s
ĠMar y
Ġta wny
ID EN
Ġsm iled
Ġqueen s
be ing
Ġsle nder
Ġco pe
This be
Ġpre late
ĠPr oud
Ġdra ught
Ġdisc overed
Ġimp ortune
ont es
Ġjust ify
Ġmis led
Ġmis fortune
Ġmis doubt
bl ind
ham pton
pen ny
Ġfar m
ENT IDIUS
Ġadv antages
vers y
ap olis
Ġden ies
Ġjud ged
ADR IAN
Ġdist raction
Ġsin ful
sh ine
Ġuncle an
Ġair y
ĠAR CHBISHOP
Ġmurd ers
Ġmurd ered
Ġcho ked
Ġbar ber
Ġem ulation
Ġact ors
BE VIS
Ġord ain
Ġinc est
ub al
ub ber
Ġvis ited
Ġplain ness
Ġentreat y
ĠPer d
Ġsport s
Ġow ed
Ġunt h
med e
Ġdeliver ance
Pro ceed
Ġwild er
Ġadd er
Ġwitness es
Ġrel ief
Ġlabour ing
Ġwood s
Ġforsw ore
Ġsteal ing
Ġpoison ous
Ġmeasure d
Ġround ly
Her ald
Ġdri ves
ĠBel ike
Ġwhi pping
Ġtor ments
ĠBrit on
cha s
ĠSal ique
Ġrequest s
Ġref used
Ġdeg enerate
ĠSp ir
Ġcorn ets
Ġutter ly
isho ps
Com es
Ġsix pence
Ġdamn able
ĠGe ffrey
Ġsolemn ity
Ġconj unction
Ġexpress ly
En ough
Ġcircum stances
Ġwont ed
Ġsal ve
Ġreward s
ĠCo b
can not
ĠMusic ian
Ġcam ps
Ġing en
Ġrhy mes
Ġfro zen
Ġprefer ment
Ġresc ued
Ġfart hest
Ġtest ament
ĠGreek ish
Ġwink ing
Ġshrewd ly
Ġobserv ation
Ġglo be
Keep er
Ġsine w
hance llor
Ġcholer ic
ĠBra ve
Ġincen se
Ġoverth rown
ĠBO YET
ĠOli ver
Ġcomplaint s
Ġapprehend ed
Ġrev ive
Ġappla ud
Ġappoint ment
Ġplan et
chor ida
Ġaccord ingly
Ġpul se
ĠADR IANO
Ġpuiss ance
Ġappea red
Ġplent eous
Ġclam orous
Ġwhist le
Ġmor sel
Ġrum our
Ġcontag ious
Jo hn
Wor thy
fa vour
ĠPent apolis
Ġigno ble
ĠBell ario
Sur veyor
Ġtow ers
ĠES CALUS
ĠPoly d
spur gh
Ġdungh ill
ĠMessal a
ĠGonz alo
ĠCole vile
Ġnort hern
ĠMacd uff
UPH RONIUS
ĠTew ksbury
ARNARD INE
ĠGany mede
ĠRaven spurgh
G aoler
L a
L y
L ea
M arch
M aking
O pen
P ri
S e
S en
T en
T YBALT
W ife
W arwick
a ces
b ea
b od
b lown
b reak
b earer
c ond
d ame
d aughter
e ce
f ire
f air
l ow
m ad
n ows
o es
o vers
p ardon
p ray
s erv
y ally
å ¦
å ĩ
å Ķ
å Ľ
æ £
æ °
æ ´
æ Ĩ
æ ı
ç ¥
è ·
é ¤
Ġt ink
Ġa ctor
in ies
Ġw ight
Ġw ins
Ġb au
Ġb udge
or ic
ll a
Ġf ourscore
Ġo y
Ġc ow
Ġc ater
Ġc ousins
Ġd on
Ġd om
Ġd war
Ġl ux
Ġth ra
Ġhe arers
st asy
Ġg ulf
ĠA c
Ġbe est
Ġbe llow
ĠT ush
ĠT akes
ĠT unis
ĠT ubal
ir gin
ĠS am
ĠS und
Ġme asures
ill ed
ke ys
ĠH aply
Ġst ings
ad ing
ĠB AL
ĠB RA
ĠB IRON
ĠB ORACHIO
ĠB etwixt
ĠC in
ĠC ad
ĠC ur
ĠC ont
ĠC AMILLO
ĠC ontent
ĠM oonshine
Ġli vers
AR TIUS
ore s
ro be
ĠE mb
ĠP h
ĠL ives
ĠL ARTIUS
ĠO S
am ity
ĠF ree
ĠF idele
Ġher b
Ġde mean
Ġlo ins
Ġsp ies
Ġfa c
ear ing
Ġkn ell
Ġv ices
Ġsh in
Ġsh ining
OR Y
ive ly
ĠR OM
ind eed
Ġcon ject
ong ue
Ġsw an
Ġsw ine
Ġca lend
Ġca bin
Ġcan on
ĠV ouchsafe
ol ved
Ġar ri
Ġbr at
reat ion
Ġun st
Ġun born
Ġun quiet
Ġmust ard
all el
oy al
Ġpl otted
urn ish
ful ness
ĠAs k
Ġen join
Ġex a
Ġex hi
Ġex act
igh bour
li ps
ead le
Ġcomm ence
ĠĠĠĠĠĠĠĠĠĠĠĠĠĠĠĠĠĠĠĠĠĠĠĠĠĠĠĠĠĠĠĠ ĠĠĠĠĠĠĠĠĠĠĠĠ
Ġfl inty
che on
op s
Ġcomp ulsion
ci ble
Ġcont rived
Ġpur ity
ĠMar ia
ĠOf t
ĠU se
He ctor
Ġgl ories
Ġbra ver
ĠAnt ium
Ġch oo
Ġconf used
Ġconf ines
Ġpre poster
Ġpass ages
Ġpresent s
Ġdra gon
Ġpri zed
ab les
Ġret ires
Ġdisc ern
Ġsleep y
Ġstate ly
ĠRe ceive
Ġgr in
Ġgr ate
Ġbreath less
Ġdan ces
Ġgre asy
Ġfree ze
Ġmarry ing
Ġcry stal
sh ow
Ġaff air
Ġcontent ion
Ġeat ing
Ġopen ing
Ġord in
ĠCh orus
Ġpret ence
Ġbegg ing
empt ion
ĠPl uck
Ġmot ley
ĠChrist ians
Ġcase ment
Ġjo lly
Ġadm ittance
Ġve he
Ġve il
Ġrel ation
ĠLove ll
Ġcross es
sp ired
Ġeffect ed
Ġsn ail
Ġsn uff
Ġcap ital
EG ORY
ĠEx c
ĠEx cept
Ġknock ing
Ġur ging
Ġinj ustice
Ġbeggar ly
Ġexpect ed
Ġrare ly
Ġtrans g
Ġremain der
ĠAm az
Ġsong s
Ġrevere nt
Ġcompan ies
Ġimport ant
Ġbas est
ĠHeaven s
Ġreign s
Ġport s
Ġmeant ime
Ġbef its
ees e
ĠRO DERIGO
Ġchief ly
Ġtriumph s
oler able
Ġroot ed
Ex cept
Ġdeter min
Bes eech
ĠMusic ians
Ġcompass ion
ĠMen as
Ġprefer r
Ġlin ea
Ġstream s
Ġvex ation
Ad ieu
Ġmult it
Ġdiss ension
Ġev idence
ĠApp ear
ĠApp roach
Ġperfection s
Ġbread th
Ġrust y
aug han
Ġmag ist
Ġgrat is
ĠHy men
Ġdem i
Ġcontro versy
Ġcounse ll
keep er
Ġstrang eness
ĠRead y
Ġunl uck
hast e
Ġgird le
Ġgap ing
Ġorn aments
Ġstum ble
Ġdil igence
Ġdisper se
Ġcas es
Ġgn aw
Ġobsc ure
Acc ording
Ġconfeder ates
Ġtal ents
Ġdroop ing
Ġconspir acy
Ġcontinu ance
Ret urn
ĠGON ERIL
Ġstink ing
ĠTyr rel
Ġindust ry
Ġeloqu ence
Ġrehear se
Ġwheres oe
mind ed
Ġdisloy al
ĠALEX AS
enown ed
ĠYor ks
Ġeduc ation
ĠBrab ant
stant ial
ĠROM EO
B UR
B reak
B etwixt
C ET
C ont
C LEOMENES
D own
D ead
D isc
F ive
F ROTH
G u
G ives
L ead
N ER
O h
O URS
P ar
P ING
P atience
P ETO
R S
S aw
S ub
S ext
S upp
T S
T UBAL
V EL
W h
W AT
W HITMORE
Z WAT
c at
c ertain
c laim
e res
e king
g est
g age
g own
i ber
i by
l ord
l ie
n one
p ipe
v ation
w en
¥ ç
¨ ç
¬ ç
å Ĥ
å ĳ
æ Ĳ
æ ķ
æ Ĺ
æ Ń
ç ¾
ç ī
ç ŀ
è ¡
è Ĩ
è Į
è ĳ
è Ń
é ħ
Ġ ou
Ġ il
Ġ --
ī ç
Ġt e
Ġt u
he ath
Ġs ter
in and
re ath
Ġw ren
Ġw hale
Ġb ows
er ate
er ning
ĠĠĠĠ ĠĠĠ
Ġf ard
Ġc ords
Ġd aint
Ġd uck
Ġd uteous
Ġl ing
Ġl itter
Ġh ilt
Ġp ru
Ġp ious
Ġp el
Ġp ig
Ġp ins
Ġp owder
an other
an ger
an ied
st ool
Ġg lean
Ġg asp
ĠA gin
ĠA quit
Ġbe et
Ġin qu
ĠT ur
Ġha ven
Ġha unts
et ition
ĠS ail
ĠS ATURNINUS
im ber
ĠW ife
ĠW atch
ĠW ILLIAM
oo re
Ġe xeunt
Ġe cho
Ġwe b
ĠH ol
ĠH igh
ĠH op
ĠH onour
ĠH onest
ĠH untsman
ra ment
Ġk itc
Ġst aves
as hes
as phe
ĠB AN
ĠB ury
ĠC er
ĠC old
ĠC ADE
ĠC ERIMON
ly ing
ĠM ount
ĠM ouldy
ĠM oore
AR VEL
ver t
ro se
ĠE ARL
ĠP re
ĠP ir
ĠP rom
ĠP ATROCLUS
ĠP embroke
ĠL art
ĠL ist
ĠL AB
ĠL ONGAVILLE
ĠL OST
ĠO ther
ĠO ber
us hy
est s
ĠN ame
AN G
ous y
ĠF IT
ĠF erd
Ġher bs
Ġde pose
Ġde form
Ġde formed
Ġno st
Ġno dd
Ġan at
Ġan im
th ings
ER V
ER IO
Ġse ed
il is
Ġsp ear
Ġsp ots
Ġsp aniel
ard ener
ĠD or
ĠD ion
ĠD OL
ĠD UM
ĠD IANA
ĠD isc
Ġsh outs
Ġup ward
Ġcom ment
Ġcom edy
Ġwhe at
ĠR atcliff
Ġthere upon
pp ily
Ġhat ches
ĠTo gether
ĠV irtue
Ġar row
Ġar gues
Ġbr ine
ig gard
Ġj et
Ġj ars
Ġsa vours
Ġun arm
Ġun civil
ĠJ ac
ĠJ ESSICA
AT ILL
Ġpro gen
Ġspeak er
Ġma p
Ġpl od
ĠK ill
Ġab ility
Ġab ode
ĠFor bear
Ġhea ve
As s
Ġen suing
ign ed
Ġdes erv
Ġbre w
Ġra pt
Ġra rest
Ġra iling
PH IS
ouse d
CH ID
TH ALIARD
Ġri pen
eed s
Ġtr ot
AM US
Ġsweet s
Ġwit hered
op led
aint s
Ġhar p
Ġpur ged
ĠCa pt
ĠU RS
Ġrep ro
Ġrep ute
Ġrep uted
Ġend ow
Ġtra gedy
Ġtra ffic
Ġlive ly
Ġlie u
Ġhigh way
eas y
Ġfort night
Ġcourt s
Ġcourt iers
be ians
Ġch ides
Ġdear th
Ġpre cept
Ġkind le
Ġgri pe
Ġcount ed
Ġafter ward
Ġhope ful
ab lish
ab ella
Ġhum bl
Ġchan nel
Ġass ail
Be yond
ROM ACH
Ġjust ices
Ġsea led
Ġmo ist
Ġlay ing
ap es
Ġunc les
Ġcommand er
Ġcommand ing
Ġsend ing
Ġfore go
Ġspo ils
Ġhard er
Ġaw ful
sc ore
Ġdist ressed
Ġinf ants
Ġcar p
sh ill
ran mer
ĠAR THUR
Ġdam es
ĠAr den
Ġrec reation
Ġbar r
ceed ing
Ġgar ter
ĠVen et
Ġprof an
pher ds
Ġwoo er
ĠWould st
Ġinc ontin
av ish
Ġdev out
Ġext ort
over n
Ġconst ruction
Ġmoon light
Ġred emption
Ġscar let
Ġinter cept
Ġdish on
Ġcommend able
Ġtent h
Ġcheer fully
Ġeas ier
Ġacqu it
Ġseas ons
Ġform al
Ġproceed ed
Ġwood en
Ġlan tern
ĠLe ontes
Ġbreast s
Ġbreat hes
EG LAMOUR
Ġchurch yard
Ġdu ly
con f
EPH EN
Ġcarry ing
Ġbitter ly
Ġsac rament
Ġarg os
Ġdec la
Ġdec reed
Ġclaim s
Ġgent ler
ĠInd ian
Ġpet tic
Ġver ity
Gentle woman
Ġcorn ers
ĠQu ince
Com m
Ġglass es
Ġamaz e
Ġbas ilis
Ġfond ly
ĠEp id
Ġbuck ram
Ġhunt s
Ġlament ation
Ġdoom s
ĠTH ESEUS
ĠTH AISA
ĠPRIN CESS
ĠPet o
ĠPet ition
Ġapart ment
Ex cellent
ĠSAL ARINO
Ġearnest ly
Ġmil itary
Ġdisdain ful
Ġextrem est
Ġleng then
ĠST EPHEN
ĠCal chas
Ġheav ily
rs ula
port ion
ib el
Ġlin eal
Ġcler gy
Ġmurderer s
Ġnice ly
Ġrash ness
Ġwax en
ĠCOR N
Ġclim ate
Ġexped ient
Ġmart ial
Ġvol ume
Ġmisc arried
Ġcommonw eal
Ġcla pp
Ġdukedom s
Ġcontract ed
Ġcoron et
Qu ick
col oured
Ġbag s
Ġado pt
Ġgru dge
EB LE
ALEX ANDER
ĠBO ULT
Ġdem onst
Ġmould ed
ĠAU FIDIUS
ĠMEN ELAUS
Ġspect acle
ĠFL UELLEN
PR OLOGUE
Ġtar get
Ġcord ial
Ġnun cle
Ġsugg estion
Ġinterp re
Ġinterp ret
unch ient
ĠHERM IONE
Ġobsc ured
Ġinfl u
Ġpuiss ant
ĠBASS ANIO
Read y
Ġthorough ly
Ġmoons hine
Ġwrang ling
Ġsymp athy
Adv ancing
Fal staff
Ġentra ils
ĠSaturn ine
ĠMarian a
Ġprett iest
ĠTitan ia
Ġgames ter
Ġwhel p
Ġimit ate
Ġstratage m
ĠAmb assad
ĠBret agne
Ġdistin ction
Ġattorn ey
ĠAw ake
ĠPR OLOGUE
ĠDun can
ĠConst ance
Ġwip ed
Ġham mer
ĠHOR ATIO
Ġtrav ail
Ġcurts y
Ġcott age
Ġswing ed
ĠVent idius
Ġthund ers
ĠSimon ides
ĠPerd ita
BUR ES
CET AS
PING HAM
ZWAT ER
ĠAgin court
ĠAquit aine
ĠBAN QUO
ARVEL ING
ĠLart ius
ĠLAB OURS
ĠOber on
ĠFIT ZWATER
ĠFerd inand
ĠJac ob
ATILL ON
CHID AMUS
ROMACH E
' --
A chilles
A mong
E ver
E very
E mb
J ove
K night
N ALD
P res
S ONG
T ush
V INIA
a che
a iled
b asket
c ounter
d id
d rink
e very
f end
f riend
g or
g ation
g otten
h u
h ors
i ally
l am
l ant
l ves
n ance
p ter
r ine
r ook
r ide
r ings
r ons
s y
t est
t own
t alk
t rue
v is
v als
v aunt
w al
w ho
w ark
± ç
¸ ç
ä ¾
å ´
å ģ
å Ĩ
å Į
å ľ
å Ŀ
æ ¢
æ ¼
æ ĳ
è £
è º
è ¼
è Ģ
è ı
İ ç
Ġt ough
Ġt rop
in to
re th
Ġb it
Ġb ower
Ġb alls
is ome
er fl
er look
or ate
Ġf ust
Ġf itting
Ġo o
it imate
es y
Ġd ar
Ġd astard
Ġd aggers
Ġy o
Ġl ect
Ġl ascivious
Ġl ousy
on ed
on ius
Ġn earest
Ġn iggard
ar ce
ar ms
Ġp ho
Ġp ag
Ġp ip
Ġhe n
Ġhe res
om b
Ġg ay
Ġg out
Ġg em
at ory
Ġbe ck
Ġin spired
se em
Ġha y
ĠS out
ĠS inging
Ġme chan
ch ool
ch ild
ĠW r
ĠW it
ĠW oe
oo ch
ĠH oll
ra de
Ġk ick
Ġst are
Ġst alk
Ġst ored
ĠB urn
ĠB alt
ĠB ishop
ĠB ecomes
ĠC ranmer
ĠM ed
ĠM art
ĠM IRANDA
ĠM ECAENAS
ur bs
ro ps
ĠP atri
ĠP edant
ĠL ed
ĠL od
ĠO wen
ĠF it
ĠF ort
ĠF ellow
Ġde ity
Ġde ject
if ies
th us
Ġse iz
Ġlo g
il ities
Ġsp otted
Ġfa ils
ho d
ĠD ec
ĠD iv
ĠD irect
Ġsh ru
Ġat one
ĠR el
ĠR UGBY
Ġcon ception
Ġwas p
Ġthere withal
Ġsw agge
Ġbl asted
Ġca per
ĠV aughan
Ġun e
Ġun fortunate
Ġho gs
ĠJ e
Ġgra ft
LA VINIA
Ġheart y
Ġma ce
Ġro yally
Ġpl at
Ġab b
Ġbet ide
Ġbet roth
Ġen ow
Ġen roll
Ġex empt
Ġday light
per ation
Ġear ls
Ġper plex
Ġwh ispers
Ġla b
Ġcl ub
Ġim pose
Ġim ages
Ġcha fed
ĠSo othsayer
ĠIs is
Ġrem ed
ĠU rsula
Ġgl ut
Ġgl ister
Ġgl itter
Ġtra sh
Ġind irect
Ġsle eves
Ġrest rain
Ġco ven
Ġconf lict
ac on
Ġface d
Ġres idence
Ġsub urbs
Ġover come
Ġover heard
Ġseem eth
Ġchan ced
ĠGo vern
tw een
Ġdisc reet
Ġlight ed
Where of
Ġmaid ens
gu ard
GR EGORY
Ġsun s
ener al
Ġthrough ly
Ġstra it
ĠSh ore
Ġcast les
Ġgener ous
Ġmusic ians
Ġint olerable
Ġdream t
erer s
ĠAr ise
Ġbat ed
Ġfit ness
Ġprof its
Ġenter ing
Ġest ates
Ġinc ur
Ġvis or
Ġpen et
ĠCor poral
ask ets
Ġstraight way
Ġext em
Ġwalk ed
Ġconst rain
pl ay
Ġsoldiers hip
Ġcle ave
Pro ve
Ġmod ern
Ġmod erate
Ġwild ness
Ġbond man
Ġfra ught
Ġid iot
Ġfam ed
Ġfashi ons
Ġcommend ed
Ġcommend ation
Ġang le
Ġorder ly
Ġmist aking
Ġmist aken
ĠSc ots
sp otted
Ġob d
ĠSee ing
Ġlan ces
Ġlan thorn
ĠMurderer s
wor ld
Ġconsent ed
ĠSil vius
Ġdrown ing
Ġwisdom s
ĠFal se
Ġda unt
Ġwhore s
Ġpain ful
Ġdemand ed
Ġga ol
Ġchast isement
Ġcatch ing
Ġdeal ing
Ġusur per
Ġutter ance
Ġtrib une
Ġwretched ness
Ġconquer ing
Ġimag ined
Ġcost ly
Ġconc erning
Ġbuck le
fl ies
Ġrid ing
Ġparticul ars
Ġguilt iness
Ġtyrant s
Ġlen ity
val iant
Ġsmell s
Ġdisple ased
Ġaffect s
Ġallow ed
Ġpack ing
Ġpack et
Ġeng ine
mong er
Ġforfeit ure
Ġbuild ing
Ġadvance ment
ĠFri ends
Ġslight ly
ĠLo ves
Ġpier cing
Ġpil ot
Ġdot age
Ġcreep ing
Ġgarland s
ĠMe antime
than k
Ġbag gage
Ġabhor r
ĠSat an
Ġtap ers
Ġshri ek
Ġbru ised
Ġcoll ected
Ġrece ives
Ġendea vours
Ġcal amity
Ġperf ume
Ġperf umed
Ġgrat ify
ĠPlay er
orp entine
gentle man
ĠFL ORIZEL
Ġplan ets
Ġbragg ing
Ġtroubles ome
Ġfantast ic
Ġflatterer s
Ġviz ards
Ġpred omin
Ġperd ition
Ġcompar ison
Ġceremon ies
ĠSy ria
Ġconvers ation
Ġec stasy
Ġinfer ior
might y
Ġwid ows
Ġpir ate
Ġvap our
ĠDu chess
Ġdiso bedience
Ġreconci le
mod ated
Ġgorge ous
Ġdoct rine
Ġunwill ing
Ġpopul ar
ĠCH IRON
Ġostent ation
Ġescap ed
Ġpupp et
Ġmalign ant
ĠCAL IBAN
ĠEsc alus
ĠGad shill
Ġnighting ale
Ġoccup ation
ĠBarb ary
Ġingen ious
Ġbau ble
Ġoy ster
ĠSund ay
ĠBAL THASAR
Ġcalend ar
ĠYorks hire
Sext on
ĠDUM AIN
NALD O
Ġpho enix
B ON
B OLINGBROKE
B ATES
B ARNARDINE
C ontent
C ourage
C hancellor
E VILE
F ortune
F ANG
I VERS
K nock
M eet
M ARDIAN
N ature
P EED
R o
S omet
S uff
S EED
S pir
S NOUT
T ARD
b i
b u
b ee
b red
b lack
c al
c ary
d ow
d ling
g artered
h ouses
l ph
m uch
m ercy
o cc
p ill
p end
p ired
r mid
s pect
t e
u ity
w reck
z a
¡ ç
· ç
å ¨
å Ĭ
å Ł
æ ¨
æ ®
æ ¶
æ ¿
æ ĩ
æ Į
æ Ŀ
è ±
è ¸
è ģ
è Ľ
è ľ
é ¡
é Į
Ġ ess
Ġt ha
Ġt ang
he et
Ġa pr
Ġs ly
in her
in able
Ġm ire
Ġm ater
Ġw and
ha ge
nd ers
Ġb ree
Ġb oughs
is er
er whelm
Ġf el
Ġf itt
Ġf law
Ġf isher
Ġf etter
en u
it us
it ious
ĠI nt
ĠI ach
Ġc ri
Ġc ust
Ġc ert
Ġc ows
Ġc ures
Ġd ub
Ġd urance
Ġl ump
Ġh its
Ġh ip
Ġh oop
Ġh ired
Ġn ations
ar ily
Ġp ith
Ġp ry
Ġp ile
an iard
Ġg ore
Ġg eese
at hi
at ched
ĠA li
ĠA ug
ĠA ARON
Ġbe e
Ġbe es
Ġin ve
ĠT HE
ĠT RINCULO
ĠT AMORA
ĠT rip
ĠT artar
ce t
ce ives
ce iving
ay ing
ĠS ub
ĠS CARUS
ĠS PEED
ut ting
Ġme llow
ith field
Ġis sues
ĠW art
ĠW ast
ĠW ol
ĠW alk
ĠW omen
ke ley
Ġe ke
Ġe xit
ent ed
Ġit ch
Ġst ealth
ĠB u
ĠB and
ĠB ase
ĠB ert
ĠB IGOT
ĠB eadle
ĠB ushy
ĠC ra
ĠC ON
ĠC ond
ĠC onstable
ĠM el
ĠM ARDIAN
ĠM ICHAEL
Ġas pir
Ġli ck
AR CHIDAMUS
ver ing
ur ate
US TARD
ĠE le
ĠP e
ĠP lace
ain ing
ĠL ight
ĠL ic
ĠL ud
us picious
Ġsha king
est ic
ĠF our
ĠF ee
ĠF ab
ĠF ates
ĠF alls
ĠF LAVIUS
ĠF ENTON
Ġher mit
Ġsu lph
Ġse w
Ġse ct
ĠG old
Ġlo ses
il est
il ogue
ru ms
Ġsp heres
Ġkn ots
art hage
ĠD ie
ĠD IONYZA
ĠD utch
ĠD ispatch
qu ainted
end er
Ġmu m
Ġpr anks
Ġpr attle
ĠR est
ĠR um
ĠR IVERS
Ġgo ver
Ġgo ats
ic ial
ven al
ven ged
Ġsw ays
ure rs
Ġbl ister
Ġbl ade
Ġbl ots
Ġbl asphe
Ġca u
Ġor b
Ġor ation
fe ren
Ġhere tic
Ġus urer
la c
ĠTh under
Ġbr ood
Ġj ig
Ġr ides
Ġun look
ĠWhat e
Ġho ar
un ct
unt o
Ġpart ial
orn er
Ġma im
man y
Ġ1 3
oy s
ĠK ind
Ġab ound
Ġab uses
ber d
ber ry
Ġhea ved
AND ON
Ġtw in
Ġhear ken
Ġra m
Ġgentle women
Ġwr ote
Ġri val
Ġcomm otion
Ġwar y
Ġper sever
Ġad orn
Ġsc ald
For bear
AM BRIDGE
Ġapp ell
ĠBe yond
cc ess
Ġru les
Ġcl out
Ġcl ime
ci bi
Ġgrace ful
Ġhar ness
Ġpur sues
Ġrem n
atch ing
Ġrep lied
Ġrep etition
Ġgl im
Ġbra ke
Ġtra ct
Ġind irectly
Ġta unts
UR BON
Ġfollow er
Ġsm ock
Ġcourt ship
be gotten
Ġcons pire
Ġco g
Ġco als
Ġco pper
Ġconf isc
Ġshow ing
Ġshow ed
Ġstay ing
Ġstay ed
Ġpre rog
Ġtri be
Ġvir gins
ĠPr inces
Ġpal ate
LUC E
Ġover t
Ġthree fold
cl asp
Ġbes iege
Ġea gles
Ġimp ression
Ġlight ness
Ġmis pr
ĠNor way
ĠBr istol
ĠAl cibi
ham es
AV ENNY
Ġadv ocate
Ġban ners
Ġsun shine
Ġspirit ual
Ġbreath s
RUT LAND
rest ed
Ġread s
Ġtalk ed
Ġwant ed
Ġtem poral
Ġmet hod
com m
Ġsupp ress
Ġsupp li
CA PHIS
Ġdist inguish
Ġwin ters
Ġmusic al
lo is
Ġbri ers
Ġcar ve
Ġcar ved
Ġdream ing
Ġpar adise
ĠAr my
Ġdisp raise
Ġcho p
Ġsk irm
ĠPro d
Ġgall ed
Ġmin es
Ġopen ly
Ġwoo ers
Ġrequ ital
Ġdiv inity
Ġinc orp
Ġconfess or
Ġfast en
Ġsur ge
with out
pr ince
Ġext enu
FE EBLE
An y
Ġconst raint
Al most
Ġharm ful
pl ished
Ġund es
Ġclose ly
ip otent
Ġopp osition
Ġreg ions
Ġreg iment
Ġcle ft
Ġmount ing
ĠLUC IANA
Ġbro ker
Ġworship s
Ġdark ly
Ġadm ire
Ġrel ate
Ġrel ieved
Ġenc ount
Ġcheer ly
Ġlim ed
Ġran ge
MOR OCCO
Ġcr ime
set tled
sp o
sp ring
su pp
ĠJew ry
Un cle
Ġjudge ment
BASS ET
BASS IANUS
ĠHelen us
EG EUS
GU E
Ġchurch man
Ġquiet ly
Ġcounter po
Ġvi ands
Ġbitter ness
Ġqual ify
Ġmut inous
iv al
iv ant
ĠAnton ius
ĠInd ia
ĠInd uction
Ġes quire
Ġrememb ered
Ġleg ate
Ġpun ished
Ġequ ally
Ġswift ly
par able
Ġver d
Ġcourage ous
Ġgreet ings
ĠQu ite
Ġthreat ens
ĠGre cians
Ġmonst ers
bb o
Ġimag inary
Ġsolemn ly
bra s
Ġbef al
Ġunha llow
ĠTH ERSITES
ĠBl ood
Ġfirm ly
Pr ince
Pr oud
him self
Ġallow ance
bear d
Ġcher ub
Ġfurn ished
tern al
Ġprophe cies
Ġaud acious
ĠWilt shire
Ġincl ine
Ġcomplex ions
Ġmischief s
ĠST EPHANO
Ġfun ctions
Ġavo ided
Ġsy n
ĠFri end
ĠCOR IN
Ġmass ac
run es
Ġcoff er
Ġwrest le
Ġbull ets
zz led
Bel ike
Ġpenny worth
Ġhelm et
ĠCons ider
ĠCons pir
ĠAE d
Ġadvers ity
Ġadvers ary
Ġbrace let
French man
ĠBlack heath
Ġdecl ined
Ġox en
keep ing
ĠKnight s
Ġdiscipl ines
ĠROSAL INE
Ġspect acles
Ġpi kes
Ġtim eless
Ġfrost y
ĠPhil ario
Ġfrank ly
Ġphilosop her
Ġviz ard
Ġaccomp lish
Ġaccomp anied
bol t
ĠBer keley
Ġblaz e
LAM INIUS
Ġcompar isons
ĠSy cor
Ġmajest ical
ĠProc laim
amn um
Ġsham eless
ĠField s
Ġsymp athi
tong ued
Ġpir ates
ĠDu kes
Ġju venal
Ġreconci led
Ġcro pp
Ġimpud ent
Ġtransport ed
Gl oucester
Ġded icate
Ġmuff led
Ġtrag ic
Ġspar ks
Ġvio lets
Ġmagn anim
ĠSyracus ian
Ġparch ment
Sic ilius
othe cary
Ġworshi pp
Ġinsult ing
Ġfres her
ĠChat illon
athan iel
ĠDER BY
Ġrad iant
Ġcu ps
ĠEl bow
Ġpard ons
ĠCent aur
igne ur
Ġwilder ness
ĠOS WALD
Ġordin ance
ĠExc ursions
Ġtransg ression
Ġmultit udes
ĠURS ULA
Ġdecla re
ĠEpid amnum
ĠIach imo
ĠAli ena
ĠBert ram
USTARD SEED
ĠLic io
ĠFee ble
ĠFab ian
ĠAlcibi ades
ĠSycor ax
A g
A ng
B ecomes
C hor
D ef
D iv
F our
F ri
G ave
H ealth
I m
J ack
M urd
O ft
P erchance
R un
S aint
T alk
V illain
W ear
a per
b at
b id
b een
b etween
c ass
c old
c rown
c ides
c und
d y
e pp
f al
f ly
f ull
g ans
h ot
h orn
h onest
i pping
j ustice
l ore
l est
l ust
m ar
m ir
m ast
n is
n ay
n al
o h
p res
p hant
p oint
p oke
r ather
s la
s uck
s uch
t ha
t ill
t ri
u ccess
v ise
v illain
v iors
w ink
y ear
z ing
å ¡
å ¢
æ ¯
æ »
æ ½
æ Ł
ç Ĳ
ç ľ
ç Ŀ
è ¶
è ĭ
è Ķ
è Ļ
é £
é ©
é »
é Ī
é ĳ
Ĵ ç
Ġt is
Ġt ides
Ġt allow
Ġa ug
ou ches
Ġm ow
Ġm ent
re p
Ġw an
Ġw art
Ġb ale
Ġb ench
Ġb ourn
or m
Ġf ates
Ġo h
Ġo m
Ġc ard
Ġc ate
Ġd rench
Ġd ale
Ġd aff
Ġd irty
Ġd ressed
Ġl amp
Ġn our
Ġp ea
Ġto t
Ġto day
Ġto ads
Ġhe ro
st ones
st rels
ow ls
Ġg esture
at en
at isf
ĠA gain
ĠA ff
ĠA rab
ĠT hames
ce ll
le m
Ġha le
Ġha llow
Ġha lter
Ġha voc
ld st
ĠS ec
ĠW ant
Ġfor fend
ent imes
ĠH OL
ĠH ealth
id ity
id ered
ter ate
ra ight
ra ign
ra ught
ra cing
Ġk ite
Ġk ites
Ġst ag
Ġst eer
ad el
ri ous
ri ft
ri eve
ĠB rief
Ġre alms
ĠC ain
ĠC ertain
ĠC RANMER
ĠC URIO
ĠC arthage
ĠM ad
ĠE ar
ĠE nt
ĠE xec
ĠP oint
Ġdo it
Ġdo ves
ĠL ENN
ĠThe e
ess es
ĠN YM
ĠN athaniel
ĠF oul
Ġsu ed
Ġse xton
ĠG ave
ĠG ert
Ġsp ices
Ġfa v
ear ch
Ġkn ives
Ġv a
Ġv est
Ġv ary
Ġv ale
Ġv icious
Ġv aunt
ho lesome
han ging
rom ise
ĠD ull
qu aint
qu estion
Ġam iable
out hed
ĠR ise
ĠR EGAN
Ġcon ceived
Ġshe athe
Ġshe pherds
Ġcan n
em ents
em inate
Ġor gan
Ġor gans
ep s
ĠTh rice
Ġbr ooch
Ġqu ill
Ġqu art
ig hed
Ġr ises
Ġun ity
Ġun rest
Ġdis su
Ġdis pense
Ġout run
Ġpro pose
Ġgra pple
Ġpo ckets
Th ings
Ġhow soever
Ġpl um
Ġpl ume
Ġab ate
Ġab ides
ber ate
ber ries
Ġhea ps
Ġwhere by
ĠMy rmid
Ġbet ake
Ġex che
ec ame
ack s
Ġra mp
ak ers
Ġple beians
Ġri vals
Ġwar p
Ġfl ows
ĠBe gin
Ġbrother hood
ag n
Ġdown fall
Ġcha l
ert ake
Ġmight iest
Ġcont ri
Ġcont rive
os er
Ġrep rehend
Ġend less
Ġbra ved
Ġbra nds
Ġtra ce
Ġtra vels
int ed
Ġcons umed
Ġel ves
ĠWhen ce
Ġch uck
Ġtri p
Ġtri vial
Ġchar ter
Ġgi vest
ĠSt abs
Ġright eous
Ġche ques
ult ies
Ġbel ch
Ġover came
Ġseem ed
Ġret ain
Ġearth qu
Ġass ign
Ġthank fully
Ġimp osition
Ġsl oth
ĠNor mand
Ġlaw less
Ġhither to
Ġmer rier
ĠHer od
vere nd
Ġstri p
Ġhorse back
Ġstrong est
Ġfore see
Ġdare d
Ġoft entimes
Ġaw ry
Ġless on
Ġgre ase
Ġdoubt ed
Ġdraw ing
ial s
St rikes
Ġdef iled
Ġfoul er
Ġattend ance
Ġquick en
Ġsad dle
Ġcertain ty
Ġinf all
Ġcar cass
ues day
sh ot
Ġdep th
Ġdep ends
Ġpar cels
Ġsk ilful
Ġcut s
Ġmoney s
Ġground s
az z
az ed
Ġmock ed
Ġord nance
Ġinc onstant
ĠDe ce
ĠCor inth
gg ar
Ġsur v
ĠAd rian
Ġpu ppy
Ġquar re
Ġbase ly
pr oof
Ġprov ision
Ġwatch ing
ĠPer haps
Ġoffend s
Ġpluck ed
Ġcreat ion
Ġrevenge ful
Ġbro ach
Ġreb u
Ġjo cund
Ġsigh ing
REY NALDO
Ġliber ties
HUM E
Ġlim its
Ġthrow ing
ĠSen net
Ġpassion ate
Ġut tered
Ġwood cock
Ġbuy s
vo ke
Ġrob bery
Ġentertain ed
Ġblow ing
Ġsor ce
Ġsole ly
ĠLuc ifer
Ġda wn
Ġquiet ness
Ġfresh ly
Ġmanner ly
Ġshi pp
Ġvi per
Ġcred ulous
Ġamb ush
Ġbastard y
ĠTra in
Ġhumble d
Ġver ge
ĠLeon ine
ĠSp aniard
Ġutter most
Ġvent ures
Ġbend ed
Ġstuff ed
Ġphysic ians
Ġwanton ness
Ġrepent ance
Ġconc ord
Ġfaint ly
Ġhol es
Ġport ly
Ġport ion
Ġweigh s
Ġfle ece
ĠKnow ing
hum an
Ġmir acles
Ġmild ness
Ġborrow ed
Ġmelt ing
Ġdif ferent
we igh
Ġpict ures
ros sed
Ġobject s
Ġswell s
Ġconfirm ation
Ġing rateful
ĠDraw ing
Ġfing res
Ġder ive
Ġunw holesome
Ġintell ect
lic ation
ĠHence forth
ĠTr ans
Ġswallow ed
Ġwhisper ing
Ġgroan ing
hand ise
Ġwrest ler
zz le
Ġstick s
Ġdot es
Ġunse ason
Ġinnoc ency
Ġfil th
Ġplant ed
Ġhuman ity
Ġraven ous
Ġcurt ains
Ġir ons
Ġbon ny
Ġtrim m
Ġrouse d
Ġunjust ly
Ġbraw ling
Ġtremb les
ĠTrump et
Ġgoss ips
oun cing
Ġsed uced
Ġpeer less
Ġtim orous
Ġtea ches
Ġfeign ed
Ġinsol ent
Ġsand y
Ġspr ites
Ġtren ches
Ġvig il
Ġsumm ers
Ġdart s
Ġpor ridge
Ġceremon ious
Cla rence
ĠCorn wall
Ġthirst y
Ġupbra id
Ġju ice
aur us
cons cience
ĠBull calf
Ġunpro vided
Ġnymph s
Ġeff eminate
Ġcele br
ĠStran ge
Ġaut umn
mor ris
Ġlull aby
Ġlac key
Ġhypoc rite
ĠParthi a
Trump ets
ĠSomet ime
Ġeg gs
Ġchronic le
Ġgreyh ound
Ġlot tery
ĠTears heet
Ġswe ating
Ġforgiven ess
Ġextra ord
Ġdall iance
ĠEthi ope
ĠDol abella
Ġorphan s
Ġchari ot
Ġmel ody
ĠSam son
ĠCin na
ĠCad wal
ĠPh ry
Ġcounsell ors
Ġfard el
ĠSail ors
Ġkitc hen
Ġpettic oat
Ġplat form
Ġglitter ing
Ġobd urate
ĠAug ust
Ġincorp orate
Chor us
Murd er
fal se
ĠLENN OX
ĠGert rude
ĠNormand y
' ,
A Z
A UL
A dd
B L
B IN
B est
B IGOT
B AGOT
C hi
C old
D ie
D em
D rum
E UC
F etch
H um
H igh
I ll
J ust
L end
L ive
L ives
N ame
N ew
N UG
O d
O ver
O UL
P re
P art
P INCH
P ILO
R IS
R ich
S a
T y
T ra
T ouch
T each
U BL
V al
V ouchsafe
W rite
W EB
Y ield
Y OUNG
a i
b est
b ud
b ition
b ird
b rate
c as
c ur
c ils
d uke
d itary
d ealing
d ouble
e v
e ch
e ers
f ight
f ix
f ollow
g om
g ory
i ency
j urious
j ection
k ill
k eth
k nown
l in
m ate
m atic
n am
n ocks
o g
p re
p ot
p ast
r ation
r uth
r ated
r hus
s ho
s ers
s ium
s imple
t ish
t ale
t aking
t rans
t oric
u ge
v iew
w r
w ood
w hile
w ords
y za
z ab
ª ç
å ĥ
å ļ
å ł
æ ¡
æ ¾
æ ŀ
ç Ī
ç İ
ç ĸ
è »
è ¾
è Ħ
è į
è Ĺ
è Ŀ
é §
é Ĭ
é İ
é Ł
ı ç
Ł ç
Ġt il
Ġt ithe
he th
in bras
Ġm ature
re ction
Ġw age
Ġw are
is ander
er il
Ġf ickle
ĠI X
ĠI lion
Ġc uff
Ġc ran
Ġc lip
Ġc askets
Ġd us
Ġd itch
Ġy awn
Ġl our
Ġl oo
Ġh int
Ġh inds
on us
Ġn in
Ġn omin
Ġp au
Ġp ec
Ġp ang
Ġp ander
Ġth rees
Ġhe w
ot ha
Ġg ig
Ġg ud
Ġg amb
ĠA UTOLYCUS
Ġin cess
Ġin human
ĠT a
ĠT each
ĠT owards
ĠT uesday
le ave
et a
ay ed
ir nam
ĠS ent
ĠS ad
ĠS ly
ĠS au
ĠS its
ĠS outh
ĠS eem
ĠS ands
ĠS IMONIDES
ĠS NOUT
Ġis sued
ea pol
Ġfor ked
Ġe b
Ġe el
ent ious
ĠH ard
ĠH ung
ĠH ipp
id ge
ra v
Ġst able
Ġst ony
ĠB old
ĠB ack
ĠB een
ĠB UT
ĠB AGOT
ĠB irnam
Ġre ek
Ġre semb
Ġre semble
ĠC r
ĠC ha
ĠC ret
ĠC oe
ĠC eres
Ġso la
Ġso lace
ĠM or
ĠM as
ĠM ercy
ĠM ORTIMER
ĠE nd
ĠE ve
ĠP la
ĠP ERD
ĠP orter
ĠP ETO
ĠP yr
ĠO BERON
am is
am ps
ĠN ile
ĠF ast
ĠF AUL
and a
Ġno v
Ġse ats
Ġse eds
Ġall ies
ĠG en
ĠG ARDINER
ĠG racious
Ġsp ied
Ġsp right
Ġsp rung
Ġfa b
Ġkn avish
Ġv ag
Ġv ail
ho s
ard seed
ĠD ep
ĠD are
ĠD OGBERRY
ĠD uring
ĠD AUPHIN
ĠD AVY
ĠD aniel
ĠD ULL
Ġsh uff
qu a
qu in
Ġup per
Ġmu n
Ġmu le
ĠR ec
Ġgo at
Ġcon voy
EL UN
EL EUC
OL FE
Ġcan ary
Ġor ange
ĠV ERG
ol n
ol our
ond am
la id
Ġbr ist
pea ks
reat he
other s
RO BIN
Ġqu ondam
ig s
ig onus
Ġr ite
Ġr ider
Ġr idd
Ġsa ves
To gether
Ġun ho
Ġun pe
Ġun sc
Ġun even
Ġun advised
Ġun settled
LO SS
Ġmad cap
Ġdis aster
Ġdis closed
Ġdis fig
Ġdis inher
un cle
ARD O
Ġpro long
Ġpart ners
pe ius
Ġgra pes
Ġpo isons
Th ine
au nd
ist s
Ġ1 1
Ġ1 2
Ġsome body
Ġpl ess
ĠK illing
Ġmar ches
Ġmar iners
ber g
ber ds
AND ROMACHE
ust ering
Ġen com
Ġex amp
Ġex ternal
Ġhonour ably
Ġra pe
PH ILOSTRATE
li zab
CH AS
TH AZ
Ġple a
Ġfear fully
Ġri ots
Ġcomm un
Ġper used
Ġper ils
Ġpray ing
Ġsc ape
Ġsc once
Ġsc reech
For give
Ġwh irl
Ġhast ily
ĠIn st
Ġstr ing
Ġstr ide
ag ot
Ġru ler
Ġcl ubs
Ġpres umption
Ġpres ervation
Ġim min
led ged
Ġlong est
Ġhar t
Ġpur itan
Ġrem uneration
os ure
os ity
ĠU nt
Ġrep lete
Ġfind ing
for ward
Ġbest rid
mb ling
ĠAnt igonus
ĠWhere to
Ġsm elt
Ġcourt ly
AST OLFE
Ġpa ces
Ġco ach
ac ulate
Ġres pite
Ġanswer ing
Ġpass en
Ġcount ies
OB WEB
Ġpal aces
Ġelse where
Ġfaith s
Ġpri cket
ĠYour self
Ġover ween
Ġtre as
ab ility
Ġwrong fully
Ġbes et
Ġbes eem
ach io
Ġser geant
Ġearth y
tw enty
Ġbod e
Ġpra ising
Ġthank ed
Ġmon key
Ġdisc red
Ġdisc overs
ple asing
Ġtruth s
Ġsl ut
bl ossom
pect ing
pect ed
Ġsince re
Ġbu bble
Ġbo arded
Ġfe els
Ġhelp ing
Ġstri ves
Ġcare er
Ġunc ertain
Ġinst ances
Ġgr ind
ĠThan k
Ġroyal ties
Ġwish ing
Ġdru gs
Ġfore ster
Ġthrough out
Ġdraw er
Ġsupp lied
St ands
St eward
Ġwa ving
Ġfound ation
Ġattend ant
Ġsen ior
Ġsen net
Than k
Ġsuff ers
ĠThy self
Ġdist rust
Ġinf ring
Ġbri er
Ġbri be
Ġsin ister
Ġcar go
ran ge
ĠEnglish men
Ġtrust ing
Ġpar rot
Ġpar allel
Ġwound ing
Ġdel ays
Ġsk ip
Ġbar ons
Ġgall ery
Ġmin strels
CAL F
Ġact ive
Ġhell ish
ĠCom fort
Ġwoo es
ixt ure
Ġinc ision
Ġpen se
Ġemb ark
SAL ERIO
Ġchange ling
Ġdeli vers
Ġprov inces
Ġtraitor ous
Ġconst rue
Ġguard s
Ġdeny ing
Ġow est
ler k
Ġmurder ing
ang ling
Ġtrou bl
Pro claim
Ġmount s
ĠLUC ILIUS
Ġbro il
Ġadd ing
ĠPl uto
Ġsoft en
oly ta
ĠVer non
Ġinstru ctions
Ġdire ctions
Ġag ony
ĠPar liament
Ġexec ut
Ġlion ess
MOR TON
Ġsho ck
Ġpost ern
CON BRIDGE
Ġble eds
iff s
Ġsafe guard
Would st
Ġdepart ed
Ġseal s
Ġfine ly
ĠMac morris
EX TON
Ġshi pping
HOR NER
Ġvain ly
ĠSha ke
ĠVal iant
Ġwea ver
rent ford
ĠChi ld
Ġbeha viors
Ġauth ors
Ha ppy
Ġgross ness
Ġvan ities
Ġunf it
Ġinj urious
Ġins ide
Ġver ily
Ġembrace ments
EAS EB
Ġdeal t
Ġfail ing
Ġtrans late
ĠGre gory
Ġimport uned
aced on
Ġstain ed
Ġbas h
ĠSe vern
Ġconsider ation
ĠPo ison
Ġtail ors
Ġaim s
Ġfle a
ĠTH OMAS
ĠTH YREUS
Ġconvey ance
Ġclo ven
Ġfright s
ĠOCT AVIA
ĠLy chorida
Ġclot he
ĠSAL ANIO
Ġtemper ance
Ġmaintain ed
Ġung racious
Ġdif feren
Ġdig g
Bes hrew
Ġhid ing
we b
ĠDou bt
Ġregard ed
PUC IUS
Ġwaste ful
Ġsuspect ed
Ġfin er
Ġfin est
ĠGR EEN
Ġmiss ing
Ġprick ed
ib ility
ĠWelsh man
rib ute
Ġven ison
Ġluck y
Ġalter ation
Ġserp ents
DE CIUS
Ġbew itch
act ors
Ġtest ify
Ġmerc handise
Ġherald s
ĠSw inst
Ġeight een
Ġaffli cted
ĠLaun ce
Ġmult ip
Ġenforce ment
ĠIS ABEL
Ġav ail
Ġav aunt
Ġsup reme
ĠApp arition
GE ORGE
Ġpeas ants
Alarum s
mediate ly
ĠTurn ing
Ġaccus ers
Ġrecord ed
Ġtou ched
Ġdepend ing
Br ought
Ġbrid al
Ġir ks
Ġbru ise
Ġliqu id
Sold iers
Ġfla g
Fore ster
Ġsequ ent
Ġsucceed ing
Ġrhe toric
Ġbeaut ies
ĠSm ithfield
FRANCIS CO
Ġmas qu
Ġmas que
ĠConf ess
Ġpenit ence
Ġhaunt ed
voc ation
ĠHim self
Ġtro dden
ĠCASS IUS
BR ANDON
ĠAL ONSO
Ġdiamond s
Ġhaw k
Ġhaw thorn
ĠCamb io
ĠLYS IMACHUS
App ear
PR IAM
ĠTurk ish
Ġblaz on
Ġchest s
Ġaccom plished
Ġsumm ons
dra wn
Ġnegl igent
ĠJAQU ENETTA
Conf ess
Ġdissol ved
Ġsli ly
Ġsli ps
Ġclam ours
Ġhalt ing
ĠGON ZALO
Aw aking
Fal se
erd on
ĠEly sium
Ġspot less
Ġdial ogue
Ġdoct ors
Ġhal berds
Ġtrag ical
hus band
Ġcele brate
Ġentire ly
Ġmete ors
Ġinterchan ge
Ġsevent h
Ġsevent een
ULL CALF
ĠLAUN CE
ĠLAUN CELOT
Ġdul cet
ĠMin ola
Ġbead le
Ġswagger ing
Ġrumin ate
Ġau gment
Ġmus k
Ġpoo rest
miss ive
Ġconsec rate
Ġarrog ance
Ġunfe igned
Ġtrun cheon
Ġadvertis ed
Ġath wart
otect or
Ġtink er
Ġcater pill
irgin ity
ĠCur tis
Ġarri val
Ġlinea ments
Ġbeet le
ERV ILIUS
ĠDOL ABELLA
ĠCapt ains
Ġprecept s
Ġhumbl eness
ĠVenet ian
Ġdooms day
ĠPetition er
Ġinterpre ter
Ġinflu ence
Ġoo ze
ĠFort inbras
Ġremed ies
ĠGovern or
Ġtha w
Ġbree ches
ĠWol sey
ĠBand it
Ġaspir ing
ĠRum our
Ġgover ned
Ġappell ant
Ġconfisc ate
Ġprerog ative
Ġskirm ish
Ġencount ered
Ġmagnanim ous
ĠExec ution
Ġexche quer
ĠDece mber
ĠPhry g
OUL DY
PILO GUE
UBL IUS
Ġdus ky
Ġincess ant
ĠBUT TS
ĠCoe ur
ĠPERD ITA
ĠPyr rhus
ĠFAUL CONBRIDGE
ELEUC US
ĠVERG ES
LOSS OM
lizab eth
THAZ AR
EASEB LOSSOM
ĠSwinst ead
A c
B u
B een
B ase
B ardolph
B ULLCALF
D en
E nd
F ree
G ardener
H ic
I nt
L ast
L uc
M is
P om
R el
S eem
S IWARD
T ime
T arry
T akes
W r
W alk
W itness
b et
b less
b bed
c ation
c les
c ase
c ontent
c erity
d ie
d rops
e an
f es
f ound
g all
g iving
h on
h ill
h our
h ome
i ences
j e
m el
o il
o pp
p able
p ret
p ated
r ge
s ure
s ub
s leep
t re
t old
u it
v iol
z ar
¢ ç
å ©
æ ¥
æ ¦
æ ¬
æ µ
æ Ģ
ç ¿
è ¤
è ¦
è ī
è ķ
è ĸ
è ł
é ¬
é ĥ
é Ĺ
é Ń
Ġ ounce
Ĭ ç
Ġt as
Ġt esty
Ġt unes
Ġt uned
he t
Ġa right
Ġs ou
Ġs ot
Ġm ounsieur
re ce
re ng
Ġw akest
ha lf
Ġb er
Ġb out
er ly
or th
Ġf er
Ġf um
Ġo live
it ure
it ution
it ae
Ġc art
Ġc age
Ġc res
Ġc oy
Ġc ough
Ġc lipp
Ġc overed
Ġl ends
Ġl urk
Ġh ive
Ġh oof
Ġh idden
Ġn erves
Ġn inth
ar r
ar us
Ġp ages
Ġp runes
Ġth irt
Ġhe m
Ġhe arer
an qu
ot hes
Ġg ored
Ġg hast
Ġg aud
at hes
Ġbe arer
Ġin iquity
ĠT ook
ĠT ongue
ĠT iber
le mn
Ġha gg
ir r
ĠS ea
ĠS heriff
ĠS IWARD
ut ius
ith met
Ġis h
ill ains
Ġfor n
ĠH ume
ĠH orns
id ers
ra l
ra ising
Ġk issed
ad ders
as c
ĠB US
ĠB astard
ĠB ecome
ĠB oult
ĠB agot
ene ath
ĠC ato
ly mp
Ġso ever
Ġso journ
ĠM us
ĠM oon
ĠM acedon
Ġli able
Ġli kest
AR T
ĠE lizabeth
ĠP y
ĠP ed
ĠP al
ĠP ass
ĠP lead
ĠP ROCULEIUS
ĠP inch
ĠL and
ĠO lymp
us ive
est im
ĠN ilus
ĠN eapol
ĠF ar
ĠF ell
ĠF ound
ĠF ife
ĠF ORT
Ġde ign
Ġse lves
ĠG al
Ġlo gs
ell y
il fully
Ġsp ill
Ġfa ctions
Ġv all
han ged
ĠD ame
ĠD ist
Ġsh illing
Ġam ber
Ġmu d
ie ces
Ġwhe els
ic s
Ġcon y
own ess
ul k
Ġwas hed
Ġsw arm
pp ery
Ġor bs
ĠV is
ĠV ol
ĠV IRGILIA
Ġlet har
ond ay
Ġus ual
ĠTh ither
ĠTh ought
reat ed
od ious
Ġqu ittance
ig ers
ig ate
Ġj ester
ance d
ound ing
Ġsa ith
Ġsa ving
Ġmad est
Ġdis eased
Ġho g
Ġho ped
ĠJ ames
Ġpro bation
Ġgra ver
Ġspeak est
Th row
Ġoff spring
ist ed
ist ake
ĠK ings
aster y
Ġfo h
ĠFor res
ĠFor give
hen ce
Ġwhere to
Ġex ter
QU INTUS
ud y
Ġra z
Ġra ils
ull ing
per ience
Ġear ned
Ġri chest
Ġsc al
Ġsc are
Ġsc hed
Ġsc ared
Ġsweet en
Ġsweet ness
ans wer
Ġapp li
Ġla ced
Ġla vish
ĠBe w
ĠBe at
Ġwit ches
sw orn
ag ine
ag ate
Ġcomp ounded
Ġru bb
Ġcha ps
ĠAn cient
Ġbeg s
Ġrem iss
Ġrem ote
Ġrep ul
Ġbra very
Ġbra wn
Ġbra gs
ĠThere in
uck oo
ĠLet he
ĠWe ep
ĠWe igh
Ġind uce
ĠAnt h
eas on
Ġch ron
Ġgu ile
Ġgu ides
Ġconf essed
Ġwoman ish
Ġwoman hood
Ġmind ed
Ġres erve
Ġcount s
Ġgi bb
ĠSt ood
ĠSt oop
ĠSt rikes
Ġcou ched
Ġche w
Ġdra b
Ġchild hood
Ġover take
Ġover look
Ġover borne
Ġtre ads
ab outs
Ġhum ane
Ġbes peak
ach ing
Ġvill age
Ġthr oned
ĠGo es
ĠGo bbo
Ġea stern
Ġmon astery
Ġimp ious
Ġmis use
Ġsent ine
Ġsent ences
Ġhither ward
ĠAl beit
ĠAl cides
ĠAl isander
Ġwel comes
Ġmer ited
Ġmer maid
anc er
gu ish
Ġbo il
Ġbo ats
Ġmistress es
Ġlast ly
Ġcare fully
ild ing
Ġill s
Ġill ust
ĠNot e
de ath
Ġsaw est
Ġdru g
Ġdru dge
Ġfore said
Ġcra ven
Ġexce eds
Ġbea ver
Ġtem por
com fort
Ġsupp lant
Ġproud er
Ġdist ill
Ġsoon est
Ġsin cerity
Ġtend s
Ġter rors
Ġdisp ossess
Ġgall op
Ġem inent
Ġwork man
Ġexp ost
Ġmock er
ĠCom mon
Ġwoo ed
Ġsum ptuous
Ġsuit ed
Ġatt aint
ĠLook ing
Ġsur prise
Ġdev oted
Ġdro ve
Ġquar ters
vent h
Ġappear ing
Ġscorn ful
you ng
pare nt
Ġclose d
Ġreg ister
Ġreg ards
Ġlow est
Ġworship ful
Ġwrit ers
onst ancy
Ġstrength s
ron ed
Ġliber t
Ġship wreck
Ġmortal s
Ġpost ed
Ġpost erity
Ġproceed s
Ġbirth s
Ġlust ful
Ġer rors
Ġhealth ful
Ġchurch men
ĠLuc rece
Ġdri ving
Ġshar per
sa fe
Ġconcl usions
ĠSha me
Ġlist ening
Ġdefend ed
ĠRo ger
Ġcre am
Ġref resh
Ġver ified
ĠSp art
ĠSp oke
Ġprivate ly
Ġfru its
Ġvent ured
Ġtrans formed
Ġencounter s
your self
ĠDes p
Ġconquer ors
Ġhor ribly
Ġimport s
Ġprotest ation
Ġpot ion
Ġsolemn ized
Had st
Ġbount iful
Ġcost ard
Ġfaint ing
Ġformer ly
See k
See ing
Ġlament ed
ĠPri est
Ġspare d
ĠBl ow
ĠCount y
Ġdet ect
Ġclo ister
do g
Ġprod igious
eat en
ĠMont joy
fit able
Ġforbear ance
Ġaccount ed
Ġeng ross
Ġcover ing
ex cellent
Ġexcept ed
Ġexcept ions
Ġinvent ory
Ġattempt s
ĠDraw s
Ġstab s
Ġsuper stit
Ġcool ing
des ire
Ġsanct ity
Ġmerc iless
Ġdim in
ĠDis dain
Ġswallow ing
Ġwhip s
Ġshr ine
Ġshift s
Ġsecure ly
ĠHEL ICANUS
ĠRet reat
Ġrejo icing
Ġmonarch s
Know ing
Ġaccus ations
Ġthorn y
LOV E
Ġsoci able
Ġtou cheth
Ġproport ions
ĠSic ily
Ġfors ook
Ġpetition s
Lo ves
Ġrobb ers
Ġtum ble
ĠAE m
Ġfla p
Ġlam ps
Ġnet tle
Ġclimb ing
br other
Ġhy mn
Ġdecl ining
ĠPlay ers
Me antime
Ġtur f
Ġmanif old
Turn ing
Ġdun geon
Ġlev ity
Ġwrink les
ontin ue
Ġconclud es
Ġrus hing
ae us
Ġsugg est
Ġcong reg
Ġconver t
Ġgn ats
ĠSn are
ĠGerman y
Ġblast s
ĠBASS IANUS
ĠGon eril
Ġquaint ly
Draw ing
Ġmedit ation
wear ied
Ġep ithe
Ġep ilogue
ĠHUM E
tong ue
Ġvap ours
Ġexclaim s
Ġscold ing
Ġkern s
comp any
Ġped lar
Ġvio let
Ġarbit rement
Ġadul tery
Ġdrag ons
Ġtreat y
Ġken nel
Ġbenef its
Ġprecise ly
Ġreform ation
Ġconv ince
Ġranc our
Ġidol at
Ġgust s
Ġenge nder
ĠAlb ion
Ġstew ed
Ġmurm ur
erth rown
Ġcanop y
ĠVOL UMNIA
Ġgriev ances
Ġsess ion
ĠTar quin
Ġcontrad ict
Ly sander
serv ice
ĠBRA KENBURY
ĠAmaz on
Ġmagist rates
Par is
ĠTur ks
Ġdeserv ings
Ġheres y
ĠSout hampton
ĠHoll a
Ġhogs head
Ġenroll ed
Ġlab oured
Ġglister ing
Spir it
Ġsulph urous
Ġtract able
Ġsuppli ant
spo ken
Ġmassac re
Ġbale ful
Ġcate ch
ĠHOL OFERNES
ĠMyrmid ons
Ġearthqu ake
ĠHipp olyta
Ġdifferen ces
Pom pey
Ġghast ly
ithmet ic
ĠBUS HY
Ġchron icles
A jax
B ea
B ecome
B rave
C L
C le
C ast
C ond
C AMBRIDGE
D ep
D are
D AM
D rink
D uring
D ispatch
E ORGE
E UPHRONIUS
F R
F ar
F oul
F LAMINIUS
G race
H ard
H alf
L ight
M ars
M asters
M USTARDSEED
M OULDY
O U
O ther
P et
R oman
S n
S ad
S CROOP
T rust
U se
U nt
V er
V irtue
V ENTIDIUS
W in
W it
Y onder
a ol
a ps
a ways
a cheth
b ur
b rew
b ring
c over
c law
c ension
c oun
c orner
d ition
d eliver
f ri
f ear
f ited
g a
g od
g reed
g arden
g iven
h roned
l ine
l ost
l ittle
l ished
m arry
n ut
n ounce
o a
p ut
p ore
p ost
s il
s orrow
s ix
s pecially
t imes
u i
u ct
u el
u ade
u eless
w oo
w alk
x ter
æ §
æ º
æ ł
ç ©
ç ª
è İ
è Ĵ
è ĵ
è ļ
è Ł
é ¦
é º
é ½
é Ĩ
é ĭ
é ı
Ġ ic
Ġ icy
Ĩ ç
Ŀ ç
Ġt ight
Ġt ush
Ġt ires
Ġt amed
Ġt asted
Ġt ucket
he nds
Ġa gg
Ġa uspicious
Ġs age
in ner
Ġm it
Ġm ol
Ġm are
Ġm ince
Ġm int
Ġm ix
Ġm ated
Ġm ote
Ġm andra
Ġw aken
Ġw reath
ha vior
Ġb ath
Ġb its
Ġb aff
Ġb aked
Ġb ishops
er ick
er io
er bear
or med
ll ity
Ġf ry
Ġf li
Ġf oster
en um
en stern
Ġc ited
Ġd ive
Ġd aws
Ġl out
Ġl ined
Ġl ugg
on ly
Ġn umb
ar ve
ar ison
Ġp on
Ġp ond
Ġp ied
Ġp istol
Ġp aved
Ġth res
Ġhe st
Ġhe mp
Ġhe dges
ot ions
om it
st ers
st ring
st rate
ow ick
Ġg or
Ġg le
Ġg am
Ġg otten
Ġg ash
at ches
ĠA UDREY
ĠA vaunt
ĠA DAM
Ġbe er
ĠT re
ĠT our
ĠT ullus
se nd
se ven
se illes
Ġha ps
ld ron
ir y
ir anda
ĠS i
ĠS us
ĠS ign
ĠS andal
ĠS top
ĠS imple
ĠS ergeant
Ġme als
ch ors
ea red
ill ery
ĠW ood
ĠW ake
ĠW ert
ĠW orse
Ġwe eks
Ġit em
ĠH ouse
ĠH aste
ome l
id eth
her ris
ra wn
ra ctions
ra gon
Ġk er
Ġst if
Ġst all
Ġst ee
Ġst ature
Ġst amps
ĠB en
ĠB ay
ĠB OT
ĠB rand
ĠB rentford
al as
al ion
Ġre ver
Ġre ft
ĠC ol
ĠC are
ĠC arry
ĠC amp
ĠC ries
ĠC ORDELIA
ĠC ourage
ĠC LEOMENES
ĠC imber
ge us
Ġso e
Ġso ar
Ġso lus
ĠM oth
ĠM eg
ĠM acc
Ġas pire
Ġli f
Ġli ars
ur ch
ro ses
ĠE G
ĠE t
ĠP il
ĠP ep
ĠP ity
ĠP to
ĠP uck
ĠP HE
ĠP ANTHINO
ĠP orpentine
Ġdo e
Ġdo ig
Ġdo ff
ĠL eft
ĠO pp
ĠO bs
am s
am eless
us er
us band
ĠThe tis
ĠF er
ĠF rog
Ġan guish
th with
ER ES
ER PINGHAM
Ġsu es
Ġsu cks
Ġall ied
ĠG ra
ĠG rant
ĠG room
ĠG EORGE
Ġlo pp
ell us
Ġsp in
Ġsp ilt
Ġ' '
Ġfa ctor
ear y
Ġv ic
han g
ast es
ĠD at
ĠD aughter
ĠD rink
ĠD ane
ĠD ORSET
ĠD rums
ine ly
Ġlord ly
ie ged
ĠR ef
ĠR os
ĠR enowned
Ġgo ot
Ġgo bl
ic o
ic ates
ic ip
ind er
Ġcon vent
ul iar
ul can
Ġsw oons
Ġca ves
Ġca vil
em an
em ning
pp iness
Ġhat s
ĠV ulcan
Ġlet ting
fe u
ol o
ol us
ol ic
Ġar ithmetic
ĠTh rows
pea king
um s
um mon
um ptuous
od es
ort ive
Ġqu ell
Ġj umps
ĠNe vils
ĠNe ighbour
ĠAct ium
Ġun ite
Ġun aw
Ġun lo
Ġun ited
Ġun clasp
Ġho ard
Ġho vel
Ġho bby
Ġmust y
eak ing
Ġpro posed
Ġpart ake
pe er
Ġgra sp
Th rice
Ġma w
Ġro ars
Ġro ared
Ġlea ven
Ġfo g
Ġfo ils
Ġab j
ĠFor get
ĠHe igh
Ġmar quess
Ġtw ink
Ġtw igs
ust ria
les sed
Ġen am
Ġen sues
Ġex iled
RA GON
Ġra b
Ġra g
Ġra ms
Ġra ught
Ġra iment
Ġra zed
Ġart ific
Ġart illery
Ġear ldom
igh ter
li b
li ard
CH ATILLON
TH WELL
,-- '
ĠAN TIOCHUS
What e
Ġad ds
Ġsc or
Ġsc outs
Ġsc off
AM Y
Ġsweet heart
Ġapp ertain
Ġapp ele
Ġfl ing
Ġfl own
che t
op her
ag re
ag ing
Ġstand ard
Ġstand ers
Ġcomp assed
Ġru bs
eal s
Ġhead long
Ġcl ocks
ci ences
Ġeyes ight
Ġpres age
Ġcha fe
ret ary
Ġmight ier
Ġcont roll
MAR TIUS
Ġbeg ets
red erick
Ġpur gation
Ġrem o
ĠMar gery
ĠMar seilles
Ġpoor ly
Ġent hra
Ġbest ride
uck old
Ġind ict
Ġta pest
ne ur
Ġput ter
IT US
Ġfort ify
Ġplay fellow
ark worth
AB ERG
Ġchi ck
Ġcons um
Ġcons ume
Ġcons pired
Ġcons idered
Ġcons ciences
Ġserv ile
Ġch ink
Ġgu ided
Ġnat ura
Ġconf ir
ac quainted
Ġres ides
Ġtri pping
Ġkind er
Ġkind led
Ġcount ries
Ġgi b
ĠSt ri
OB US
ĠJo in
ens ive
Ġcou pled
Ġche at
Ġche val
Ġcur sing
Ġhus ks
ĠYour s
Ġover board
ab aeus
Ġacc out
Ġbes ieged
ach us
Ġdou bly
Ġass es
Ġmon k
Ġdisc ont
Ġdisc uss
Ġimp utation
ont ory
Ġmis lead
Ġsl ough
ĠBr ought
ĠBr itt
LY CHORIDA
Ġere ct
Ġwel com
Ġmo i
Ġmo ss
Ġfar thing
vers ion
Ġstri king
Ġban e
dd ing
Ġunc on
Your self
Ġcommand ers
Ġhonest ly
ĠEd gar
itiz en
IND ARUS
Ġfore run
Ġprom ontory
Ġspo on
Ġdan k
Ġcra mm
Ġhard y
Ġaw eary
Ġhu g
Ġgre edy
ift ed
Ġbusiness es
Ġjud ges
Ġhalf penny
Ġdoubt less
IPH OBUS
com ing
ial to
Ġsupp le
CA PUCIUS
St abs
Ġwa ited
Ġsad d
Ġknight ly
Ġcar b
ott ing
Ġdep utation
Ġbound less
ran ces
AC MOR
Ġdam ask
Ġpar l
ĠAr g
Ġdisp ro
no ble
Ġsk ies
Ġsk irts
Ġaff iance
Ġrec all
Ġbar ks
!' --
Ġcut ting
Ġpay ing
Ġcol t
Ġgeneral s
Re ceive
Ġexp ired
Ġac ross
Ġact ed
ĠCom ment
Ġwonder ing
urt les
Ġord ers
Ġtender ly
Ġest ablish
Ġatt ired
Ġhair y
Ġpen n
Ġpen ury
ĠCan idius
Ġshort en
av o
ĠCh rish
RAM BURES
Ġthri fty
DER CETAS
Ġdog ged
ĠLA ERTES
Ġfavour ites
Ġund oubted
Ġunt ie
Ġjest ing
Ġbattle ments
med it
med on
Ġforb ids
Ġlack ing
ashi on
Ġgro at
Ġgro ats
Ġfra ud
Ġred oubted
ĠCass andra
Ġfam ily
Ġinter cess
Ġinter view
Ġfeast ing
Ġjo llity
ict iers
Ġenc ourage
Ġdire ful
Ġfill ing
TIT INIUS
Ġcr us
Ġsecret ary
Ġble ak
Ġfeed er
Ġdouble d
right ed
Ġbirth right
rem acy
Ġgod father
Ġforest all
Ġforward ness
Ġer st
Ġpossess ions
AU X
ĠFal conbridge
Ġsaf est
sa ving
ease blossom
Ġpage ants
Ġpain ter
ĠSha dow
Ġwhi pt
Ġcred itor
Ġcred itors
ĠLa feu
Ġwea sel
rent ice
Ġgent les
ĠSal erio
pit ied
Can st
ĠMust ardseed
Ġdelight ful
Ġins ur
Ġstor ies
Ġinv ited
Ġbestow ing
Ġviol ate
ALL US
Ġpin ches
Ġauthor ities
Ġvent urous
rim is
ĠPH ILOSTRATE
Com ing
mo i
ĠHear d
ĠHear ing
Ġdisg races
Ġsmo ky
Ġimport ance
Ġransom ed
ug n
po ll
Ġpot tle
Ġpot ency
Ġbas is
irt uous
cian a
Ġneighbour ing
Ġsail or
ĠLu ciana
Ġcounterfeit ed
Ġbuck led
Ġfaint s
Ġconj ured
Ġlament ing
Ġenjoy s
Ġenjoy ing
bra nd
Ġbef riend
she aring
Ġci pher
Ġfle w
Ġhap less
Ġcustom ary
Ġgown s
Ġclo g
Ġapart ments
Ġbab bling
Ġslow ly
do ing
Ġlean ing
Ġuns ha
Ġuns atisf
cri pt
Ġfurn iture
Ġexam ination
Ġz ealous
Ġmild ly
Ġthick et
Ġimper fection
ĠBo ar
Ġcapt ives
Ġcapt iv
ront ed
Ġdig estion
Ġcompl ices
BAL THAZAR
Ġbrook s
ĠDou ble
Ġtort ured
Ġprevent ion
Ġreck less
Ġapt ly
Ġghost ly
Ġappare ll
Ġdisposition s
Ġdespite ful
Ġpick ing
Ġinfect ious
Ġder ision
ĠWelsh men
ĠDen is
Ġunw orthi
Ġimm odest
ado es
DEN N
ĠTem ple
Ġsuck ing
Ġsanct ified
Ġsour ce
Ġcens ured
Ġprivile ged
Ġadmir ing
Ġadmir al
Ġband y
Ġmisc onst
COL EVILE
Ġsink ing
hand ed
Ġdeb ating
Ġsauc iness
Ġaccept ance
Ġsup remacy
ĠFR ENCH
Ġshun s
Ġinnoc ents
worth iness
Ġfront iers
Ġconfound ed
Ġmonarch y
Ġdow ager
Ġalarum s
ĠIsab ella
Ġconjure r
Ġincre asing
Ġcombat ants
Ġbill ows
ĠRep ort
Ġcand les
Ġabhor red
Ġtravell ers
Ġbrid le
Ġgrievous ly
Ġsacrif ices
Ar ise
Ġbon net
Ġhur ly
Ġvarlet s
Ġunm eet
Ġhom ic
Ġshri ft
Ġfla x
Ġprovo kes
foot ed
Ġphra ses
Ġdeceit ful
Heaven s
Ġward robe
Ġlam ents
ĠSm ile
ĠHo b
Ġdecl ine
Ġprophes ied
Ġtur tle
Ġcomplain ing
Ġindign ity
Ġresist ed
Ġrev ived
Ġliver ies
Ġsubd ue
Ġmould y
Ġthrong s
Ġthankful ness
Ġprompt s
Ġsurvey or
Ġexplo its
ĠHelic ane
Ġcel erity
ĠWh ite
ĠWh ispers
Ġgroom s
App roach
Hel en
Ġdil igent
Ġconver sed
Ġinfirm ities
Ġlee ks
Ġriot ous
ĠADR IANA
ĠBEN VOLIO
Ġvast y
Ġvine yard
Ġvanqu ished
Pl uck
Ġdesol ate
Ġpert urb
Ġundert aking
abb ing
Ġchallen ger
Ġdissol ve
Ġoutrage ous
Cons ider
ĠMAL COLM
Ġsham ef
ĠAss ist
Ġwrang le
Ġleather n
Ġboat swain
Sp oke
ule ius
Ġwid ower
Aw ake
Ġentra p
Lie utenant
Ġunwill ingly
ĠTyr us
ĠMis enum
Ġdol phin
Ġhood wink
Ġpopul ous
Ġdesc ried
Char les
Ġvict ors
ĠKne els
Ġthigh s
ĠTouch ing
Ġenlarge ment
Ġconsort ed
Ġattent ive
ĠRuss ian
Ġranc orous
Ġast onish
Ġbecom ing
Ġabst ract
Ġenge nders
Ġchrist ening
Ġdiscom fort
ĠAlb any
Ġobsequ ies
Ġcushi on
Ġcushi ons
Ġenv iron
Ġrav ished
ĠGuild enstern
burn ing
Ġcy press
Ġdomin ions
ĠMet ellus
ĠPha ra
Ġhop eless
Ġlawy er
Ġcod piece
lear ned
ĠSupp ose
Ġens ign
ĠCob web
ĠPolyd ore
Lea ving
Ġlux ury
Ġthra ll
Ġexhi bit
Ġpreposter ous
Ġunluck ily
Ġhilt s
Ġpel ting
Ġinqu ired
ĠHol medon
ĠCer imon
ĠDion yza
Ġprogen y
Ġincontin ent
Ġargos y
Ġpag an
ĠLod owick
Ġdeject ed
Ġabb ess
Ġpenet rate
Ġcows lip
ĠDutch man
Ġcau ldron
Ġremn ant
Ġverd ict
Ġsyn od
Ġsympathi ze
Ġva ward
Ġdissu ade
Ġinfall ible
Ġsurv ive
Ġextraord inary
Ġpec uliar
ĠTa vern
ĠCr isp
ĠCret e
ĠGen oa
Ġexamp les
Ġimmin ent
Ġoverween ing
Ġtreas ury
Ġtroubl ous
Ġbash ful
Ġcaterpill ars
Ġber ries
Ġrepul se
FR ENCH
OU THWELL
Ġlugg age
ĠTour aine
ĠBOT TOM
ĠMacc abaeus
ĠPep in
ĠPHE BE
Ġdoig ts
ĠFrog more
Ġunaw ares
Ġartific ial
ABERG AVENNY
Ġdiscont ents
ĠBritt any
ACMOR RIS
Ġunsatisf ied
B orn
B AIN
B rief
C ut
C ount
C ertain
D ist
F it
F riend
H ome
H onour
H OST
H aply
J es
L eft
M ercy
M erchant
P ers
R ec
R osal
S ent
S al
S ergeant
T ook
T IM
V ols
W ant
W ish
Y ork
a h
b ine
b one
b ate
b all
b old
c re
c ue
c are
c ause
c ross
d ent
d el
d ist
d ains
d runk
e ck
f ar
f ive
f ires
f inger
f urnish
g r
g un
g row
i i
i end
i ation
i ards
l ance
l arum
m ell
m ear
m ock
m ary
m oney
m outhed
m akers
n ets
n ecess
o x
o bs
p an
r us
s k
s ight
s oul
s chool
t ide
t rees
w orn
x y
y ears
y outh
£ ç
¤ ç
¯ ç
º ç
å «
å İ
å ŀ
ç ·
ç ķ
è ¢
è ´
é ´
ĩ ç
ĭ ç
Ġt un
Ġt atter
Ġt igers
Ġt urtles
he m
Ġa ery
ou bled
ou rers
Ġs out
Ġs herris
in cess
in ated
in cible
Ġm i
Ġm all
Ġm aint
Ġm ots
Ġm ickle
re nder
Ġw ive
ha ble
ha ppy
Ġthe at
Ġb ust
is en
er m
er ver
or ry
Ġf eal
Ġf rust
Ġf iled
Ġf ester
Ġo ily
Ġo ats
en sed
it adel
Ġc li
Ġc rossed
Ġc itadel
Ġd ye
Ġd azz
Ġy ards
Ġl eak
Ġl essen
Ġl isp
Ġl ubber
Ġh ips
Ġh ilding
on io
Ġn ursed
Ġp as
Ġp ell
Ġp end
Ġp all
Ġp ren
Ġp eal
Ġp ities
Ġp ension
Ġth ump
st rings
ing led
ĠA ustria
Ġbe ach
Ġbe headed
Ġbe lied
Ġbe acon
Ġin land
ĠT arry
ĠT aurus
se a
ld o
ir ous
ĠS in
ĠS em
ĠS orrow
ĠS pare
ĠS earch
ĠS OUTHWELL
ut ish
Ġme ad
Ġme as
Ġme agre
im s
ĠW ish
ĠW ords
ĠW arkworth
Ġu mp
ent ing
ĠH ell
id ore
ra ble
Ġst ation
Ġst int
Ġst ains
ri g
ri pe
ĠB orn
Ġre ference
ĠC rown
ĠC ried
IN BRA
Ġso res
ĠM ER
ĠM ock
ĠM aid
ĠM ounsieur
ĠM iranda
AR RO
ĠE geus
ĠP ay
ĠP ast
ĠP ind
ĠP ier
ĠP ages
ĠP ossess
Ġdo ers
hi eves
ĠL im
ĠO bey
ĠO PHELIA
am inated
us hes
us ual
Ġsha ped
ĠF rederick
Ġde ws
if ying
Ġno isome
Ġan ew
th ous
ĠG one
ĠG ault
Ġlo athe
Ġlo athes
il ent
ru ck
Ġsp an
Ġsp out
Ġsp iders
Ġv ult
Ġv antages
ho pe
han k
ard ian
ĠD isp
Ġsh orter
Ġsh runk
Ġsh irts
qu ires
OR US
Ġam pl
AL BAIN
Ġup l
end ering
ie ving
ĠR oyal
ĠR ialto
Ġgo al
ĠY OUNG
ven om
Ġthere on
Ġbl ench
Ġbl amed
Ġca kes
Ġca pe
Ġca ution
Ġor ig
Ġhome ward
Ġar raign
la p
la ugh
Ġbr is
Ġbr utish
reat hed
um ny
Ġqu ir
Ġqu ote
ig al
ice t
Ġr ates
Ġr attling
Ġun able
Ġun par
Ġun ex
Ġun lock
Ġun stain
Ġun spotted
Ġun usual
Ġdis dains
Ġho sp
Ġmust ers
Ġout face
pt ure
Ġpro spect
Ġpro strate
Ġgra ze
orn ing
Ġpo ise
Th ither
Ġwho lly
Ġhow e
Ġhow soe
Ġro bs
Ġro asted
Ġlea se
har p
Ġfo aming
As k
Ġbet ime
Ġhear se
ud ing
Ġblood less
Ġra ze
Ġra iled
Ġra ising
igh bours
li um
Ġfair s
ove re
Ġri b
Ġri gg
Ġri bb
ount ed
Ġad ult
Ġsc ri
Ġsc ales
Ġwh ir
Ġapp arition
Ġfl our
Ġfl ats
Ġla g
Ġla ce
ĠBe ats
ĠHow ever
ĠIn fect
Ġstr ut
ĠIt em
Ġru ng
Ġru ins
Ġru dd
Ġhead less
Ġcl ad
Ġcl od
Ġcl asp
Ġpres ages
ĠWith draw
Ġmight iness
ĠSo on
With draw
erc ies
ĠIs idore
Ġpur blind
os sed
ĠMar quess
ĠWho ever
Ġrep aid
Ġent ice
Ġtra ins
Ġtra des
me at
Ġevery thing
In v
In st
ne ither
ĠWhere on
Ġstill ness
Ġcons ult
Ġcons ents
Ġconf ounds
Ġtri but
Ġkind s
Ġchar med
Ġle er
ens ions
ens ible
Ġpal ates
Ġpal pable
Ġcou ples
Ġche ater
Ġcur rish
Ġdra in
Ġsub jection
Ġneed y
cl ose
cl othes
ati ate
Ġacc ustom
Ġbes poke
Ġbes mear
ĠMAR TIUS
Ġstran gle
Ġstre ak
Be ating
tw o
Ġbod es
Ġmon uments
Ġimp oss
Ġimp lore
ple te
Ġlight ens
ĠNor man
ĠBr id
Ġdre gs
Ġval ues
Ġbus ied
gu ing
gu ine
Ġwind y
Ġstri ving
ĠRe bell
ner y
Ġgr ay
let ter
Ġdesire st
Ġexce l
Ġexce ls
Ġsla vish
Ġstra ins
ift s
Ġsing ly
Ġsick en
Ġcomfort ed
Ġservice able
St oop
Ġfoul ness
Ġreven ues
ĠCle ment
Ġdist aff
Ġfoot man
Ġsister hood
Ġint r
Ġbri ck
Tw ice
aff airs
Ġsk ipping
Ġaff able
Ġaff irm
Ġbat he
ĠPro v
Ġgall s
Ġgall eys
Ġmin ions
Ġgar b
Ġgar lic
CAL CHAS
Re ign
Ġten nis
Ġexp osition
Ġbold er
Ġact ing
ĠCom mit
Ġdiv ul
Ġatt ribute
Ġexc rement
ĠLook s
Ġhot ter
ĠCor rupt
Ġsur ges
Ġdev ices
ĠTw ice
Ġdeli berate
Ġblack er
Ġfavour able
Ġoffend ing
pare il
Ġunt aught
Ġunt hank
ĠWas h
Ġgro ves
Ġbro ached
Ġgrie ving
Ġdark en
Ġadd ers
Ġinter r
Ġmal t
Ġunderstand s
ĠCl ose
Ġchur l
Ġfeast ed
Ġadm its
pin ion
Ġinstru cted
anch oly
Ġag ate
Ġap ish
Ġap olo
ĠSen ate
Ġsho ots
Ġpost ure
Ġstru gg
ĠHa utboys
Ġconqu ered
Ġsn ares
Ġcap arison
Ġobs cene
Ġsecond s
gl ory
Ġer go
Ġfoolish ly
ĠLuc ullus
my self
gle ct
Ġknock ed
Ġqual ified
Ġmed lar
ĠSha lt
ĠJack s
chan ge
Ġsus picious
Ġemper y
Ġcontin ues
Ġdance d
Ġconce ited
Ġconce aled
Ġleg itimate
Ġpun y
Ġequ i
Ġswift est
Ġrough ly
Ġvisit ing
Ġchast ise
Ġchast ised
Ġref uge
ĠGu ards
Ġver b
Ġclear ly
jo ined
Ġrude ly
ĠBes ide
Ġrevol ts
Ġnecess aries
Ġtrans l
Ġproclaim s
Com fort
aunt ed
Ġheat hen
Ġthunder bolt
ĠDes ire
ĠDes ires
ĠDes cend
ĠDes pite
ĠBened ict
Ġimport ing
ĠLear n
Ġduc at
Ġrose mary
Ġheed ful
Ġneighbour hood
ĠSe ven
Ġconj ur
ĠPri ck
she ll
ĠPo ictiers
ban ished
Ġcontr ar
Ġdesperate ly
Ġstart ing
Ġcomb ine
do gs
Ġruin ous
Pr inces
Ġuns ure
Ġcivil ity
Ġexam ined
Ġsal utation
Ġsal vation
Ġisland ers
Ġvar iable
ĠBoy s
Ġaud it
Ġcapt ivity
Ġjoint ure
Ġincl ining
Ġung u
Ġung rateful
Bes ide
Ġtort ures
Ġforfeit ed
Ġhabit ed
Ġretire ment
Ġbuild ings
Ġesteem s
ĠMal col
Ġheav iest
Ant onio
ĠRem ain
Ġinfinite ly
Ġmodest ly
ĠDen y
Ġunw elcome
Ġimm aculate
ris y
Ġcool s
Ġpat ches
Ġcler ks
Ġcharm ing
Ġinher itor
Ġbutcher s
Fair y
Ġfant as
Ġdim m
Ġpill ars
Ġmart yr
Ġrebell ious
kind led
run ning
Ġmourn ful
Ġcla pped
Ġdiss olute
Ġstoop ing
Ġobserv ing
Ġmoment ary
Ġshun n
app are
app arent
Ġetern ity
Per haps
Ġball ads
Ġexper t
ĠRep ent
Ġcloak s
CUR IO
bes eeming
Ġhur ried
Ġrobb ing
Ġfret ted
ĠAE geon
EB ONIUS
Ġrece iving
Ġdivor ced
Ġcal umn
Ġcal umny
Ġload en
Ġperf id
Ġwhit eness
ĠHy dra
Ġbraw ls
Ġmas ks
them selves
Ġstrang est
Ġstrang led
Sw ear
bell ied
Ġunl oose
Ġprocess ion
Ġdistemper ature
Ġful ness
Ġful some
Ġcarri ages
Ġreligious ly
ĠAL BANY
Ġfeign ing
Ġost ler
Ġstum bling
Ġspark ling
Ġembass age
Ġnun nery
Ġfawn ing
Ġprover bs
Ġaccomp any
repare d
Ġpest ilent
Ġpred ecess
Ġann ual
Ġconfeder acy
Ġhab il
Ġfold ed
Ġappea sed
Ġenchant ing
Cla udio
Draw s
ĠProc uleius
Ġmedit ating
kn ave
Ġlar g
Ġec lip
ĠHec ate
ĠAmong st
ĠLion el
Ġblossom s
Ġobst inate
Ġpath s
Ġdole ful
Ġunpro fitable
Ġmagic ian
Ġcontag ion
Ġscarf s
Ġdefect s
Play er
char ged
jud ged
ma ids
rot hed
Ġarbit rate
Ġmagn ific
Ġstratage ms
Sm all
count ry
has ar
ĠKne el
Ġcompet itors
Ġbuff et
spir ited
Ġannoy ance
Ġbaw ds
Ġfre er
ĠDef ormed
Ġattent ion
Ġhypoc risy
Ġpud d
ĠSa fe
Ġfulf ill
Ġrelease d
Ġobsequ ious
Ġbrand ish
Ġinsinu ate
Ġobl igation
idel icet
ĠFle ance
Ġjugg ling
Ġrud eness
Ġlawy ers
Ġtack le
Ġaust ere
Ġfest ival
Ġlur king
Ġnurs ery
Ġsprite ly
Ġvac ant
ĠSpir it
ĠSpir its
La un
Ġdom estic
Ġdwar fish
Ġfac ulties
Ġexa ctly
Ġvehe ment
Ġdetermin ation
Ġtu ft
Ġling ers
Ġdeform ity
Ġanat om
Ġanim als
Ġcarp enter
Ġadopt ed
Ġtrop hy
Ġdar ling
Ġlect ure
ĠBalt hasar
ĠDec ius
Ġune qual
Ġgraft ed
Ġextem pore
Ġfisher men
Ġcri ckets
Ġovert ure
Ġextenu ate
ĠPoint ing
Ġquill ets
Ġdawn ing
Ġcelebr ation
ĠAugust us
bird ing
Ġloo sed
Ġthirt een
Ġgaud y
ĠNeapol itan
ĠFORT INBRA
ĠGal en
Ġsched ule
Ġlibert ine
Ġidolat ry
Ġgobl ins
Ġparl ous
Ġinsur rection
Vols ce
Ġtheat re
Ġfeal ty
Ġfrust rate
ĠPind arus
Ġapolo gy
ĠMalcol m
ĠFORTINBRA S
A mb
A UGH
A mongst
B ONA
B HORSON
C he
C ries
C hange
C oll
C OBWEB
C ERES
D aughter
D ION
D AIN
E ight
F ound
F urther
G RA
G room
H u
H op
H ORTENS
I ENCE
J ud
J AMY
K EL
L ittle
M other
M ort
M IENS
M ACMORRIS
N ATHANIEL
P UR
P EMANTUS
P atroclus
P ossess
P repare
P EASEBLOSSOM
R IUS
R ise
S ing
S hylock
S ilence
S even
S ERVILIUS
T EX
T roth
V E
W all
W ert
a pt
a xe
a gery
b out
b ound
b row
b ull
b ows
b its
b ecome
c ure
c ousin
c irc
c onstant
d ish
d iv
d amn
d anger
e ge
e ress
f irm
g ea
g rant
g rand
g eable
h orses
i eth
i ctor
k ward
k erc
k os
k na
l on
l im
m um
m its
n it
n ings
o le
p ick
p urn
p ier
p ile
p hile
p eless
p resent
p hos
p ieces
s ore
s ince
s ack
s uff
s aw
t ter
t ra
u ble
u ces
u nds
v ow
v iron
v itae
w he
w elcome
w orship
y er
y ards
¼ ç
å ²
å ³
æ ©
ç ³
ç ½
è Ĳ
è ŀ
é «
é ¼
é Ħ
Ġ :
Ġ ry
Ħ ç
Ķ ç
Ġt art
Ġt ip
Ġt inct
Ġt urb
Ġt arried
Ġt eeming
Ġt astes
he nt
Ġa unchient
Ġa qua
Ġs inks
in ore
Ġm ong
Ġm alm
re en
re ar
re ement
re port
Ġw ool
Ġw iz
Ġw ards
Ġw aning
Ġw rung
ha ir
ha bits
Ġb il
Ġb um
Ġb ened
Ġb urs
is heth
er ce
or ation
or iz
or achio
Ġf erv
Ġf ery
Ġf lex
Ġf roth
Ġf uel
Ġo mn
Ġo pens
Ġo peration
en ough
it le
it ute
it more
ĠI ng
ĠI ris
ĠI DEN
ĠI den
ĠI lium
Ġc ad
Ġc ake
Ġc ates
Ġc rust
Ġd au
Ġd ross
Ġy ew
Ġl ake
Ġl one
Ġl ath
Ġl ep
Ġl ave
Ġl aund
Ġh ies
Ġn ook
ar c
ar n
ar age
ar med
Ġp he
Ġp ly
Ġp am
Ġp ike
Ġp ines
Ġp iled
Ġp yram
Ġto re
Ġto ast
Ġto pp
Ġto otha
Ġhe ady
Ġhe ated
an es
ve x
ve al
st ocks
st eward
ow ed
ow ell
Ġg aw
at cha
at ement
ĠA lt
ĠA BHORSON
ĠA MIENS
ĠA PEMANTUS
Ġin ly
Ġin scri
Ġin quis
Ġin spir
ĠT oward
ĠT rent
se z
se ll
se en
le g
le ter
le ction
le uc
Ġha res
Ġha ud
et he
et ies
et een
ir ch
ĠS ith
ĠS ard
ĠS eems
ĠS NUG
ut or
ut ches
Ġme ads
im m
im ble
im achus
ch us
ea f
ea v
ea led
ĠW ar
ĠW hip
Ġfor ge
Ġfor ci
oo led
Ġe rew
Ġwith held
ĠH ood
ĠH allow
ĠH IPPOLYTA
ra ved
ra ft
ra cian
Ġst ou
Ġst ung
Ġst aggers
Ġst epp
as her
as hing
as ping
ri but
ord ake
ĠB on
ĠB ad
ĠB ig
ĠB awd
ĠB ishops
ĠB lessed
ct ors
ct ify
Ġre ly
Ġre ins
Ġre nounce
Ġre version
ĠC re
ĠC icer
ĠC ursed
ĠC ris
ĠC ROMWELL
ĠC ourtezan
EN OR
Ġso b
ĠM er
ĠM ESSALA
ĠM onday
Ġli ed
AR RAGON
AR RIUS
ver ies
ur bed
ur ril
ĠE ls
ĠE uri
ĠE ton
ĠE UPHRONIUS
ĠP an
ĠP our
ĠP and
ĠP ic
ĠP ale
ĠP eg
ĠP retty
ĠP easeblossom
Ġdo ings
ĠL in
ĠL ess
ĠL ang
ĠL iby
am ous
Ġsha ked
Ġsha peless
ĠN ine
ion ess
ĠF ill
ĠF ight
ĠF ire
ĠF eed
ĠF ew
ĠF uries
ĠF urther
Ġher ds
Ġher ring
Ġde re
Ġde xter
Ġno ds
Ġan chors
th ol
Ġsu is
Ġse nder
Ġse igneur
ĠG ar
ĠG ent
ĠG ard
ĠG asc
ĠG aol
ĠG ALLUS
Ġlo p
Ġlo am
ell ing
ru p
ru le
ru ct
ru ised
Ġsp ade
Ġsp ray
Ġfa llow
Ġkn ead
Ġv ie
Ġv ener
Ġv ouchsa
Ġv esture
Ġv ilest
ard er
ast ingly
ĠD ION
ĠD ENNY
ant a
qu ick
Ġam bles
Ġwhat ever
Ġcom et
Ġcom for
Ġmu les
Ġpr one
Ġpr idge
ĠR a
ĠR ed
ĠR ho
ĠR eason
ic her
ic ient
Ġcon n
Ġshe ll
Ġshe ath
Ġshe ars
ST ARVELING
ven er
ven ient
EL ON
oth y
Ġwas s
Ġwas hes
Ġthere abouts
Ġsw erve
Ġca red
el ier
Ġcan v
Ġor ient
Ġor isons
ĠTo ld
ĠV au
ĠV ENTIDIUS
fe w
Ġar gue
Ġar cher
Ġar rive
Ġhere of
Ġhere ditary
Ġsay ings
Ġus ing
Ġus her
ink ing
la ve
la ble
ĠTh rust
ĠTh racian
Ġbr ittle
ET ELLUS
RO BERT
ort ed
Ġcome ly
Ġqu o
Ġqu aff
Ġqu iver
Ġqu ips
ig en
ig ree
Ġj ay
Ġr ood
Ġr ays
Ġsa ff
Ġsa uced
Ġun ion
Ġun man
Ġun sh
Ġun say
Ġun acc
Ġun avo
Ġun pitied
Ġun worthiness
Ġdis b
Ġdis li
Ġdis able
Ġho ll
Ġho ist
un ge
un ches
Ġout right
ĠJ OUR
unt ing
AT E
AT IENCE
Ġpro sec
Ġtru dge
Ġgra ff
Ġhon ester
Ġhon neur
Ġhand led
Ġhand ling
ff eta
Ġoff icious
Ġro an
Ġro ast
man ac
Ġal beit
Ġal mighty
Ġal manac
Ġey ed
Ġpl umes
Ġpl aints
Ġpl unge
har ged
ĠK issing
ĠK isses
ĠYou th
Ġfo ison
Ġab ed
Ġab ridge
Ġab ilities
Ġab ortive
ĠFor um
Ġmar gent
Ġwhere with
Ġtw ins
Ġtime ly
ĠAs ia
ĠAs cension
ave l
Ġen ri
Ġen ig
Ġen sc
Ġen act
Ġen closed
Ġex clamation
Ġlook er
Ġdes irous
per ing
per ion
per bol
li ves
li ction
IR IS
Ġwr ings
Ġri ft
ĠGod s
Ġper ceives
Ġsc ut
Ġsc am
Ġsc out
Ġsc um
Ġsc abb
Ġsweet ing
Ġcour ser
Ġapp roof
Ġfl oor
Ġfl ocks
Ġfl ung
Ġhast en
sw ord
Ġhouse d
che ek
op en
Ġarm ours
Ġarm ourer
Ġgrace less
ret ched
aint ies
Ġbeg otten
ĠMar cell
ĠU nd
Ġrep ay
Ġrep ast
Ġrep ossess
Ġrep lies
Ġrep rove
Ġrep rieve
Ġent hroned
Ġbest ows
Ġgl or
Ġbra ch
Ġtra p
Ġtra il
Ġtra ined
Ġtra ders
me ant
Ġind ul
Ġind ex
Ġind uced
Ġta ffeta
UR T
ne ys
Ġtong ueless
Ġsm ear
Ġsm ote
tend er
Ġfort ress
Ġfort itude
Ġplay er
uth ority
Ġcons ign
Ġch ins
Ġch oughs
Ġco b
Ġgu erdon
Ġpre m
Ġpre jud
Ġpre medit
Ġtri ple
Ġeye balls
Ġmean ly
Ġgi bes
ĠPr otector
ĠPr incess
ĠSt orm
ens es
Ġcur bs
Ġsub t
Ġfaith less
Who ever
UT IUS
ati ves
ati vo
ab ond
ab lished
ĠGentle woman
Ġacc ents
Ġbes eems
ĠMAR TEX
GAR ELON
Be gin
Ġpra bbles
Ġdisc ours
Ġdisc laim
Ġdisc arded
ple asure
Ġpe opled
Ġmis g
Ġmis used
Ġmis pla
Ġmis begotten
Ġsl ime
Ġi vy
bl in
bl ie
pect ive
air ing
ĠAl ps
ĠAl ready
Ġmo ans
Ġyouth s
Ġhapp iest
Ġnear ly
gu ise
Ġbo iling
Ġfe es
Ġwind ing
Ġsound ing
Ġstri kest
ild s
ap able
Ġinst all
de vil
Ġhorse man
ĠServ ilius
Ġfore tell
itt i
Ġprom ising
ken bury
Ġcra w
Ġcra cks
Ġprove nder
Ġtalk est
Ġcoun cils
Ġhard ness
Ġaw kward
Ġwant eth
Ġgre ed
Ġstra ws
Ġmet aph
Ġcomfort less
Ġvo cation
com mand
Ġsupp osition
Ġwa vering
Ġdef ile
Ġdef aced
Ġdef ences
Ġdef ault
Ġfound er
Ġwear ied
Ġcast s
Ġpity ing
Ġknight ed
Ġdist il
Ġdist ant
Ġwin ner
ĠWarwick shire
Ġmark ed
Ġcar bon
Ġcold er
Ġcold est
ott ish
Ġtend ed
BO URBON
sh ining
Ġair s
Ġgracious ly
Ġsit u
Ġpar amour
ĠAr ragon
Ġdisp ut
Ġsk ins
bed ient
Ġrec ourse
ices ter
Ġbat hed
Ġcor mor
Ġfit ly
ĠPro f
Ġposs ibly
Ġgall iard
Ġem ulous
Ġem inence
ĠQU INTUS
Ġac orn
Ġpoint ed
peak able
Ġrequ ited
urt hen
Ġdiv ines
Ġinc urable
Ġinc onstancy
Ġmove ables
Ġsign ories
ĠDe ep
Ġvis ible
Ġspeed s
Ġshort ness
Ġsur render
Ġpret end
nds ome
Ġemb ossed
Ġweak est
pr oud
Ġdeli very
Ġbehold ers
Ġext ol
Ġprov ince
Ġtraitor ously
Nor thumberland
Ġvaliant ly
Ġsat in
ĠFl oriz
ĠPer form
Al beit
Thy self
pl us
Ġsport ful
Ġunt rue
Ġunt ruth
Ġreg reet
ADO W
Ġwild est
Ġlow liness
ĠLUC ETTA
Ġfra gments
ĠPl ain
ĠChrist opher
Ġlaugh s
ĠTy rian
Ġadm onish
ator ies
Ġba ited
Ġang ers
Ġenc amp
Ġorder ing
Ġag rees
Ġag reement
Ġap ople
Ġut ters
Ġsim iles
Ġble w
sp ent
sp ort
Ġexcellent ly
su it
su ivant
Ġign omin
vo id
vo kes
Ġsn atches
Ġrob bed
Ġdepart ing
wor m
wor ms
Ġchance llor
Ġgod ly
Ġgod like
Ġvirtuous ly
ĠTroy an
Ġvow ed
Ġbreed er
Ġcardinal s
Ġforget fulness
Ġflatter s
Ġflatter ies
Ġyear n
Ġhealth s
Ġperform ed
Ġround s
Ġround ed
Ġdu g
Ġele cted
icul ar
Ġblind ed
Ġmed dling
Ġcred o
Ġmut ually
iv ants
ĠInd ies
Ġdefend ant
ĠRo chester
Ġsharp ly
Ġpet ter
Ġdrunk ards
Ġgross er
Ġpun k
ys imachus
Ġswift ness
Ġstor my
Ġref er
Ġref lection
Ġver iest
Ġstruck en
;' --
Ġinv incible
Ġviol ation
jo hn
jo ining
Ġpin n
Ġrevol ve
Ġrevol ting
Ġlarge ly
ĠQu estion
Ġfig s
Ġbare foot
ĠServing men
mo on
mo ving
Ġhor rors
Ġsmo king
Ġsilence d
Ġapproach ing
Ġod our
Ġbount ies
ĠSe est
ĠSe leuc
Ġbuck ler
Ġhunt ed
Ġbetray ed
fl ow
Ġkna veries
Ġcat ches
Ġdishonour able
Ġlangu ages
ey es
ĠCount ry
Ġflower y
ault s
Ġant iquity
Ġfirm ament
ĠHold s
Ġcomb ined
Ġunp aid
Ġunp repared
Ġsmell ing
Ġlean ness
Ġdespair ing
Ġuns peakable
Ġwarm th
cri bes
Ġmild er
Ġthick est
Ġisland s
Ġsearch ing
Ġvar nish
Ġspec ify
Ġprophe tic
Ġtempt s
Ġdig ested
Ġconstant ly
Ġcrack ing
Ġsore ly
Ġcam el
ĠST ARVELING
ĠBar net
Ġhabit ation
look ing
ĠX II
Ġbuild s
Ġing rate
Ġesteem ed
Ġwreck ed
ĠCal purn
Ġsentence d
Ġwat ches
Ġstab bed
Ġsuper f
Ġsav ages
ĠEdm unds
Ġunkind ly
ib al
Ġder o
rib ution
Ġcloud ed
Ġimm ured
Ġfamiliar ity
Hear d
Ġpat ched
Ġrock y
Ġcuckold ly
Ind uction
Ġscept res
Ġpier ced
Ġbew ray
Ġviolent ly
Ġsanct ify
Con vey
Ġdumb ness
Ġinform ed
ĠEn vy
ĠMarch ioness
Ġboast ing
Ġpill age
ĠTr oth
Ġexped ience
co ast
Ġvol umes
Ġconsul s
Ġaffli ctions
Ġbot ch
Ġdeb ase
Ġundo ing
Ġreckon ings
Ġbull s
Ġcla pper
Ġunfold ed
Ġburt hens
ĠKent ish
Ġev ident
Ġstret ched
Ġcreep s
ĠRet ires
Ġunse al
app ointed
Ġshoot ing
Ġgoddess es
long s
omen es
Ġplant ain
Ġoak s
ĠTurn s
ĠPO ET
Ġadvent urous
ĠBER KEL
ĠMe an
ĠEL BOW
Ġbill ow
Ġbelong ing
Ġhelm ets
Ġtut ors
Ġwest ward
Ġbur gon
Ġbag pipe
ĠRep air
Ġraven s
Ġrust ic
ĠBear ing
Ġremorse ful
Ġir reg
ĠBra kenbury
Ġancest or
Ġancest ry
ĠAntip odes
Ġmask ed
Ġunm atcha
mbl est
Ġtum bling
Ġtum bled
Ġfret s
Ġfret ting
Ġflat ly
Ġcurrent s
CAN ES
Ġbru ising
Ġnon ny
Ġnon ino
ĠPho enix
Ġvenom ous
Ġserious ly
Ġprodig y
Ġconven ience
ĠStep hen
Ġnet her
Ġnet tles
ĠSm all
ĠHy perion
Ġrend ers
ĠLY CHORIDA
Ġamend ment
Ġclerk ly
Ġtick led
Ġtick ling
Ġhy perbol
echer y
Ġindign ities
reg ious
Ġtax ation
Ġsurfeit ing
Turn s
ĠMon ster
Ġsuperfl uity
ĠBan ish
Ġexerc ises
Ġwrink le
gentle woman
Ġnap kins
ĠCASS ANDRA
Ġeverl astingly
Kne els
Ġtea m
ĠAL CIBIADES
ĠFL UTE
thought s
Ġoutra ges
Ġfrost s
Put ting
Ġhaw king
ĠWh itmore
ĠPhil omel
Ġspark le
Ġbache l
Ġcong eal
Ġconver ted
Ġimped iments
Ġprophet ess
Ġsubscri bed
Ġbelie ving
Ġpul pit
Ġrheum atic
Ġconfeder ate
Ġaccom pt
Ġaccom modated
Sha me
ĠSleep s
ripp le
Ġsubstit utes
Ġaffright s
Ġattain der
Pl antagenet
Ġhack ed
ĠRes olve
Ġundert ook
Ġmajest ies
Mar cius
part ed
wear y
Ġpos itive
Ġroll s
Ġlar ger
Ġspell s
ĠBour bon
Ġupbra ided
Ġdiso bey
ĠBull en
ifer ous
Ġabund ant
Ġconsist s
Ġconsist ory
Ġdetest able
Ġcro cod
Ġgains ay
ĠLea nder
ĠLea ving
Ġimpud ence
Ġprett ily
ann ibal
Ġmuff ler
Ġimit ation
Ġtransform ation
char ge
Ġped igree
Ġsear ched
ĠStran ger
Ġbuzz ing
Ġinterchan gea
Imp rimis
Ġaut hent
Ġvict u
Ġrig orous
Ġadul ter
Ġimpart ial
Ġbuff ets
Ġdistin ctly
ĠComm odity
ĠSyracus a
Ġenfranch ise
Ġenfranch ised
Ġenfranch isement
Ġbaw cock
Ġlac keys
ĠAdv ance
ĠParthi an
Cor iol
Cor rupt
Ġdit ty
Ġfulf il
Ġcovetous ness
Trump et
Ġdr one
ĠSomet imes
Ġmeek ness
Ġscra ps
Ġindent ure
Ġgreyh ounds
Ġtumult uous
Ġprim rose
Ġgeld ed
ĠDest inies
Ġuphold s
Ġgriev ance
Ġmemor able
Him self
sold iers
Ġire ful
ĠAf ric
ĠCob ham
Ġsinew y
bod ing
break er
Ġdom ine
Ġdwar f
Ġbellow s
Ġconject ure
Ġchoo sing
Sub d
Supp ose
Ġpru dent
ĠPir ate
ĠPir ates
Ġnost ril
ĠDor icles
Ġendow ments
Ġprofan ed
Ġbasilis k
Ġbasilis ks
Ġhunts men
ibel an
ĠCORN WALL
ĠCORN ELIUS
ĠAmbassad or
ĠAmbassad ors
gor as
vis aged
Ġniggard ly
Ġmechan ic
ĠPatri cian
Ġswagge rers
Ġcoven ants
Ġpredomin ant
Knock ing
Somet ime
Suff olk
Ġtang le
Ġapr ons
Ġmater ial
Ġinve terate
ĠCON RADE
ĠMel un
berd asher
Ġglim mer
Ġmispr ision
ĠProd igal
Ġundes erved
Ġcounterpo ise
ĠConspir ator
Fri ars
tha goras
Ġhero ical
ĠArab ia
ĠSec retary
Ġvest al
Ġcann ons
ĠAdrian a
Ġquarre lling
Ġrebu kes
double t
Ġnin eteen
Ġpau ca
rav ate
ĠMas ham
Ġspright ly
Ġfab ric
Ġvag abond
Ġbrist le
Ġunpe ople
Ġdisfig ure
Ġpassen gers
Ġinfring e
ĠExecution ers
ĠPhryg ian
je ctions
Ġsou rest
Ġhoof s
ĠMus co
ĠPed ro
Ġlethar gy
ĠBew are
ĠAnth ony
Ġsentine ls
Ġexpost ulate
ĠSpart a
CL ITUS
Cle opatra
fri ends
woo ing
Ġagg ravate
Ġfli ers
Ġthres hold
Ġgam ut
ĠBay nard
ĠBrand on
Ġlif eless
Ġvic ar
Ġrab bit
Ġindict ment
Ġtapest ry
Ġnatura lly
Ġconfir ms
Ġintercess ion
Ġhomic ide
Ġshamef ully
ĠCrisp ian
Ġsout hern
Ġbust le
Ġpend ent
ĠGuards man
Ġperfid ious
Ġhabil iments
AUGH AN
GRA VE
PUR NIA
Ġmalm sey
Ġbened iction
Ġferv or
Ġtootha che
Ġgaw ds
leter re
Ġforci bly
Ġerew hile
ĠHallow mas
ĠCicer o
ĠCris pin
ĠEls inore
ĠEuri phile
ĠPic ardy
ĠLiby a
ĠGard iner
ĠGasc ony
ĠGaol ers
Ġvener able
Ġcomfor ter
Ġsaff ron
Ġunavo ided
ĠJOUR DAIN
Ġscabb ard
ĠMarcell us
ĠMARTEX T
Ġmetaph or
Ġcormor ant
ĠFloriz el
ĠSeleuc us
ĠCalpurn ia
ĠEdmunds bury
ĠBERKEL EY
Ġburgon et
Ġunmatcha ble
Ġcrocod ile
Ġinterchangea bly
Ġauthent ic
' :
A pollo
B old
B lack
B ened
B LUNT
B eneath
C o
C am
C upid
C rier
D uke
D ian
D isp
D oubt
E r
E ITH
E PILOGUE
F ell
F ast
G one
H ead
H ortensio
I LOT
K ind
K ate
K athar
K isses
L ess
M on
M ad
M ock
M onsieur
M oonshine
N ear
O pp
O bs
O bey
P our
P hi
P ast
P lead
P UBLIUS
P ATIENCE
R ome
R ising
R enowned
S il
S oul
S orrow
S its
T r
T oward
T ranio
T owards
T rans
W atch
W orse
W ork
W oe
W ords
W omen
a ving
a cted
b orrow
b uck
b ub
b ecause
b read
b reed
c ot
c atch
c rant
c ote
c ocks
d ead
d eal
d uck
d isp
d inner
e ze
e ban
f ac
f rey
g her
g ree
g ne
g eneral
h ook
h ound
h urt
h ung
k nowledge
l as
l ude
m ill
m asters
n est
n ose
p a
p ainted
p othecary
r hy
s pe
t uned
t owards
u ing
v ir
v all
w on
w est
w atch
w ives
w ench
w hom
w hose
w alls
w rite
w rong
y es
y ed
y ours
¦ ç
« ç
¿ ç
å ª
å ¬
å ¶
æ ¤
æ ª
æ ¹
è ½
é ¥
é ¨
é ¯
é µ
é ·
é ī
é į
é ĺ
é ŀ
Ġ .
Ġ ]
Ġ ides
Ĥ ç
ĳ ç
ĵ ç
ĸ ç
Ġt am
Ġt ish
Ġt ub
Ġt iny
he ed
he ir
he aven
Ġa ches
Ġa lac
ou lly
Ġs ce
Ġs urn
Ġs ieve
Ġs ainted
Ġs ighed
in est
in ion
in ations
Ġm es
Ġm oult
re qu
Ġw ider
Ġw reak
Ġw ilfully
ha ving
Ġb rev
Ġb ough
Ġb ier
Ġb inds
er p
or c
or ing
ll ey
Ġf ade
Ġf ines
Ġf idd
Ġf iles
Ġf aded
Ġf ighter
Ġf oully
en crant
it ar
it ation
es pon
ĠI nter
Ġc ore
Ġc ive
Ġc ic
Ġc ub
Ġc ashi
Ġc ocks
Ġc itizen
Ġc ripple
Ġd um
Ġd uring
Ġl ots
Ġl ids
ar ibel
Ġp ad
Ġp ool
Ġp ew
Ġp anc
ot che
om modated
st e
Ġg y
Ġg um
Ġg nat
Ġg ashes
at swain
ĠA US
ĠA bs
ĠA unchient
Ġbe ho
Ġbe ak
Ġbe thought
Ġin sc
Ġin com
Ġin ev
Ġin vocation
ĠT ri
ĠT ear
ĠT aking
le on
le ft
Ġha vior
et her
ĠS ol
ĠS uccess
ut ions
ut iful
im b
ch ion
ch os
ĠW ea
ĠW oo
Ġfor d
Ġfor feits
Ġe we
ent ion
ĠH ome
ĠH annibal
ra ham
Ġst agger
Ġst alls
as ant
as hed
ri ves
ri ety
ĠB as
ĠB ound
ĠB orachio
al most
Ġre eking
ĠC her
ĠC ho
ĠC IM
ĠC ASCA
ĠC oun
Ġso bs
Ġso othe
ĠM o
ĠM end
ĠM other
ĠM ass
ĠM utius
ĠM ardian
ĠM ordake
Ġas pic
Ġas cends
Ġli cent
ver ted
ur rent
ro ar
ro yal
ro phe
ĠE xt
ĠE mp
ĠE xton
hi gh
ĠL ig
ĠL ysimachus
am on
am iliar
am inius
Ġsha res
ck ing
est ine
ĠN ort
ĠF ate
ĠF la
ĠF au
and y
and ers
Ġbut ton
Ġde ci
Ġde ities
Ġno ises
th ro
th ine
th rough
ER O
Ġsu ps
Ġse mb
Ġall ure
ĠG or
ĠG ol
ĠG iven
Ġlo sers
ru led
ru ns
Ġsp her
Ġsp ong
Ġsp ouse
Ġv ital
ard o
ast rophe
ry ing
ĠD ay
ĠD ew
ĠD arest
Ġsh one
Ġsh ins
ant le
qu een
Ġwhat soe
Ġcom pt
out ing
Ġpr isons
Ġwhe reat
ĠR ose
ĠR oss
ĠR uns
ĠY on
Ġcon join
Ġshe nt
ul s
Ġsw ath
Ġsw oln
Ġbl ithe
Ġbl ocks
Ġca ble
Ġcan kers
em en
Ġor ators
Ġor atory
ĠV illains
fe e
IC ERO
Ġus est
la b
la bour
ish onour
reat ures
um el
Ġqu oted
Ġj ur
ĠNe ws
Ġr ar
Ġr ow
Ġr isen
Ġun pleasing
Ġdis semb
Ġdis quiet
Ġho lla
un k
Ġpart is
Ġpart icip
Ġtru ll
Ġgra pe
Ġhon oured
all ows
Ġpo ets
Ġpo esy
Ġhand maid
Ġhand kerc
Th ought
au f
Ġwho e
Ġwho so
ist ing
ick s
Ġey eless
Ġpl aster
har ge
ĠK ills
ĠK nows
Ġfo ppery
ĠFor s
ĠFor ces
Ġmar row
ber us
Ġen amour
Ġex pose
Ġex hal
Ġex posed
Ġex orc
old en
Ġdes k
Ġdes cends
Ġblood ily
Ġra ke
Ġra rer
per or
per form
ak ings
Ġcomm erce
Ġper ch
Ġper verse
Ġper pend
ren ched
Ġad j
Ġad ored
Ġad judged
land ers
Ġsc ab
Ġsc enes
Ġsc urril
Ġke el
Ġla ure
che que
ag ant
Ġstand est
Ġcomp le
Ġdown ward
Ġarm ing
Ġpres cription
Ġpres cript
Ġim posed
Ġcha me
You th
Ġcont emn
Ġcont aminated
Ġcont umel
ĠSo oth
Ġhar b
Ġbeg one
Ġnew est
Ġrem ission
os h
men cy
EM ID
Ġkeep est
Ġkeep ers
for ms
Ġbra ving
eth on
eth ink
ne ck
Ġfort ified
int ell
Ġcourt ezan
rant s
be aten
Ġserv itude
Ġrest less
Ġco gn
Ġpre ach
Ġtri ce
the st
Ġle ans
ĠSt ain
ĠSt rat
ĠSt raight
ĠSt arve
Ġpal frey
Ġcur ate
Ġcur led
Ġdra ve
Ġsub stantial
ĠDo ing
Ġbid es
Ġover charged
Ġover flow
Ġtre asures
ab ble
Ġbes eeming
Ġhusband ed
GAR IUS
Be at
Ġmon keys
Ġfal chion
Ġimp re
Ġimp ost
Ġimp iety
Ġjust ified
Ġpe pp
Ġsl ide
Ġsl umbers
Ġsleep ers
Ġval orous
Ġval idity
Ġmaj or
ĠAl ice
fort unes
ENT EITH
vere nt
Ġlast s
Ġwind ed
vers ary
Ġhelp ed
Ġhelp ful
Ġstri pes
Ġunc onstant
Ġunc haste
Ġsaw s
Ġrun n
Ġfore most
Ġfore father
Ġsla very
Ġsing er
Ġsing led
Ġpurpose ly
ĠSh ort
Ġdoubt fully
Ġvo lley
com mend
Ġsupp lies
Ġsupp lication
St ood
Ġdef ied
ĠOur selves
Ġfur row
ĠCle omenes
Ġsil ks
Ġwin now
vour y
lo ves
Ġwarrant ed
Ġcond ole
Ġsin n
Ġsin ner
Ġcar pet
Ġtend ing
Ġter ribly
Ġpar as
Ġpar ado
Ġdisp arage
no inted
Ġrec ords
oward ly
ceed s
Ġmin cing
Ġmin ority
Ġforg es
Ġten ants
Ġexp ound
Ġexp ire
az ing
Ġac res
Ġprof essed
ĠCom ing
Ġdeep est
ĠGl amis
Ġinc ite
Ġinc ertain
Ġatt ract
Ġatt ribut
Ġvis ages
Ġfast s
Ġsur gery
Ġsur feits
ĠCh iron
Ġplain er
Ġdro pping
Ġemb races
pr ison
Ġext ent
Ġext ant
Ġblack ness
ĠFl ute
ĠFl aminius
An swer
ĠAb raham
Ġguard ian
pl uck
ip ho
Ġpluck ing
empt ed
Ġrespect ive
Ġfeel ingly
Pro f
Ġmount eban
!-- '
Ġoffer ing
Ġoffer ings
ĠANT ENOR
ĠCass ibelan
ĠOut side
Ġlordship s
Ġpriv ily
ĠCl aribel
Ġsever ity
Ġmot ives
Ġchur ches
Ġjo ined
ĠVer ily
Ġhost ile
Ġhost ages
ĠLove l
ĠSc y
ĠSc arce
Ġsim ples
Ġcr isp
Ġcr utches
Ġcr otche
Ġbeard ed
Ġpit ifully
under stand
Ġlan k
Ġprev ails
Ġeffect ual
Ġsn akes
Ġsn ores
alt ies
Ġbow ls
Ġgod head
Ġer ring
ĠSil ver
Ġneigh ing
ĠEx pect
but ton
ĠLuc y
con ce
con ceived
Ġhorn ed
sa voury
Ġcounter mand
Ġele ct
Ġele phant
Ġwhore master
Ġview ing
Ġblind ness
Ġsort ed
Ġstar ing
Ġdull er
Ġpain fully
Ġproper ties
Ġsland erer
entine ls
vell ing
Ġdec re
Ġdest ined
Ġjoin er
Say s
Say ing
Ġsuccess ful
Ġur ch
Ġconce its
Ġleg acy
Ġequ ity
go ing
Ġdelight ed
Ġinj ured
Ġeld ers
Ġthro es
Ġembrace ment
Ġdeal ings
ĠSp anish
Ġcunning ly
say s
ĠQu ar
rim ony
Ġthreat ened
Ġrans ack
Ġvictor ies
Ġfinger ing
Ġbright est
Ġreve al
mo oth
Ġhor sed
ĠHear t
Ġkneel ing
bb ing
Ġperfect ly
po le
Ġsens ual
Ġbas in
Ġdign ified
Ġsheep s
Ġcounterfeit ing
Ġgrand mother
Ġbuck lers
Ġfruit less
Ġsqu ires
See king
Ġweigh ing
Ġprofess es
Ġcat astrophe
ĠCon rade
she pherd
ĠPo et
Ġunha ndsome
isc o
ĠKeep s
Ġcustom s
Ġcustom ers
Ġshut s
ĠBl ush
val ued
Ġflower ing
ĠHold ing
acher s
Ġschool s
Ġbab oon
att ered
Ġdisple ase
Ġuns k
Ġoutward ly
Ġboot y
Ġtedious ness
Ġimper fect
Ġtempest uous
Ġthrust ing
ĠBo atswain
Ġung overn
Ġsan guine
Ġfin ished
Ġpick le
draw ing
ĠRem uneration
Ġtrif ling
Ġvessel s
ib als
ib ilities
rib es
ĠPut s
Ġamazed ly
Hear ing
Ġpat ent
Ġpat rimony
Ġchair s
Ġcock le
ĠLo vers
Ġcuckold s
Ġwag ging
ĠTIT INIUS
Ġmerc en
Ġstat ute
ez vous
Ġherald ry
Ġodd ly
Ġvol uble
Ġmisc reant
Ġmass y
Ġcla ps
Ġbanquet ing
Think ing
Ġev asion
Ġappet ites
Ġblus hed
Ġflow ing
blood ed
Qu ite
Ġfil ch
Ġfront s
Ġpeas cod
Ġnephe ws
Ġaccus er
Ġsoci eties
ĠRep ly
new s
Ġtravell ing
Ġmill ions
bes eech
Ġbon fires
Des p
Des ires
ĠAcc ursed
ĠFRANCIS CO
Ġvillan ies
Ġgru d
Ġnon pareil
Ġspurn s
Ġfever ous
Ġschol ars
Ġlap wing
Ġgrat itude
Ġdrunken ness
ĠPol onius
Ġdem ure
Ġestim ate
bon ius
Ġfan gs
ĠConf irm
pro ve
Ġsuffic iency
ĠCapulet s
tell ing
ĠCry ing
Ġmanif ested
Ġbarbar ism
Ġclean ly
voc ate
Ġdistress ful
Ġdecay ed
Ġconceal ment
sha pen
Ġbere ave
Ġspect ators
ontin ued
Ġaddition s
gentle men
Ġslipp er
Ġbul wark
Ġobtain ed
Kne el
Ġtea chest
gra ss
Bear ing
Ġcong ealed
Ġcozen ing
Ġcozen age
Ġtaint s
Ġdiff ic
Ġdiff ers
Ġbelie ves
bel ieve
Ġchamp ions
Ġlun acy
ĠGhost s
Ġdiet ed
Ġsimpl eness
Bl ood
Sha ke
Sha llow
know ing
Ġrat ify
Ġrat ified
Ġunre ason
Ġaffright ed
Ġenchant ed
Eng lish
ĠCorn ets
Ġlikelihood s
Ġextreme ly
Ġmedit ations
Ġesp ouse
Conf irm
Ġdevour ing
Ġplent iful
Ġindifferent ly
Ġconspir ator
Ġmat ron
Ġpant ing
Ġwhet stone
Ġmaidenhead s
Ġmor ris
ĠTha liard
ĠEm peror
Ġhunter s
scap es
ĠVAL ERIA
cer ning
inst ru
Ġeff usion
Ġkern el
Ġdol our
Ġdol ours
ma j
Ġspar rows
Ġblank et
Ġdesc ry
Ġmete or
Ġmort ified
Ġfathom s
ĠOver done
Ġrig or
Ġcompet itor
Ġeloqu ent
Ġsurm ise
Ġsurm ises
honour able
Ġwra p
Ġfre qu
Ġdul ness
ĠBest ow
ĠAdv ise
Pur sue
af fection
Ġpud ding
Ġescap es
Ġsol id
Ġsepar ation
Ġabst inence
Ġindent ures
turn ed
ĠIm mediately
Ġpoo rer
Ġthwart ed
ĠHum bly
Ġswe ats
ĠThrow ing
Ġjar ring
Ġinsinu ating
Ġmurm uring
Ch rist
Ġwithhold s
ĠPha ethon
Ġconsec rated
Ġtrun ks
Ġgaunt let
Ġadvertis ement
Le on
sold ier
Ġtilt ing
Ġfet ches
Ġnurs ing
ĠGrand am
Ġvac ancy
Ġcontrad iction
Sen net
cond uct
Ġdon ation
Ġlux urious
ĠEmb race
Ġdemean or
Ġconject ures
Ġexhi bition
Ġchoo ses
Ġpreposter ously
Ġgrate ful
Ġdetermin ate
Ġunluck y
ĠBrabant io
Gu ard
Wh ispers
Ġster ile
ĠHop kins
Ġanat omy
Ġharp y
Ġintercept ed
Ġdishon esty
Ġdemonst rate
Emb race
erfl ow
Ġfust ian
Ġyo ked
Ġpip es
seem ing
Ġmechan ical
ĠWit ches
ĠPatri ck
Ġlog ger
Ġwasp ish
Ġglut ton
Ġcoven ant
Ġdaunt less
ĠPe ople
Ġhoar se
ĠAEd ile
ĠAEd iles
crown ed
tri ck
Ġpea cock
ĠCertain ly
Touch ing
ĠSouth wark
Den y
mel ancholy
Ġcres cent
Ġhagg ard
Ġforn ication
ĠPy thagoras
ĠOlymp us
ĠVol umn
ĠThought s
Ġexter ior
Ġappli ance
ĠCommon er
Ġsuperstit ious
Ġdimin ut
Pet ruchio
Ver ily
bur nt
sil ver
Ġpon iards
ĠTre bonius
ĠDat chet
ĠRos encrant
Ġconsum mate
Ġmisconst ru
Rosal ind
gr ound
necess ary
Ġump ire
ĠHell espon
ĠMER CUTIO
thous and
Ġupl ifted
Ġbris k
Ġquir ks
overe ign
Ġadult eress
Ġunthank fulness
Ġtransl ated
ĠBenedict us
Ġfantas ies
Ġpredecess ors
Ġlarg ess
Laun celot
grand father
ictor ious
Ġmong rel
Ġenri ched
Ġcarbon ado
Ġapople xy
Ġdero gate
Coriol anus
ILOT US
Phi lip
hung ry
Ġalac rity
Ġcive t
ĠAUS TRIA
Ġincom parable
Ġinev itable
ĠCIM BER
Ġlicent ious
ĠLig arius
ĠFla vius
Ġdeci pher
Ġsemb lable
Ġspong y
Ġchame leon
EMID ORUS
ĠStrat o
Ġparado x
Ġcrotche ts
ĠRosencrant z
ĠHellespon t
, -
A Y
A gain
A ff
B ar
B OTH
B iron
C ar
C rown
C arry
C ursed
C lerk
C ATE
D el
D eep
D romio
D VILE
E ar
E st
E ros
E CR
F ellow
F ulvia
F ASTOLFE
G row
G all
G rand
G irl
H ie
H oly
H umphrey
H untsman
J ew
K nows
K nocks
L ed
L ack
L aw
L adies
L orenzo
M al
M ong
M el
M oney
M arried
M ICHAEL
M ELUN
N er
N AR
N IUS
O O
O PH
O DOVICO
P rom
P la
P ass
P ier
P less
P eter
P oint
P uts
R est
R ef
R IST
R uns
R oyal
R PINGHAM
S l
S eems
S uccess
S ELEUCUS
T ha
T ears
T ween
T rib
T hersites
T reason
T ongue
V ia
V ARRO
W ar
W ind
W onder
Y S
a en
a ress
a urs
b ain
b oth
b ears
b ew
b els
b ush
b itten
c la
c row
c ats
c eness
c ensed
d n
d on
d oth
e b
e ing
e xec
f ind
f ree
f ought
f east
f urther
f actors
g ro
g ies
g ings
g old
g eth
g ates
g ross
g raced
g atories
h ort
h ings
i athan
i avel
j ury
j ealous
k ings
l oo
l ife
l ots
l uce
l cer
m eet
m per
m istress
m ined
m ethinks
m easure
m onst
n na
o om
p ath
p ond
p ate
p ice
p ict
p ointed
p aced
p raise
p owder
p raised
p retty
p romise
r can
s ad
s al
s man
s ult
s omething
s olus
t en
t ro
t ail
t els
t sey
u an
u ly
u led
u ades
v ill
v ings
v ors
v ied
w ent
w inds
y the
y rs
y nna
z ine
z water
µ ç
¹ ç
ç «
è ¥
è ĺ
é ª
é ®
é °
é Ĳ
ħ ç
Ġt i
Ġt out
Ġt een
Ġt iring
he ims
Ġa z
Ġa ce
Ġa venged
Ġs ite
Ġs ip
in ny
in que
in ado
in itive
Ġm am
Ġm ice
Ġm ush
Ġm idsummer
Ġm athe
re ast
re asure
Ġw ield
Ġw rench
ha ea
ha zar
nd om
Ġb ats
Ġb orough
Ġb ien
Ġb unch
Ġb acon
is le
is ly
is ions
is dom
is hable
er ard
er men
er ween
er board
er grown
or ld
or um
Ġf r
Ġf ad
Ġf ost
Ġf ife
Ġf ring
Ġf ined
Ġf ub
Ġf ated
Ġf ang
Ġf ume
Ġf ug
Ġf reck
Ġf ranch
Ġf laws
Ġf ading
Ġf owls
Ġo ars
Ġo ped
Ġo tter
it ied
es per
es seth
ĠI mm
ĠI car
Ġc e
Ġc ind
Ġc ite
Ġc ats
Ġc amb
Ġc ertes
Ġc laws
Ġc ooled
Ġd ing
Ġd ad
Ġd out
Ġd ough
Ġd uch
Ġd ues
Ġd umps
Ġy ell
Ġl unes
Ġl ash
Ġl aud
Ġh ight
Ġh ull
Ġh ulk
on is
on er
Ġn om
Ġn ag
Ġn aming
Ġn ameless
ar let
ar ling
ar bon
Ġp orn
Ġp ia
Ġp ens
Ġp ork
Ġp onder
Ġp ined
Ġp oop
Ġp aced
Ġp ash
Ġyou nk
Ġto ll
Ġhe ifer
an ery
ot est
ot hed
st ar
st all
Ġg in
Ġg en
Ġg at
Ġg ard
Ġg la
Ġg enius
Ġg lib
at al
at ine
at ical
ĠA ch
ĠA gue
Ġin se
Ġin ns
ĠT u
ĠT ours
ĠT YRREL
ĠT ucket
se us
ce it
le ven
le my
le gged
le af
Ġha llo
Ġha utboys
ld ren
ed ing
ir o
ĠS ick
ĠS ty
ĠS op
ĠS eal
ĠS LY
ĠS ix
ĠS ax
ĠS itting
ĠS aid
ĠS icy
ĠS ANDS
ĠS eeming
ĠS ELEUCUS
ĠS ummon
ĠS AY
im y
im bol
ch rist
Ġnot ing
Ġnot hings
gh ter
ea ping
ill ius
ĠW he
ĠW ent
ĠW ork
ĠW rench
ĠW ye
ĠW arder
Ġfor k
Ġfor cible
our sed
Ġu lcer
Ġwe an
Ġwe ird
ĠH ot
ĠH ush
ĠH usband
ĠH esper
id ian
her d
ra g
ra ins
ra ining
ra ded
Ġst an
Ġst eter
ad v
as us
as hy
ri ls
ord ers
ĠB et
ĠB ind
ĠB uck
ĠB ade
ĠB ERN
ĠB LANCH
ĠB ecame
al ph
al bain
Ġre ed
Ġre el
Ġre li
Ġre eds
Ġre eling
Ġre voke
Ġre ctify
ĠC ot
ĠC hes
ĠC ross
ĠC up
ĠC umberland
ĠC ros
ĠC hange
ĠC uts
ĠC ANTERBURY
ĠC elia
ĠC INNA
ĠC rab
ĠC lerk
ĠC uckoo
ge ia
IN COL
Ġso dden
Ġso rel
Ġon ion
ĠM am
ĠM OR
ĠM ach
ĠM oney
ĠM AMILLIUS
ĠM odest
ĠM erely
ĠM ELUN
ĠM istake
Ġas p
Ġas ks
Ġas semble
Ġli z
Ġli ghter
ver gne
ro b
ro asted
ro oted
ĠE lt
ĠE RPINGHAM
ĠP at
ĠP ig
ĠP ick
ĠP ap
ĠP ause
ĠP uff
ĠP LANTAGENET
hi c
hi pp
ĠL ent
ĠL ose
ĠL ittle
ĠL aw
ĠL ament
ĠL ODOVICO
ĠO t
ĠO v
am o
am ant
am age
am sel
us est
Ġsha ck
Ġsha ring
ĠThe ss
ess ible
ĠN inny
ĠN arbon
ion ed
AN CE
ous ing
ĠF ame
ĠF led
ĠF aint
ĠF ury
ĠF oh
ĠF ASTOLFE
Ġde anery
if s
Ġno ont
Ġsu lly
ĠG il
ĠG row
ĠG RI
ĠG ram
ĠG LENDOWER
ĠG ADSHILL
ĠG enius
ĠG eneral
ĠG HOST
Ġlo ser
il n
il th
ru ce
Ġsp ice
Ġsp ares
Ġsp awn
Ġsp ruce
Ġfa ble
Ġfa ul
ear ly
Ġkn its
Ġkn og
art eer
ight on
ight ed
Ġv ou
Ġv ip
Ġv icer
Ġv ials
Ġv omit
ho les
rom ache
ĠD one
ĠD ue
ĠD rown
ĠD rew
ĠD ark
ĠD urst
ĠD aph
ĠD amn
ĠD irectly
ĠD anish
ĠD rawn
Ġman or
Ġman ors
Ġman acle
Ġman acles
Ġman nish
Ġne got
ant o
qu eller
Ġam ply
Ġcom eth
Ġmu l
Ġmu zzle
out ez
Ġpr or
Ġpr imer
ĠR ing
ĠR ide
ĠR ough
ĠR AM
ĠR ago
ĠR ape
ĠR heims
ĠR alph
Ġgo ble
ic an
own sman
Ġshe l
Ġshe ar
Ġshe dding
ers ha
Ġwas hing
Ġwas ps
Ġlove th
Ġsw earer
Ġbl anks
Ġbl ustering
Ġbl oom
Ġca sed
Ġca val
Ġca user
em on
Ġhat eth
ĠV ere
ĠV iol
ĠV ex
ĠV irginity
ĠV AUX
ĠV ARRIUS
ĠV AUGHAN
ol fe
ol ate
Ġar chers
Ġus urers
ort ing
Ġqu i
Ġqu and
Ġqu ire
Ġqu alm
ig est
Ġj aded
ĠNe vil
rev oc
Ġmay est
Ġr ook
Ġr ote
Ġr iseth
ere ts
ĠBut ts
Ġsa ble
Ġsa kes
Ġsa lly
Ġsa cks
Ġun res
Ġun king
Ġun acquainted
Ġdis sever
Ġho ping
un less
un ner
Ġout law
Ġout laws
ĠJ oy
ĠJ une
ĠJ udge
ĠJ amy
ĠJ uly
ĠJ arteer
Ġpro se
Ġpart ition
Ġpart aker
pe ian
Ġgra vy
RY NIA
row d
Th rust
Th under
Th omas
au ld
ff in
Ġwho ever
Ġwho soever
ist ingu
Ġma ze
Ġro ds
Ġlea sh
Ġal ias
Ġ1 4
Ġ1 5
LE ANCE
Ġfather ly
ough by
Ġpl aint
har m
ĠK nocks
ĠK imbol
Ġfo i
Ġab od
Ġab bot
Ġab hors
Ġab reast
Ġfri vol
ĠFor rest
ĠFor sooth
hen ish
ĠHe y
ĠHe brew
Ġmar king
Ġmar ring
Ġmar cheth
Ġtell us
Ġwhere as
ĠAs h
ave z
Ġen for
Ġen acted
Ġen fee
here after
Ġex ha
Ġex ult
Ġex action
RA VERS
ec aen
erv al
Ġdes ist
Ġdes iring
Ġfriend ed
ud ed
ud den
Ġra ndom
per ance
igh ing
PH ILOTUS
ak in
ak eth
to pping
ss us
TH E
Ġwr inging
Ġfear less
Ġri pens
Ġcomm iss
Ġcomm itting
ĠAN GUS
Ġson t
Ġad joining
Ġad amant
land er
Ġtr ots
Ġown ers
Ġsc ot
Ġsc aff
Ġsc oured
Ġsc aled
Ġsc ythe
Ġsc auld
For get
Ġwh ining
Ġapp ert
Ġapp each
Ġapp ease
Ġfl aming
ĠBe g
ĠBe gu
ĠBe hind
ĠBe ating
ĠBe ggar
ĠHow e
Ġwit less
Ġwit ting
ĠIn f
ĠIn v
ĠIn form
ĠIn jurious
sw oman
sw allow
sw orth
Ġbrother ly
Ġstr ays
Ġworld s
che w
op a
ag io
Ġstand eth
Ġstand ards
Ġcomp ounds
Ġcomp romise
Ġcomp osure
Ġname ly
Ġru gged
Ġarm ipotent
Ġcl oses
Ġcl osing
Ġcl utch
Ġcl ustering
Ġpres sed
Ġpres cience
Ġim b
Ġpla gued
Ġcha plain
ret s
ret ch
ret urn
ret ions
ĠNo ise
Ġcont ending
MAR ULLUS
MAR GARELON
Ġold est
Ġhar ts
Ġhar bours
Ġnew er
Ġnew ness
erc harged
ĠIs le
ĠIs bel
atter ing
Ġrem ark
ons o
ons ider
ons hire
ĠCa pet
os kos
ĠMar ried
ĠMar quis
ĠWho e
ĠU ng
ĠU rge
Ġend amage
He igh
Ġbest rew
Ġgl ances
Ġbra ves
Ġbra vest
ps y
Ġtra pp
Ġtra mp
Ġtra dition
me aning
UR US
ĠAnt e
In jurious
Ġset ter
Ġset tle
Ġput tock
UN O
Ġsm ith
Ġsm irch
Ġplay fellows
int ner
be at
be got
be ggar
UM NIUS
Ġsle ek
Ġcons erves
Ġcons umption
ile th
Ġrest ing
Ġrest ed
Ġrest eth
Ġrest rained
Ġrest itution
Ġpa c
Ġpa p
Ġpa w
Ġel m
Ġch ir
Ġch idden
Ġco here
Ġco vers
Ġgu ise
Ġgu iding
How e
How ever
Ġbring er
iz ance
iz zy
Ġmind ing
Ġres iding
Ġres ervation
Ġtri um
Ġtri als
Ġkind est
ĠAt e
Ġpass port
Ġgri pes
Ġchar ters
Ġle op
Ġmean ings
hard y
ĠPr on
ĠSt eward
ĠSt rong
ens ation
Ġpal er
Ġpal ter
Ġpal sy
Ġmeet ings
LUC ULLUS
Ġche ers
Ġcur few
Ġforth coming
Ġdra gging
Ġsub missive
Ġneed les
Ġover peer
Ġtre mblest
cl ined
Ġacc ost
Ġret ort
Ġret ail
ĠMAR CELLUS
Ġchan geable
Ġback ing
We ep
Ġvill ages
Ġdou bling
Ġhence forward
Ġass ailed
Be hind
Ġbod ily
Ġpra ins
ĠCaesar s
Ġea ves
Ġea sed
Ġdisc ords
Ġdisc retions
Ġimp et
Ġimp awn
Ġimp otent
ple ase
ĠGood w
Ġlight en
Ġpe pper
Ġpe bble
Ġmis like
Ġmis fortunes
Ġsl ugg
Ġi bat
bl est
ĠNor th
Ġbed ew
Ġbed lam
Ġlaw fully
ĠWill oughby
Where to
Ġdi able
SH ADOW
When ce
ĠAl mighty
Ġbus hes
Ġmer itor
ix ing
Ġmo ated
Ġmo vest
Ġhang ings
pen sed
Ġfar mer
Ġbu g
Ġbo b
Ġbo gs
ĠHer self
Ġhelp less
ĠRe ceived
ĠRe gent
Ġban ner
Ġban ns
ner able
Or sino
Ġgr ange
Ġgr isly
de v
Ġfault less
Ġsun k
Ġsun ny
Ġsun burnt
Ġrun aways
Ġfore war
Ġfore told
CO URT
Ġprom iseth
Ġprom otions
Ġspo ons
Ġden ier
Ġcra d
Ġcra ving
Ġcra mp
Ġcra zed
Ġread iest
Ġhard iment
Ġexce ption
Ġstra nd
ift on
ĠSh out
ĠSh ows
Ġdoubt ing
Ġroom s
Ġcomfort ing
mer ry
Ġsupp oses
St ep
St eal
St range
Ġwa res
Ġdef ine
Ġdef ace
Ġsorrow ful
Ġfoul est
Ġwear iness
Ġwear isome
Ġfur thest
Sir s
Ġsen is
Ġsad der
Ġsuff ra
Ġsuff ocate
Ġdist aste
Ġdist inct
Ġdist illed
Ġlear nt
Ġint imate
Ġmark ets
Ġwarrant s
Ġsin ners
Ġcar n
Ġcar ping
sh ows
Ġdream ed
now ledged
Ġtrust s
Ġdam m
Ġdam age
Ġdam sel
Ġfurther ance
Ġfurther more
Ġdisp osing
Tw enty
ale iro
Ġdel icious
Ġrec oil
Ġbar n
Ġbar ric
!' --'
Ġgrave l
Ġremember ing
Ġposs ibility
Ġgall ey
Ġgall ops
Go es
Ġcol ic
Ġcol ts
CAL ES
CAL PURNIA
Ġloved st
Ġperson age
Ġperson ally
Ġpast e
Ġexp end
Ġexp el
az e
ĠCom p
ĠCom plete
Ġwoo llen
Ġdeep s
Ġdiv ination
Ġdiv isions
Ġprot ract
Ġord ered
Ġest ablished
Ġinc on
Ġinc red
Ġinc apable
Ġatt est
Ġatt ainted
Ġexc uses
ĠDe v
ĠDe ipho
Ġvis its
Ġvis ions
ĠCor in
Ġspeed ing
Ġspeed iest
ĠCh oose
Ġdev ours
ĠTw enty
Ġweak ly
Our selves
pr ings
pr ithee
Ġthri ves
Ġext ir
Ġext ract
Ġprov ident
Ġglad ness
ĠFl int
Ġscorn fully
Ġappro ves
Ġappro acheth
ĠAb ate
ĠAb bot
ĠAb hors
Ġconst rained
Al ready
so ci
Ġbad ges
pl ight
pl ant
Ġsport ive
Ġund isc
Ġow ls
Ġunt ainted
ĠCy there
ĠCy dn
Ġcle arer
Ġstir rup
Ġprop agate
Ġforb idden
Ġdeliver ing
ang or
ang le
Pro sper
rel igious
ĠLUC Y
vol t
Ġbro om
ĠMore over
ĠANT IGONUS
Ġfra mes
Ġfra grant
Ġred uce
SIL IUS
Ġinter ior
Ġinter mission
Ġinter lude
Ġpriv acy
imon ies
ĠPl ashy
Ġmal aper
ĠCl ock
ĠCl ifton
Ġmot to
ĠPom peius
ĠChrist mas
Ġcase ments
Ġabs urd
ict ynna
ĠSay s
ĠVer ges
Ġhost ility
Ġba pt
Ġcross ing
Ġang ling
Ġship board
ider ius
raw l
Ġmist akest
Ġhundred s
Ġdread ed
Ġlim p
Ġlim ited
ĠSc ri
ĠSc orn
ĠSc ottish
Ġap ost
Ġap othecary
bles sed
Ġran ged
Ġran ges
LORD S
ffect ed
Ġcr itic
ca ps
Ġpost er
Ġpost ing
Ġble at
Ġble ared
Ġob jections
Ġpit ched
Ġpit iless
Ġstud ent
Ġstud ying
Ġdouble ts
Ġwood man
Ġwood bine
ĠHa ppily
right s
Ġprev ents
Ġprev ailed
Ġconqu ers
vo iced
ĠLe icester
Ġsn ore
Ġsn ap
Ġsn ip
Ġsn eaking
Ġocc ident
Ġsmall er
Ġdangerous ly
Ġcap ers
Ġwed ged
rem ble
Ġconsent ing
Ġlust s
Ġseal ing
Ġpossess es
ĠSil ius
Ġforget ful
Ġsucc ors
Ġbreat her
Ġyear ly
Ġshad es
ĠEx cuse
ĠEx ceeding
but ter
ĠDON ALBAIN
Her o
Ġshar pest
Ġda is
Ġdu gs
con cl
Ġcru pper
Ġcru elly
Ġcounter s
ract ised
Ġstar light
rid ay
Ġunk nit
Ġdull est
read ing
Ġfier ceness
Ġcred ence
Ġproper ly
Ġproper tied
irc um
ĠLa id
ĠVal er
vell ous
vell ers
Ġdec ays
Ġmut ter
Ġmut inies
Ġdest ro
Ġcontin ued
ĠTra vers
cha se
Ġwast ing
Ġga berd
ĠSal a
arl isle
Ġtrain ing
Ġrememb rances
Ġsuccess ive
Ġvan e
Ġvan ished
Ġvan ishes
Ġunf irm
Ġunf inish
Ġunf urnish
go blin
Look ing
Ġmid way
Ġref ined
Ġref rain
ĠLeon ati
Ġpure st
Ġinv iting
Ġblessed ness
ĠEgypt ians
Ġpin ing
Ġshepherd ess
Ġblame ful
Ġgain ed
ĠCall s
MER CADE
Ġtrans parent
rim m
Ġbare ly
Ġfew er
Com mit
Ġwo ven
ĠDes erve
Ġdism issed
der ived
Ġperfect ed
Ġimport unate
phe us
Ġprotest s
Ġmour ner
Ġpot ions
Ġgarden ers
Ġheed fully
Ġfond ness
Ġdign ifies
ĠSe ize
ĠSe igneur
ĠGreat er
Ġgallant ly
heart s
Ġnumber ing
Ġrain bow
Ġbuck et
Ġbuck les
Ġport end
Ġport ents
Ġport ends
Ġconsider ing
ounce d
Ġsqu ad
Ġsqu ier
ĠPri ory
Ġcountenance d
Ġexpress ure
Ġprofess ors
Ġprofess ions
bra ve
bra ced
Ġcat tle
Ġbef ell
Ġusurp ation
she athe
Ġcontr aries
Ġtop mast
Ġkindness es
ĠTH ALIARD
Ġloath ing
Ġloath ness
oot less
ĠCount ess
Ġshrew ish
Ġswore st
Ġcircum ference
hum our
Ġstart le
Ġstart ed
Ġcomb ating
Ġconvey ed
Ġunp ol
Ġempt iness
Ġbab ble
att ice
do zen
bear ing
bear ds
bear ded
his per
Ġdece ase
Ġdece iving
Ġuns ought
Ġcure r
Ġfurn ace
ĠCam peius
ĠMont gom
Ġsal ut
Ġvar ied
Ġrank ness
Ex cuse
Ex ceeding
Ġmain ly
Ġborrow s
Ġborrow ing
ĠEr ping
ĠDem and
Ġskill s
Ġskill ess
Ġearnest ness
Ġhoney suck
Ġnaked ness
Ġhaz el
Ġhaz ards
Ġmelt s
ĠBo sworth
ĠCo ll
Ġtempt ing
Ġtempt ation
Ġprofit able
Ġeng age
Ġcompl ot
Ġpurcha sing
Ġmountain ous
Ġmountain eers
Ġgaz es
Ġgaz ed
ĠSH OW
Ġappre hends
Ġpress es
Ġplead ed
Ġnorth ward
Ġcondemn ation
look ed
Ġbuild eth
Ġinvent ions
Ġfin eness
ĠHereford shire
Ġstab les
Ġlod ges
Ġlod gings
Ġprefer red
Ġder ives
Ġder iv
Ġfamiliar ly
Hear t
isper sed
Ġven uto
Ġslight est
des erving
Stand ing
Ġunb ruised
Ġpursu ivant
URN EY
Ġintell igen
Ġwag g
Ġbutcher y
Ġrash ly
Ġdeterm ines
lic ations
Ġtarry ing
ĠEn joy
Ġdiscover ies
Ġdim inish
Ġpill ar
rif ty
Ġwilling ness
Ġexceed ingly
co le
Ġshr ouds
Ġnegle ction
kind ness
Ġbot cher
Ġbegu iles
Ġassist ants
Ġaccept ed
Ġwrest led
Ġpomp ous
Ġkin swoman
Ġdiss entious
Ġshift ed
Ġav ised
Ġrecom pensed
Ġsup ers
ĠOutlaw s
Bel ong
Ġdot ard
ĠLong er
ĠRet ort
Ġet es
Ġgather ing
ĠAu vergne
Ġsple ens
Ġpitch y
Per form
Qu estion
Ġmood s
off ending
Ġmoral ize
Ġadvent ures
inct ure
Ġexper iment
ĠSet ting
Ġspl itted
Ġspl itting
pur pose
Ġfors aken
Ġscru ples
Ġdepend ency
Ġpetition er
Ar thur
cul ine
cul ate
Ġir revoc
Ġnim bly
Des cend
Des pite
war ks
ĠSIL ENCE
ĠCons ent
Ġaspect s
ĠEX TON
Ġpoet ical
ugg est
Ġweal thi
Ġfret ful
Ġgru mbling
Ġshri eks
ĠArm ourer
ĠArm agn
Ġbru it
ĠVols cian
Ġflout ing
Ġcoll ege
Ġinstruct s
Ġwail ing
Ġburd ens
Ġfla gs
Ġcal iver
Ġsequ ence
Ġsequ ester
Ġperpet ually
Ġperpet uity
Ġfleet ing
Ġperf umes
Ġgrat ulate
Ġbeaut ify
ĠHy rcan
ĠBO URBON
ĠBO YS
Ġrend ezvous
ĠPol and
ĠDon albain
Ġamend ed
Ġflatt ered
Ġbeget ting
Ġmas ques
Ġmas culine
Ġfan ning
Ġbrown er
Ġexcell ency
Dis dain
Ġresist ance
wind ed
Ġbol ts
Ġbol ted
ĠMant uan
Ġscatter s
Ġcouch ing
Ġsurfeit ed
ĠMONT ANO
ĠMONT JOY
bell y
Ġnarrow ly
Ġappoint ments
Ġlev iathan
sha lt
Ġcudge lled
Ġvass als
Ġcraft s
Ġsuffice th
Ġpotent ates
Ġsed ition
Ġsed ges
Ġbul warks
Ġbatter s
Ġobtain ing
Ġpull s
ĠNer o
Ġvot ary
Ġvot aress
Ġalt ars
Ġcarri ers
mm ers
wing ed
Ġtim ber
ĠAL ICE
mpt y
Ġfem ales
Ġhaw ks
ĠSure ly
Ġstum bled
ĠPhil oten
Ġroof s
Ġlecher ous
Ġhedge ho
Ġrear ward
Ġrepe ated
Ġsugg ested
Ġque an
Ġcontain ing
Ġcozen ers
Ġagree ing
bel oved
dis posed
Ġack nowledged
Ġpul ing
ĠADR IAN
ĠTam worth
ĠSn out
ĠBer wick
ĠGerman s
ĠVar rius
Ġperd y
Ġcareless ly
Ġinfl ame
Ġinfl aming
Ġconvenient ly
Ġlewd ly
Sha lt
mas king
Ġdart ed
Ġpor ch
ĠSleep ing
ĠBASS ET
Ġshout ing
Ġunre verend
Ġmistrust ed
Hence forth
Long er
Read ing
oqu y
Ġafore said
Ġswim s
Ġundert akes
Ġmajest ic
Mar iner
fav ored
Ġtal ent
Ġtal ons
ĠTrib une
ĠBed lam
Ġpos ition
Ġpos set
Ġroll ing
Ġesp y
Ġesp ies
Ġdissol ution
Rep ort
dea con
kn it
Ġcurious ly
Ġlar ks
ĠLOV EL
Ġtriump hing
Adv ance
ob st
Ġpant ler
Ġrein force
Ġdiso bedient
Ġtavern s
Attend ant
Attend ants
Res olve
Ġsixt y
Ġmur rain
Ġlame ly
Ġbutter flies
Ġplough man
Ġskull s
Ġblem ishes
Set ting
bo x
ĠPur sue
Ġepitaph s
ILE MON
disc retion
ĠEur opa
Ġdefect ive
comp an
Ġshroud ed
Ġnourish ment
imo is
Ġdesc ant
Ġindust rious
Ġbuzz ard
Char ge
Ġmort ally
Ġsweep s
Ġoutst are
Ġoutst rip
Ġcrab bed
Ġattorn eys
Ġinterrupt ed
Ġinterrupt ion
Ġigno bly
bre ach
bre aking
Ġwra pt
Ġlull a
ĠTouch stone
Ġrehear sed
ĠCH ATILLON
ĠChe erly
ĠDel phos
aby lon
Ġfeat ures
Pur suivant
Sleep s
ĠPR IAM
ĠRuss ia
ĠRuss ians
Ġworshi pped
Ġscant ed
Ġsuborn ation
favoured ly
bag s
Ġdr oops
ĠPresent ing
Ġsepar ate
Ġsepar ated
Ġscra ped
Ġchronic led
Ġdiscom fited
Ġimpress ure
Ġcram ps
Ġcovert ure
call ed
Ġfen cing
Ġthwart ing
Ġinvest ed
ĠCourt eous
ĠDER CETAS
Ġamount s
ĠJust ices
Ġenv ied
Ġrav in
Ġsingular ity
ĠGuild ford
Present ing
fool ish
erth row
Ġobl oquy
Ġrevell ing
ĠEthi op
Ġunfe eling
Ġharlot ry
Ġath versary
ĠTar peian
ĠSister s
ĠPers uade
Ġrive ted
Ġchant s
Ġunclean ly
Ġunth rifty
ĠPolyd ote
Ly chorida
bea ms
bea med
bod ied
ĠAc quaint
ĠBRA BANTIO
Ġexa ctions
Ġcommence d
Ġvehe mency
Ġreverent ly
Ġmagist rate
Disc over
Ġdaint ies
ĠWILLIAM S
ĠCer berus
ĠProm ethe
Ġnost rils
ĠDor othy
ĠDisc over
Ġprogen itors
Ġrapt ure
Ġprofan ation
Ġargos ies
Ġclergy men
Ġtarget s
Ġfust y
Ġlect ures
ĠBalt hazar
Ġseiz es
Ġseiz ure
ĠDiv ide
Ġshru g
Ġextem poral
Ġdaunt ed
Somet imes
Ġess ent
Ġapr on
Ġfel on
Ġfitt est
Ġfitt eth
Ġcert ainties
Ġdub b
ĠTrip olis
ĠCra ssus
ĠCON STANCE
ĠEle phant
ĠLud low
ĠGold en
Ġblasphe my
comm un
Ġcounterpo ised
ĠBlood y
Ġcherub ins
Ang lois
Ang leterre
Div ide
sla ughter
Ġom itted
Ġnour ished
Ġtot tering
ĠBrief ly
Ġvary ing
Ġplum met
Ġramp ing
Ġreprehend ed
Ġsorce ress
Ġsorce rers
Ġviper ous
weigh s
Ġunseason able
Ġvigil ant
Best ow
Chi ldren
Dem etrius
Ty rian
bud s
bud get
matic s
Ġeb ony
Ġeb bs
Ġresemb les
Ġresemb lance
ĠMor gan
ĠFast olfe
Ġnov ice
Ġunho ly
Ġdisinher it
Ġdisinher ited
Ġencom pass
Ġencom pas
Ġcommun icate
Ġdiscred it
Ġslut tish
Ġexecut ors
Ġpostern s
Ġmultip lying
Ġirks ome
Ġmasqu ers
Ġunfeigned ly
Luc entio
sub ject
reng th
anqu ish
ĠSea cole
estim able
Ġvall eys
ĠVis or
Ġraz or
Ġinduce ment
Ġgibb et
Ġtempor ize
ĠAEm ilia
Ġepithe t
ga ited
Ġic icles
Ġmit igate
Ġmandra ke
Ġbaff led
Ġhemp en
ĠSign ieur
ĠWake field
Ġstee led
ĠBen volio
ĠEG EUS
ĠPto lemy
ĠObs erve
Ġconvent ed
Ġabj ure
Ġenam ell
Ġscor ch
Ġscoff s
Ġappele z
Ġremo ves
Ġenthra lled
ĠStri king
Ġwelcom ed
Ġfarthing ale
ĠArg us
Ġdispro portion
Ġcrus hed
Ġimperfection s
DENN Y
ĠHob goblin
Ġperturb ation
ĠPhara mond
Jes u
TIM AND
Ġmaint enance
ĠGault ree
Ġorig inal
Ġribb ons
Ġtribut ary
Ġintr usion
Ġdivul ged
Ġequi voc
Ġconjur ation
Ġpudd ings
HORTENS IUS
Jud as
whe els
Ġry e
Ġturb ul
Ġwiz ard
Ġomn ipotent
Ġdau b
Ġpam per
ĠAlt haea
Ġinspir ation
Ġstou p
ĠPeg asus
ĠLin col
ĠLang ley
Ġdexter ity
Ġspray s
ĠRho des
Ġunman ly
Ġunacc ustom
Ġprosec ute
Ġenig ma
Ġensc once
Ġglor ify
Ġindul g
Ġprem ises
Ġprejud ice
Ġpremedit ated
Ġdiscours es
Ġmispla ced
Ġgreed iness
Ġuntruth s
Ġignomin ious
Ġpinn ace
Ġirreg ular
Ġbachel ors
ĠMusco v
Bened ick
Soul s
Ġmoult en
Ġbrev ity
Ġgy ves
ĠCher tsey
ĠStarve ling
Ġparas ite
Ġgrud ging
maj esty
Ġfrequ ent
ĠVolumn ius
ECR ATES
Ner issa
NAR E
OO DVILE
OPH ER
RIST OPHER
monst rous
Ġmathe matics
reasure d
Ġfub bed
Ġfug itive
ĠIcar us
Ġcind ers
Ġcamb ric
Ġyounk er
Ġhallo ing
ĠSop hy
ĠSicy on
Ġsteter at
ĠBERN ARDO
ĠChes hu
ĠCros by
INCOL N
ĠMam illius
ĠMach iavel
ĠElt ham
ĠThess al
Ġnoont ide
ĠGil bert
ĠGRI FFITH
Ġfaul ty
Ġvip ers
ĠDaph ne
ĠRAM BURES
ĠRago zine
ĠViol a
istingu ishable
ĠKimbol ton
Ġfrivol ous
ecaen as
Ġcommiss ions
Ġscaff old
Ġmeritor ious
ĠDeipho bus
ĠAbhors on
ĠCythere a
ĠCydn us
Ġmalaper t
Ġgaberd ine
ĠMontgom ery
ĠErping ham
Ġirrevoc able
ĠArmagn ac
' ;
, .
A f
A vaunt
B a
B o
B an
B ad
B ound
B urn
B ids
B oult
B ecame
B reathe
C ho
C ried
C onst
C ease
C ounter
C lock
C atesby
D er
D ing
D et
D est
D ark
D urst
D ream
D arest
E xt
E gypt
E nobarbus
E specially
F r
F ill
F ord
F ight
F eed
F alls
G ot
G rew
H ar
H ume
H ope
H onest
J ul
J oy
J upiter
J uno
K ill
K illing
L ent
L ion
L ose
L ament
L aid
M ont
M oon
M erely
M ETELLUS
M ENTEITH
N ESS
O ui
P ay
P ity
P ron
P retty
P INDARUS
Q ue
R ed
S i
S k
S u
S ick
S ix
S light
S pur
T aking
U rge
W ent
W eak
W hip
W ait
a gain
a ire
b ro
b are
b ots
b east
b awd
b irds
b idden
c u
c ke
c am
c ry
c aster
c arry
c ried
c up
c udge
c ram
d ost
d eed
d ew
d rew
d ying
d uced
d iction
f ing
f our
f ain
f oul
f ied
f raught
f ashion
f ox
f aults
g oose
g inal
h oop
h tha
i ates
i atic
i work
j u
j or
j our
k night
k new
k illing
k issing
l en
l ist
l ower
l adies
l ived
m ers
m ation
m ount
m ates
m akes
m itting
m orning
n ear
n eed
n urse
o bey
p i
p ound
p hes
p ains
p ered
p ters
p rop
p osing
p rice
p aper
r ise
r ising
s un
s all
s omet
s erve
s ized
s kins
s peaks
t ea
t hens
t ales
u bl
u ities
v ar
v ory
v aleiro
w ed
w ine
w ol
w ig
w ack
w arm
w hole
° ç
² ç
¶ ç
è §
è ®
è µ
é ¢
é ±
é ³
é ¹
ĥ ç
ħ ä½
Ĳ ç
Ĺ ç
ļ ç
ľ ç
ŀ ç
ł ç
Ġt ard
Ġt ugg
Ġt inder
he ars
Ġa er
Ġa ld
Ġa gues
Ġa rose
Ġa lab
ou g
ou v
ou ple
Ġs ift
in n
in qu
Ġm and
Ġm oth
Ġm ows
Ġm urk
Ġm using
re c
re ants
re ments
re con
Ġw ived
Ġw reathed
ha llow
nd ry
Ġthe oric
Ġb om
Ġb ast
Ġb ass
Ġb led
Ġb iss
Ġb ots
Ġb ays
Ġb itch
Ġb reech
Ġb omb
is hi
is hest
is eration
is sez
er als
er heard
or ment
or seless
Ġf ir
Ġf olk
Ġf eared
Ġo ven
Ġo per
en ances
it ate
it ory
Ġc ir
Ġc law
Ġc ement
Ġc eases
Ġc eased
Ġc inque
Ġd ia
Ġd ates
Ġl owness
Ġl eman
Ġh ing
on ge
on ers
Ġn ill
Ġn uts
Ġn uns
Ġp s
Ġp om
Ġp ome
Ġp ink
Ġp int
Ġp ants
Ġp ates
Ġp hant
Ġp ester
Ġp iety
Ġp orpentine
Ġto ols
Ġto asted
Ġhe nt
an o
an ct
an gu
an ched
om ies
om bed
st art
st ate
st aring
st aves
st range
ow ess
Ġg ale
Ġg erman
Ġg abble
at a
at tend
ĠA llow
ĠA poll
ĠA uthority
Ġbe ld
Ġin und
Ġin supp
ĠT ry
ĠT ere
ĠT IM
ĠT aste
ĠT ailor
ĠT iger
ĠT reason
ĠT YBALT
ĠT ULLUS
ĠT hieves
se arch
le ads
le aves
Ġha les
Ġha gs
Ġha mmers
ed uc
ir ation
ir rel
ĠS k
ĠS l
ĠS u
ĠS pe
ĠS ack
ĠS CENE
ĠS ans
ĠS ons
ĠS erve
ĠS elf
ĠS iby
ĠS harp
im ation
im itar
ch ises
ch urch
ĠW eak
ĠW ise
ĠW ounds
ĠW ait
Ġthat ch
Ġfor cing
Ġe ll
Ġe ater
Ġe wer
Ġwe lf
Ġit eration
ĠH ack
ĠH ope
id able
ra pp
Ġst ow
Ġst ile
Ġst ench
Ġst eads
Ġst akes
Ġst oops
as perate
ri el
ri ages
ri bb
ri can
ri eves
ĠB ow
ĠB ore
ĠB ook
ĠB ears
ĠB ern
ĠB reathe
al one
al ogue
Ġre cept
Ġre aches
Ġre formed
Ġre sembled
ĠC AN
ĠC au
ĠC op
ĠC UR
ĠC over
ĠC ease
ĠC ounter
ĠC ousins
ĠC arlisle
ge ese
Ġso p
Ġon set
ĠM ul
ĠM aintain
ĠM agn
ĠM UTIUS
ĠM ecaenas
Ġli br
ver il
ur ged
ur lish
ĠE st
ĠE PILOGUE
ĠE specially
ĠP el
ĠP rev
ĠP eas
ĠP ont
ĠP atient
ĠP atricians
ĠP UBLIUS
ĠP INDARUS
hi bit
hi bition
ĠL es
ĠL am
ĠL ust
ĠL uke
ĠL oud
ĠL ift
ĠL ays
ĠL echery
ĠO pens
ĠO ui
am en
am ber
am ple
am orp
ck nowledge
est eem
est ration
ĠN em
ĠN ymph
ĠAnd romache
AN IUS
ĠF ain
ĠF ang
ĠF rank
ĠF ellows
and le
Ġbut tock
Ġno is
Ġno vel
Ġan ne
th rust
Ġsu ndry
Ġall ows
ĠG r
ĠG ro
ĠG rew
ĠG rows
ĠG rief
ĠG erard
Ġlo lling
ru ps
Ġsp its
Ġsp ends
Ġsp aring
Ġsp onge
ear th
Ġkn oll
art s
art ing
Ġv ial
Ġv aul
ĠD om
ĠD et
ĠD ance
ĠD ighton
ĠD ictynna
Ġne ut
ant ing
qu ar
Ġat omies
ine w
Ġam bling
Ġup roar
Ġpr owess
ĠR an
ĠR oy
ĠR ap
ĠR idd
ĠY ond
ic ament
Ġcon fection
ers well
ul ph
ul nerable
ven ue
Ġthere with
Ġbl ust
Ġbl otted
Ġbl ades
Ġbl adders
Ġca ud
Ġca vern
el se
Ġcan cel
xt us
Ġor acles
ĠTo ad
Ġthan es
ep htha
ĠV ir
fe eling
ol t
Ġar guing
ond rous
Ġus hered
ate ly
la ced
ĠTh orough
Ġbr ats
Ġbr ush
pea ce
um bling
Ġqu int
Ġqu easy
ig ested
Ġj angling
ice th
ĠNe cess
ĠNe ighbours
ance l
Ġr ang
To ld
ĠAct ae
Ġun y
Ġun rel
Ġun wise
Ġun bar
Ġun easy
Ġun safe
Ġun button
Ġun savoury
ĠWhat ever
Ġdis robe
Ġdis furnish
Ġdis close
un n
un ities
un eral
ARD ANIUS
ĠJ our
ĠJ ephtha
pt ed
Ġpro li
pe ep
are th
ire ction
all ed
all as
Ġpo ised
Ġhand iwork
Th rew
Th rows
ff ed
Ġma il
Ġhow ever
Ġro e
Ġro pes
Ġlea s
Ġlea ps
Ġlea ping
Ġal arm
Ġal ighted
Ġsome where
Ġthink ings
Ġpl ies
har k
Ġfo am
Ġfo gg
Ġfo ams
Ġfo emen
Ġab rid
Ġab atement
ĠFor ward
ĠFor ced
ĠFor thwith
ĠHe ld
Ġmar ries
Ġmar jor
Ġmar riages
ress ing
Ġen fold
Ġen kindled
Ġex igent
Ġex hort
Ġex commun
Ġex asperate
RA HAM
Ġhear th
ec ost
Ġdes peration
ud ius
Ġra ve
Ġra vel
per fect
Ġear liest
li ver
to cks
Ġple dges
Ġfair ness
Ġcomm une
Ġwar ms
Ġper sec
Ġsc ent
Ġsc ath
Ġsc ull
Ġsc ap
Ġsc athe
Ġsc orp
Ġsc apes
Ġsc iatic
Ġsc imitar
For s
For sooth
For thwith
Ġwh iter
Ġcour sers
Ġapp les
Ġapp lied
Ġfl o
Ġfl ash
Ġfl ashes
Ġfl ayed
Ġla zar
ĠBe que
ĠBe gan
ĠIn fer
sw oln
op inion
Ġcomp ared
Ġdown y
Ġcl iff
Ġpla ckets
Ġpla usive
Ġcha os
Ġcha fes
ĠNo bles
Ġcont est
aint ing
ĠAn chises
red it
Ġrem it
ĠU r
Ġrep ents
Ġrep resent
Ġrep len
Ġent ail
ield y
Ġbest ir
Ġgl owing
Ġtra ged
Ġtra verse
mb les
Ġind isc
ĠAnt iates
Ġlive th
In fer
ne ighbour
ĠWhere by
AB RAHAM
be ha
Ġcons on
Ġserv est
Ġserv itor
alk in
ĠOr pheus
Ġel f
So lemn
Ġco ining
Ġco gging
Ġconf ronted
ilt ies
ĠHere in
Ġwoman ly
iz es
iz ing
Ġanswer able
Ġpre ci
Ġpre ys
Ġtri pp
ĠAt t
Ġvir ginal
Ġle vell
Ġgi ver
Ġgi psy
ĠPr ide
ĠSt udy
ĠSt abbing
Ġpal y
Ġpal es
Ġche veril
Ġcur l
Ġcur ds
Ġsub s
ĠDo g
Ġover whelm
Ġacc um
Ġacc urst
Ġhum bler
Ġret ention
Ġwrong er
urd en
Ġeven ly
We igh
Ġthr ill
Be gu
Be ats
Ġbod kin
ister s
Ġthank ings
Ġhel ms
ĠShe d
Ġdisc olour
Ġsure r
Ġpe at
Ġmis prised
Ġsl ower
Ġsl ug
Ġi vory
bl ank
Ġbed ded
There in
Ġsent entious
Where on
Ġere ction
Ġdi p
ĠAl ong
LI GARIUS
anc is
Ġhapp ened
gu ised
Ġbu z
Ġbu ng
Ġbu gs
Ġsound er
Ġstri pp
Ġpers ist
night s
ap ers
Ġunc urrent
Ġill um
Ġinst igation
de ep
de vise
Ġsun set
Ġfire d
Ġjoy fully
Ġrun away
Ġrun agate
Ġfore ver
Ġprom otion
Ġoft ener
Ġspo kest
Ġden ote
Ġaw aking
Ġsla ugh
Ġjud icious
ĠSh ut
rink les
sc arce
Ġmet als
ĠCla udius
wick ed
St anley
St raight
St udy
Ġdef unct
Ġdef lower
ĠOur self
ĠCle an
Ġwin ning
Ġfoot ed
Ġinf used
Ġinf ern
Ġinf idel
lo gues
Not e
Ġcar ters
Ġcar ouses
Ġcar oused
sh ore
sh rew
sh otten
Ġdep rived
Ġdream er
Ġbound ed
ran g
ran gle
Do ing
Ġpar ings
Ġcommon ly
Ġcommon ers
Ġdisp rove
Ġdisp raised
Ġdisp oser
Ġdisp laced
Ġaff ability
Ġrec laim
Ġcut purse
ĠPro vided
Ġgar rison
Ġwork men
Re ceived
Re bell
Ġten ant
Ġexp iration
Ġac ute
Will iam
Ġrequ iring
ĠLEON INE
Ġenter pr
Ġatt ires
Ġsign ified
Ġsign iors
Ġconfess ing
Ġhot ly
ĠAd mit
ĠAd onis
with in
Ġemb racing
Ġweak en
pr onius
Ġprov idence
Ġsat ire
ĠPer use
ĠPer seus
An jou
ĠAb hor
ĠUn like
ĠUn worthy
ĠUn arm
so ft
Ġund eser
Ġund aunted
Ġunt uned
Ġunt ender
Ġopp ressed
Ġcreat ing
ĠDE IPHOBUS
Ġcle ars
etch y
ĠWas hes
Pro logue
Pro vided
Ġbond men
Ġfra gment
Ġred oubled
Ġbook ish
Ġadd le
oss us
Ġinter red
ĠPl utus
Ġsoft est
SEY TON
Ġmorrow s
ict ed
ĠSay ing
Ġve iled
Ġrel ics
Ġlearn s
Ġmist y
Ġag ents
Ġacqu ire
Ġap iece
idd y
ze bub
cher y
Ġfeed ers
ĠSee king
Ġsatisf ying
ĠNight work
vo ice
vo ked
Ġsn are
Ġlust ier
Ġlust ily
ĠJew eller
Ġsecond ed
Ġbrief ness
Sh ort
Sh owing
Un like
Un arm
Ġdrown s
Ġpract ising
but tock
ĠBel ong
Ġcounter feits
icul ty
ĠSha pes
Ġcred ent
ĠLa wn
Ġdec ision
Ġdec orum
Ġcontin ents
llo a
ĠTra itor
ĠTra itors
cha mbers
cha ste
Ġsharp ness
Ġes perance
Ġed if
Ġed ges
Ġsuccess fully
Ha utboys
Ġur n
Ġur ine
Ġur inal
ĠOff ering
Ġequ als
Ġunf elt
Ġunf ledged
Ġrequest ed
Ġinj unction
Ġins ensible
Ġins atiate
Ġcirc led
ĠGu iderius
Ġexpect ing
par ing
Ġpure r
Ġinv ulnerable
ĠSp ur
ĠSp ake
ĠSp ring
ĠSp read
Ġusur ps
Ġrevol ution
Ġrare ness
Ġtrans gress
Ġremain ing
Ġpersu ading
ĠQu iet
Ġweight ier
ĠDes erved
Ġglass y
Ġsmo kes
bb ets
thi eves
Ġimport unes
DUM B
Ġsens ibly
Ġanger ly
Ġod ours
Ġslaughter ing
ĠSe xton
ĠSe xtus
gar ter
ĠEp ic
Ġrain y
Ġport ent
Ġsqu eak
Ġsqu irrel
Ġlament ations
Ġenjoy ed
Ġcat alogue
ĠCon tend
ĠCon vey
Ġusurp ed
En joy
she et
Ġmem ories
ĠPo pe
ban e
Ġfle er
ĠBl est
Ġloath ly
Ġlearned ly
Ġcircum vent
Ġdet raction
Ġcomb ination
Ġunp re
Ġunp ri
Ġschool boy
Ġbab ies
do es
Ġprod uced
Ġclot hi
Ġcondu cted
na wn
Ġthick er
Ġtomb s
Ġimper t
Ex c
Ex pect
ĠEr r
Ġspec ulation
Ġprophe ts
Ġjoint ly
Ġmil ch
Ġmil ks
Ġung ently
Ġaccount s
ĠFair y
Ġeng ines
Ġextrem ities
Ġleng thens
mong ers
ĠStay ing
ĠWor m
ĠWor th
ros y
Ġflourish ing
gn able
ĠBar thol
Ġplead ing
Ġsooth sayer
ĠThink ing
ta wny
Ġpie ced
ĠEre bus
Ġconfirm ed
Ab ate
Ġing red
Ġsuspect s
Ant ioch
ĠFollow ing
nat ured
Ġfro ze
Ġprick ing
Ġunkind est
ĠPut ting
olute ly
Ġthie very
Ġthie vish
DE IPHOBUS
Ġunb ound
Ġmonument al
Ġwag s
Ġwag gon
Ġinher ited
ĠBa cc
Ġtame ly
Ġcens ures
Ġink y
Ġvex ed
Ġcrow d
Ġdim pled
ĠTr uth
ĠDis miss
co x
co ats
co ated
Ġhind ered
Ġvol upt
ĠMontag ues
Ġdeb ated
Ġbull et
Ġunfold s
ITH NESS
Ġchaste ly
ĠHEL EN
Ġworm wood
Ġharsh ness
Hold s
Hold ing
Ġcoron ets
Qu iet
pul ent
Ġspur ring
Ġglo ze
Ġoppos ing
Ġredeem s
Ġach ing
Keep s
ĠMe aning
Ġtremble d
Ġinward ly
Ġspl inter
emper ance
Ġprepar ations
ĠBrother s
Ġspit al
Ġblunt ly
Ġrust ling
Ġliberal ity
Ġmedic ines
Ġmedic inable
Ġknot ty
Ġado ption
Ġlift ed
Des ire
Des erve
pass ion
ĠAcc ost
ĠAcc ommodated
clam ations
ĠShow ing
upt ions
stit ute
Ġsting ing
Ġshri eking
Ġscour ing
Ġbru ited
Ġnon ce
ĠVols ce
ĠVols cians
Ġflout ed
Ġendea red
Ġbox es
Ġprodig ies
Ġsequ estration
Po ins
fall en
fall ing
Ġward er
Ġbargain s
br oth
br ook
bon ed
Ġdecl ines
Ġmerri est
ĠConf ound
Rem ain
Ġtur key
Ġcop ed
Ġaccident ally
Ġincrease th
Ġbol ting
ĠBea uty
wit ness
Ġconceal ing
sha ft
Ġstro ve
ĠJes us
Ġsed uce
Ġcook s
Ġpull ed
Ġalt ered
Ġpreced ing
ĠHerald s
gra ve
Ġchat ter
Ġstum ps
Ġrus set
ĠPhoe be
AEM ILIUS
oft en
Ġtar re
Ġsteep le
Ġcong ru
Ġexperience d
Follow ing
Ġtaint ing
Ġcas que
Ġdiff ering
Ġdiff iculty
Ġpred icament
Ġmyster ies
bel ieving
Ġconsequ ently
ĠNoble men
Ġsufficient ly
wh it
wh ore
ĠTR EBONIUS
ĠSn eak
ĠSn ug
Ġperd u
Ġassault s
Ġinfl amed
Ġpolitic ian
Ġapprehens ive
Ġapprehens ions
Bl ow
lar ged
Ġsolic ited
Ġperi wig
sick ness
ific ation
Ġconvers ant
Ġundert akings
Ġholid ame
Ġtrespass es
Mar garet
Ġsap ling
Ġpos y
Ġextend ed
Ġopport unities
Ġesp oused
Ġesp ials
Cons ent
Rep air
kn ife
kn ows
ĠLOV E
Ġplent ifully
Ġinfer r
Ġcontinu ally
Ġmat ches
Ġmat ched
Ġmat rons
ĠFind ing
Ġmudd ied
Ġwhist les
Ġrub ies
Ġobst ruction
Ġachieve ments
Sc orn
qual ities
Ġstray ing
Ġrum ours
Ġhandsome ly
ĠSaturn inus
Ġmast iffs
Ġbeque athed
disc ourse
Ġwave d
Ġded ication
Ġgames ome
Ġhal ters
Ġcontrol ment
Ġarbit r
Jo in
Sm ile
Ġoutst retch
ĠKne eling
Ġrig our
Ġadul terate
Soft ly
Bless ing
bre ath
Ġtreat s
reason able
Ġnut me
ĠPres ence
ĠDel ay
Ġleaf y
Ġparch ing
Ġbenef icial
Ġbenef actors
Sleep ing
Ġglance d
Ġpatron ess
Ġast ron
Ġfres hest
Ġbecom ed
Ġsavour y
Ġscra pe
Ġchrist en
Ġeager ly
Ġpupp ies
Cl ose
Cl ifford
Ġben ison
ĠIm agine
Ġgun powder
Ġbrim stone
Ġtemperate ly
Ġextra v
Ġgeld ing
ĠDest roy
ĠDol phin
ĠVOL TIMAND
Ġarrog ant
Ġjugg ler
Ġrats bane
Ġchari ots
Ġbraggart s
pla ces
Ġaust erity
Ġlur ks
ĠAf fection
ĠAdd ress
Ġmel odious
ĠGrand pre
Ġincest uous
Ġunth ought
Ġunth rift
Se ize
Ġtink ers
Ġcanon ized
Ġgrin ning
Ġwheresoe ver
Ġster ling
ĠOther s
Ġanim al
Ġdeserv est
Ġincontin ency
Ġdishon ours
conf ess
conf irm
Ġhunts man
Quick ly
Ġhammer ing
Knight s
counter feit
drink ing
gor ged
hu ndred
Ġpag ans
Ġbeck ons
ĠWr it
ĠWit hal
ĠMart ext
ĠFit zwater
Ġswagge rer
Ġperplex ity
thank ful
Ġfantastic ally
occ up
occ asion
Ġess ence
Ġcust ody
ĠSub d
ĠCond ition
Ġblasphe me
lac key
Ġtwin n
ĠConspir ators
Ag amemnon
Fri ar
Im mediately
Im agine
lust y
mar riage
point s
Ġment al
ĠAff liction
ĠArab ian
ĠEnt reat
Ġfav or
Ġvaunt ing
Ġchal ky
Ġcontri ver
Ġvigil ance
Hum bly
Sa fe
Val iant
best owed
sho e
Ġyawn ing
Ġlour ing
Ġnomin ate
Ġnomin ated
Ġgamb ol
Ġgamb ols
ĠSau f
Ġshuff le
Ġmun ch
Ġridd les
Ġsincere ly
Ġgrind ing
Ġminstrels y
ĠApparition s
Ġaugment ed
bless ing
gall ant
het ua
reng then
Ġfer ret
ART EMIDORUS
Ġvall ey
ĠVis it
perience d
Ġgibb ets
Ġillust rious
ĠAEm ilius
Ġcatech ise
Drink s
Mars hal
Wit hal
six pence
ĠSi ward
Ġker chief
Ġker sey
Ġstif led
olic it
Ġforerun ner
Ġcarb un
Ġcarb uncle
Certain ly
Sal isbury
grow ing
ĠSin on
ĠSem pronius
Ġmeas uring
ĠLim bo
Ġvult ure
Ġunpar allel
Ġhosp itable
Ġflour ishes
Ġimposs ibility
ĠNorman s
ĠBrid get
Reign ier
Ġverb al
Ġungu arded
Ġcalumn ious
Ġeclip se
Ġanatom ize
Hu bert
danger ous
Ġlep rosy
ĠSard is
ĠCre ep
ĠRed eem
Ġcraw l
Cam illo
Mon ster
breed ing
Ġsurn amed
Ġcic atrice
Ġpanc akes
ĠNort hampton
Ġspher ical
Ġrar ity
Ġlaure l
Ġcontumel ious
Ġharb inger
Ġcogn izance
Ġimpre gnable
Ġpepp ered
ĠScy thi
conce ited
Ġurch ins
ĠQuar rels
Ġunsk ilful
Ġmercen ary
Ġunreason able
Ġmisconstru ed
Grand am
Trib unes
Ġnom ination
Ġponder ous
star ved
adv antage
ĠOv id
Ġpror ogue
udden ly
ĠPron ounce
plant ed
Ġbapt ism
Ġsquad rons
ĠPromethe an
Ġessent ially
Fr ancis
cke rel
cram med
sall et
somet imes
Ġalab aster
Ġmand ate
Ġbom bast
Ġbast inado
Ġbiss on
Ġphant as
Ġinund ation
ĠTere us
ĠTIM ANDRA
Ġwelf are
ĠBern ardo
ĠCAN IDIUS
ĠCop hetua
Ġlibr ary
amorp ho
Ġnovel ty
Ġvaul ty
Ġcaud le
ĠActae on
Ġunrel enting
ĠJephtha h
Ġproli x
Ġfogg y
Ġmarjor am
Ġscap ed
Ġslaugh ters
Ġinfern al
Ġenterpr ises
Ġvolupt uous
. ,
0 0
A ch
A bs
A lex
A umerle
A Ed
A void
A pothecary
A URUS
B on
B ed
B ra
B and
B ind
B are
B ack
B uck
B ade
B reed
B udge
B anish
C are
C orn
C ressid
C hamber
C alls
C esario
C ICERO
D on
D at
D ay
D AL
D one
D ec
D ull
D rew
D FORD
D read
D irect
D ROMACHE
D rawn
E mp
E qual
F ain
F inds
F resh
F inely
F riday
G an
G rant
G rows
G aunt
G ram
G arter
G LEY
G iven
G racious
G AVENNY
G unner
H ot
H ell
H ush
H aste
H ugh
H ung
H orns
H TS
H usband
I nter
I mm
J UNO
K N
K ills
K issing
L ear
L ist
L ust
L INCOLN
M et
M ount
M atter
M elt
M aintain
M aries
M istake
N ed
N ine
N eeds
O man
O li
O pinion
P ick
P OM
P lain
P ays
P istol
P raise
P ucelle
P inch
P rentice
R an
R ain
R are
R ATO
R atcliff
S ith
S cene
S erv
S ans
S eal
S outh
S pare
S ends
S elf
S ever
S ola
S cribe
S earch
S NUG
S peaking
S ummon
S orry
S CALES
S NARE
S DAL
T e
T ry
T aste
T aming
T rip
T rad
T hieves
T ownsman
T RAVERS
U r
U nd
U nk
U sur
V is
V ex
V AUX
W ast
W rong
W orthi
W ednesday
W ART
W OODVILE
Y on
Y ours
a pen
a ired
a ids
a pping
a ileth
b ad
b ess
b ig
b ase
b uke
b right
b ids
b rows
b ottom
b ursed
b orough
b rief
b ecomes
b aby
c ter
c ru
c reat
c um
c ity
c hall
c ery
c ardinal
c ern
c urs
c ued
c ourse
c onstable
c ative
c hered
c rates
c urer
c atching
c uckold
c outez
d ear
d ong
d ep
d are
d ef
d iss
d ged
d ia
d ark
d read
d uce
d itch
d ream
d rop
e ved
e ged
e bt
e gg
e qual
f y
f et
f ond
f irst
f ors
f lesh
f amed
f owl
f alus
f angled
f earing
g al
g io
g ia
g ays
g net
g iver
g hers
g uts
g rief
g atory
g regious
h ours
i vil
i ots
i hood
i ations
i vo
i bus
i pper
j ur
j ointed
k ine
k not
k nock
l ast
l ief
l ane
l ads
l adders
l uces
l outing
m us
m ul
m ere
m ence
m ist
m ead
m eal
m ortal
m ines
m ired
m itted
m utius
m atical
n ine
n igh
n ks
n ails
o v
o is
o ven
o ice
o ix
o ked
o gra
p at
p ay
p ion
p hy
p ig
p sw
p iled
p read
p aid
p hilosop
p rentice
r tle
r ats
r ots
r ations
r inth
s i
s om
s ent
s her
s est
s ave
s ign
s op
s ons
s ides
s alm
s ervant
t ise
t ack
t ons
t ony
t ily
t ainted
t rust
t aught
t ruly
t eeth
t ailor
t ino
t aken
t ruth
u f
u us
u pe
u ation
u iced
v or
v an
v res
v ives
v ater
v ident
v ille
v irginity
v irtuous
w ea
w ish
w ears
w ilt
w onder
w oe
w eep
w elt
w hether
w ether
x om
x le
y ield
y rian
z on
z ie
z able
z ars
z ounds
³ ç
´ ç
» ç
é ¾
Ġ (
ģ ç
Ī ç
į åĹ
Ķ è²
Ļ ç
Ń ç
Ġt our
Ġt ene
Ġt ies
Ġt ress
Ġt ert
Ġt rench
Ġt ua
Ġt aming
Ġt ug
Ġt asting
Ġt angled
Ġt attling
he w
Ġa ve
Ġa ed
Ġa ub
Ġa wards
Ġa uss
Ġa xle
ou ci
ou blie
Ġs ke
Ġs ati
Ġs lown
Ġs amp
Ġs arc
in v
in ction
in ci
in acy
in habit
in arily
Ġm ond
Ġm op
Ġm ons
Ġm ason
Ġm enton
Ġm oys
Ġm outhed
Ġm ixture
Ġm alkin
re us
re hens
re aming
re thren
re aching
re hends
Ġw ain
Ġw ist
Ġw iles
Ġw ands
Ġw iving
Ġw ails
Ġw aded
ha p
ha nds
ha ca
nd ed
nd led
nd ible
Ġb ard
Ġb itt
Ġb ott
Ġb ona
Ġb erry
Ġb isc
is ell
is diction
er ford
er joy
er past
or ra
or ish
or ters
ll is
ll ery
Ġf ay
Ġf out
Ġf ans
Ġf ins
Ġf ont
Ġf ainted
Ġf ern
Ġf und
Ġf erry
Ġf reed
Ġf iddle
Ġf umes
Ġf idelicet
Ġo e
Ġo s
Ġo pes
Ġo perate
en ri
en il
en ic
en eas
en ets
en ched
en cies
it age
it ier
it led
it ches
it ched
it ably
it chers
es se
es cend
ĠI on
ĠI ce
Ġc ul
Ġc ree
Ġc ister
Ġc ork
Ġc ites
Ġc ote
Ġc uri
Ġc ards
Ġc antle
Ġd oo
Ġd ong
Ġd ile
Ġd ens
Ġd itt
Ġd ray
Ġd aw
Ġd ries
Ġd ines
Ġd ump
Ġd ancer
Ġd utiful
Ġd izzy
Ġy ellows
Ġy arn
Ġl ain
Ġl int
Ġl uc
Ġl oop
Ġl ug
Ġl ining
Ġl arded
Ġl akin
Ġh i
Ġh ic
Ġh ud
on ne
on ition
Ġn i
Ġn it
Ġn ur
Ġn ous
Ġn ave
Ġn ets
Ġn ib
Ġn ips
Ġn ouns
Ġn eaf
Ġn apping
ar se
ar ian
ar ino
Ġp ow
Ġp ore
Ġp ave
Ġp ours
Ġp ouch
Ġp each
Ġp iles
Ġp ease
Ġp ump
Ġp ody
Ġp ared
Ġp issing
Ġth rum
Ġth imble
Ġto es
Ġto ler
Ġto iling
hat ing
hat ch
Ġhe wn
Ġhe mm
Ġhe dged
an mo
an uary
ve il
ve red
ve iling
ot ing
ot le
ot ens
ot ley
ot idian
om on
om achers
st le
st ill
st ol
st eal
st ition
st roke
st ler
st airs
ing ling
ow ton
Ġg est
Ġg au
Ġg ag
Ġg ins
Ġg ens
Ġg ardon
Ġg ory
Ġg uns
Ġg illy
Ġg eck
Ġg imm
Ġg asping
at us
at ures
at tled
at field
ĠA ve
ĠA ld
ĠA ut
ĠA ge
ĠA BER
ĠA cher
ĠA EMILIA
ĠA EGEON
ĠA berg
ĠA void
ĠA venue
ĠA eneas
Ġbe nds
Ġbe mo
Ġbe arest
Ġin ex
Ġin forced
Ġin acc
Ġin civil
Ġin vert
Ġin vocate
Ġin soci
ĠT or
ĠT im
ĠT us
ĠT end
ĠT el
ĠT ory
ĠT enant
ĠT ib
ĠT endering
ĠT remble
ĠT AURUS
ĠT owton
se llor
ce al
le ather
le gg
Ġha ms
Ġha cks
Ġha unch
Ġmy rtle
et ed
ed ged
ir ce
ir ons
ir amis
ĠS S
ĠS ot
ĠS om
ĠS ow
ĠS ong
ĠS ink
ĠS ame
ĠS hakes
ĠS ag
ĠS av
ĠS pl
ĠS ug
ĠS abb
ĠS ola
ĠS ubs
ĠS peaks
ĠS ERVILIUS
ĠS orry
ĠS entinels
ĠS overeign
ut ing
ut ter
Ġme ll
Ġme nds
im ing
im us
im auf
ch ol
ch oose
Ġnot ary
ea p
ea vy
ill ity
ĠW ing
ĠW ind
ĠW ither
ĠW ears
ĠW onder
ĠW oman
ĠW ELL
ĠW ipe
ĠW alks
ĠW itten
ĠW HITMORE
ĠW ilds
ĠW isdom
Ġthat ched
Ġfor age
our ly
Ġe an
Ġe ft
Ġe gl
Ġe cus
Ġe pic
Ġe bon
Ġe aning
Ġu mber
Ġwith stand
ent h
ent ertain
ent inus
Ġwe nd
ĠH ate
ĠH ide
ĠH ap
ĠH enri
ĠH atfield
ome w
id i
id y
id els
id ney
her ds
ra is
ra le
ra med
ra iment
Ġk iln
Ġst a
Ġst ig
Ġst anch
Ġst eers
Ġst upe
Ġst omachers
ad io
ad ne
as o
as es
ri on
ri est
ri pen
ri ously
ri vall
ord an
ord ian
ĠB ent
ĠB are
ĠB ac
ĠB urt
ĠB ONA
ĠB ids
ĠB reed
ĠB ARNARDINE
ĠB reath
ĠB eneath
ĠB angor
ĠB abylon
ĠB ouci
al ment
al oon
al anta
Ġthis tle
ene w
ct ar
Ġre la
Ġre ave
Ġre ne
Ġre gu
Ġre els
Ġre verse
Ġre hears
ĠC ell
ĠC OL
ĠC ice
ĠC hamber
ĠC onstant
ĠC hancellor
ĠC AMBRIDGE
ĠC OBWEB
ĠC ircum
ĠC ata
ĠC irce
Ġso ps
Ġso othing
Ġso aring
Ġon ward
Ġon ions
Ġon gles
ĠM ill
ĠM id
ĠM od
ĠM all
ĠM ist
ĠM use
ĠM atter
ĠM ile
ĠM EAS
ĠM elt
ĠM ex
ĠM iddle
ĠM aker
ĠM OPSA
ĠM USTARDSEED
Ġas cribe
Ġli en
Ġli lies
AR INA
AR GRAVE
ver bs
ver ting
ur ath
ro de
ro bed
ĠE at
ĠE ating
ĠP ish
ĠP ower
ĠP atch
ĠP ays
ĠP raise
ĠP EASEBLOSSOM
ĠP salm
Ġdo est
Ġdo gg
Ġdo cks
hi es
ĠL i
ĠL ow
ĠL ack
ĠL UKE
ĠL icha
ĠL ascivious
ĠL ouv
ĠL orra
ĠO d
ĠO bedience
ĠO pinion
am as
am ours
am azed
us pected
Ġsha ve
Ġsha red
Ġsha ken
Ġsha kest
Ġsha nks
ck en
est ate
ess us
ĠN ick
ĠN aught
ĠN aso
ĠN essus
AN GUS
ES CANES
ĠF ier
ĠF lesh
ĠF inds
ĠF east
ĠF resh
ĠF ROTH
ĠF LAMINIUS
ĠF inely
ĠF landers
ĠF LEANCE
Ġher mits
Ġbut ler
Ġbut tery
Ġbut tocks
Ġbut chered
Ġde mer
Ġde mon
Ġde mo
Ġde mes
Ġde ux
if ference
th ino
th rift
Ġsu ll
Ġse m
Ġse et
Ġse ld
Ġse vered
Ġall y
Ġall ons
Ġall usion
Ġall ey
Ġall eged
ĠG ill
ĠG ates
ĠG ray
ĠG aw
ĠG arden
ĠG URNEY
ĠG ordian
ĠG ARGRAVE
Ġlo it
Ġlo iter
Ġlo bby
Ġlo cal
Ġlo sest
il hom
ru its
ru ple
ru ned
ru dge
ru ctions
ru pter
Ġsp er
Ġsp un
Ġsp ites
Ġsp ying
Ġsp outs
Ġsp hered
Ġsp inst
Ġsp akest
Ġsp rang
Ġfa rest
Ġfa bles
Ġkn ack
Ġkn otted
art les
art ford
Ġv om
Ġv ia
Ġv ents
Ġv ines
Ġv ouches
Ġv louting
Ġv raiment
ho ves
han ced
han als
ard an
ĠD ry
ĠD iss
ĠD alm
ĠD rop
ĠD ENN
ĠD ORCAS
ĠD omit
ĠD ishonour
ĠD artford
ĠD ardan
Ġman n
Ġman s
Ġman aged
Ġman ager
Ġman aging
Ġsh y
Ġsh unning
Ġsh rim
Ġne b
Ġne g
Ġne ctar
ant ine
ant ation
qu ed
qu ers
qu ies
qu alt
Ġam ort
The e
Ġup side
Ġup rear
Ġup start
end ea
end al
Ġgood lier
Ġgood liest
Ġcom er
Ġcom ed
Ġcom ic
Ġcom ments
Ġmu zzled
res seth
res pond
ie ver
ie us
Ġpr ings
Ġpr ank
Ġpr atest
Ġpr attling
ĠR am
ĠR ound
ĠR are
ĠR ouse
ĠR ises
ĠR amb
ĠR ash
ĠR icher
Ġgo nd
Ġgo ers
Ġgo aded
Ġgo bbets
ic ated
ic ially
ic raft
Ġcon ger
Ġcon form
Ġcon joined
one ous
ble eding
Ġshe s
Ġshe w
Ġshe er
Ġshe ds
ong ues
ers pread
ST RATO
ul ap
EL INOR
ost rate
ost ication
Ġthere at
Ġthere unto
Ġlove lier
Ġsw ar
Ġsw am
Ġsw art
Ġsw ab
Ġsw ains
Ġsw ept
Ġsw erving
ure an
Ġbl u
Ġbl ent
Ġbl ur
Ġbl asting
Ġbl ameless
Ġbl inking
Ġca ut
Ġca ret
el estial
em perate
em pered
Ġknow ist
Ġknow ingly
Ġhat ing
Ġor k
Ġor t
ĠV ill
ĠV ice
ĠV ia
ĠV ile
ĠV ictorious
ĠV intner
ol ation
Ġar bour
Ġar ched
Ġar gued
Ġhere by
Ġwor ts
Ġus ance
Ġus uries
ink ets
la pp
Ġbr ay
Ġbr oth
Ġbr ushes
ng y
Ġwell s
um er
um ond
um ont
od s
od ied
od ary
od ities
od ils
ort able
Ġqu is
Ġqu od
Ġqu eas
Ġqu its
Ġqu arry
Ġqu ail
Ġqu aked
Ġqu ails
Ġqu artered
Ġqu ailing
Ġqu enched
ig od
ig old
ig ated
Ġj ure
Ġj ury
Ġj ointed
Ġj aund
Ġj elly
Ġj ordan
ĠNe eds
ĠNe glect
Ġr ation
Ġr ids
Ġr outs
Ġr idden
Ġr ayed
Ġr henish
ere th
ere ft
ere my
ĠBut ler
ĠBut cher
Ġsa pp
Ġun ic
Ġun sw
Ġun ple
Ġun ready
Ġun su
Ġun mit
Ġun bow
Ġun heard
Ġun question
Ġun laid
Ġun viol
Ġun learned
Ġun apt
Ġun armed
Ġun heed
Ġun necessary
Ġun urged
Ġmad s
Ġmad ding
Ġmad ded
Ġmad rig
Ġdis j
Ġdis asters
Ġdis arm
Ġdis join
Ġdis ann
Ġdis orders
Ġdis advantage
Ġho a
Ġho b
Ġho c
Ġho lly
Ġho pest
un a
un ish
un able
un ctions
un eable
Ġmust achio
Ġout wear
Ġout weighs
ĠJ ill
ĠJ ude
ĠJ asons
ĠJ ane
ĠJ anuary
unt il
AT ARINA
pt s
pt ions
pt ures
Ġpro sp
Ġpro scri
Ġpro logues
Ġpro stitute
ence d
Ġpart i
pe ering
Ġtru mper
Ġgra ved
Ġgra ins
Ġgra ined
Ġgra nds
Ġgra zing
all ing
all els
Ġhand ed
Ġhand ful
Ġhand icraft
Ġheart ed
au v
au ca
ff ers
Ġoff al
Ġwho soe
ist les
ist ling
ist ration
ist otle
Ġma res
Ġma ul
Ġma ps
Ġma gg
Ġma zed
Ġma keth
Ġhow led
Ġro i
Ġro aming
Ġro ads
Ġro sy
ick er
wn s
Ġlea ped
Ġal way
Ġal che
Ġal ien
Ġpl ood
Ġpl us
Ġpl ated
Ġpl ural
Ġpl umed
har ming
ĠK iss
ĠK ins
ĠK ates
ĠK new
ĠK enil
ĠK endal
Ġfo in
Ġfo is
Ġfo gs
Ġfo ining
Ġfo eman
Ġfo cative
ince tino
Ġab y
Ġab ys
Ġab using
ĠFor th
ĠHe at
ĠHe ctors
Ġmar iner
Ġmar igold
IL DFORD
Ġhea ving
AND PR
Ġwhere withal
Ġwhere unto
Ġwhere until
Ġtw it
Ġtw angling
Ġbet id
Ġbet ook
Ġbet ting
Ġbet rothed
ĠAs cend
Ġen w
Ġen cl
Ġen gl
Ġen sued
Ġen joined
Ġex alt
Ġex hale
Ġhear kens
Ġlook est
ec u
ec hamber
erv a
Ġbre wer
Ġmen ace
Ġmen aced
Ġother where
ud ent
ud ding
Ġblood ied
Ġra ged
Ġra cks
per chance
per adventure
Ġart ist
Ġart icul
ef itting
PH EY
PH ILO
PH RYNIA
ger man
CH RISTOPHER
to e
to kens
oul ter
Ġri ce
Ġri band
Ġri pest
Ġcomm its
Ġcomm unity
Ġcomm ixture
Ġcomm iseration
Ġcomm odities
Ġwar r
Ġwar ily
Ġwar mer
Ġwar bling
ĠAN DROMACHE
Ġcall et
Ġper mission
Ġper vert
Ġper forms
Ġad heres
Ġad journ
Ġad oration
Ġad ieus
ite ur
Ġpray ed
Ġtr an
Ġtr ident
Ġtr inkets
Ġsc an
Ġsc ience
Ġsc rib
Ġsc owl
Ġsc rip
Ġsc ann
Ġsc iences
Ġsc attered
ĠĠĠĠĠĠĠĠĠĠĠĠĠĠĠĠĠĠĠĠĠĠĠĠĠĠĠĠĠĠĠĠ ĠĠĠĠĠĠĠĠĠĠĠĠĠĠ
Ġcour sing
Ġapp lies
Ġfl ush
Ġfl amed
Ġfl utes
Ġfl outs
Ġfl ux
Ġla ps
Ġla by
Ġla volt
Ġla issez
Ġla zars
Ġwit nes
ĠIn no
ĠIn quire
ĠIn iquity
sw ell
sw old
sw eep
sw elling
Ġhouse keeping
Ġstr ides
Ġstr utting
Ġaf resh
Ġworld lings
Ġnight gown
che er
op sa
ag us
ag eth
ag ates
ag eness
Ġstand er
ĠIt self
Ġcomp iled
Ġcomp utation
Ġcomp rehend
Ġcomp rehends
Ġwom bs
Ġru der
Ġru ral
Ġarm ourers
Ġtwo s
Ġtwo fold
Ġcl ink
Ġcl os
Ġcl ang
Ġcl outs
Ġcl oser
Ġcl iffs
Ġpres cribe
Ġpres umptuous
Ġpres erver
Ġpres ageth
Ġpla cket
ret ches
ĠNo body
ĠNo ah
ert a
ert urn
Ġcont emning
Ġfool hardy
Ġnoble men
Ġmaster ly
Ġhar lots
erc ome
erc ast
ĠIs bels
iss ant
Ġrem orseless
ĠCa pile
os ite
ĠMar iner
ĠMar iners
men ia
EM PR
ĠU sur
Ġrep osing
Ġrep lication
Ġrep rieves
Ġfind er
Ġend ued
Ġend urance
Ġent icing
Ġent angled
Ġent itle
He at
He ld
Ġgl ides
Ġbra s
Ġbra id
Ġbra kes
Ġtra ck
Ġtra ps
Ġtra ded
ĠLet ters
Ġevery where
ĠWe b
Ġind ited
Ġind uction
Ġind igested
Ġind ebt
Ġta pe
Ġta ils
UR E
ĠAnt echamber
Ġlive long
In f
In fect
ace t
ne z
Ġput re
ĠWhere ver
ĠWhere with
ĠWhere upon
Ġsm ite
Ġsm ites
Ġsm ocks
Ġsm ug
Ġplace th
eas ures
mp ling
Ġplay house
Ġunder hand
Ġunder mine
Ġunder prop
Ġchi pp
Ġcourt ez
be es
be ef
be gu
be havior
UM OUR
Ġcons olation
ĠOr chard
Ġpa x
Ġpa il
Ġpa unch
Ġel bows
So le
Ġch ill
Ġch ine
Ġch ime
Ġco ign
Ġco aches
Ġco arse
Ġgu ild
Ġpeace ably
Ġconf ining
Ġconf utes
ins i
its un
ac ies
ac inate
ac ulous
ac quaint
Ġbring eth
Ġres ide
Ġres ident
oud ed
Ġfall ible
Ġtri pe
Ġtri pped
Ġkind ling
ĠAt es
Ġpass ado
Ġgri ffin
Ġeye brows
Ġpresent ation
Ġcrown er
Ġchar ging
Ġcount less
Ġsword er
ĠPr ison
ĠSt ir
ĠSt ick
ĠSt eep
ĠSt epp
ĠSt ruck
ĠJo b
ĠJo vial
Ġpal s
Ġpal mer
Ġpal eness
Ġmeet er
Ġmeet est
Ġche ated
Ġche apen
Ġcur ing
Ġcur tle
Ġcur bed
Ġdra ch
Ġdra ff
Ġdra gged
Ġhus wife
Ġpri g
Ġpri z
Ġpri ority
Ġpri bbles
Ġneed ed
ĠDo gs
Ġchild bed
Ġover bear
Ġover ta
Ġover hear
Ġover blown
Ġover shot
Ġover plus
Ġtre bles
ati ans
ab ove
ab bled
ab reth
bt s
Ġacc ords
Ġacc uses
Ġhum s
Ġhum ming
Ġret old
hile mon
ach um
ach ieved
We eps
Ġthousand th
It al
Ġthr ones
ĠGo ing
GAR GRAVE
Ġass ent
Ġass umes
Be g
Be que
Ġbod ed
Ġpra in
Ġpra ve
Ġmadam s
Ġmon achum
Ġfal s
Ġhel per
Ġdisc ase
Ġdisc oursed
Ġimp ure
ple as
ph is
LEON ARDO
ont ed
Ġjust icer
Ġpe u
Ġpe ering
Ġpe bbles
Ġmis b
Ġmis ers
Ġmis sed
Ġmis dem
Ġmis inter
Ġmis hap
Ġsl ink
Ġsl ash
Ġsl ops
Ġsl imy
Ġsl oven
Ġi pse
bl ame
bl eness
ĠWill ing
Ġval uation
Where by
Where with
Ġbreak er
Ġhither wards
Ġdi ves
Ġdi als
Ġdi vert
Ġdi verted
ĠAl ive
ĠAl one
ĠAl ways
ĠAl onso
Ġland ing
Ġbus s
Ġsea man
Ġreason ing
Ġreason less
ix ed
Ġmo vers
Ġhang men
Ġhang eth
Ġuse th
Ġuse ful
Ġnear ness
gu ery
Ġbu gle
Ġbu bbles
Ġbu xom
Ġbo gg
Ġbo ils
Ġbo iled
ĠHer bert
Ġfe u
Ġfe odary
Ġlast ed
Ġwind mill
Ġstri keth
Ġstri fes
Ġstri cken
ĠRe x
ĠRe verend
Ġpers pect
Ġpers pective
Or lando
Ġunc rown
Ġunc ont
Ġunc onst
Ġunc omp
Ġunc overed
Ġunc urable
Ġill usion
Ġill eg
Ġill usions
Ġinst itute
Ġinst alment
Ġgr ated
de ceived
Ġfire brand
Ġjoy ous
let ters
let tered
Ġrun agates
Ġfore hand
Ġfore noon
Ġfore show
Ġfore spent
itt ish
itt eth
itt ary
itt ingly
Ġreturn ing
uff s
uff ic
uff les
Ġspo kes
Ġspo iled
rest rial
Ġden ay
uc ing
uc ullus
uc dame
uc alion
Ġcra ved
Ġcra bs
Ġprove th
of ern
Ġtalk er
Ġhard est
Ġhard iness
dom s
Ġaw akes
Ġaw eless
Ġaw ait
Ġhu gg
Ġless ons
Ġless ens
Ġwant ons
Ġsla ught
Ġstra ining
Ġjud gest
Ġsing ed
Ġsick ens
Ġpurpose th
Ġtem pers
[...]
