{"<s>":0,"<pad>":1,"</s>":2,"<unk>":3,"<mask>":4,"!":5,"\"":6,"#":7,"$":8,"%":9,"&":10,"'":11,"(":12,")":13,"*":14,"+":15,",":16,"-":17,".":18,"/":19,"0":20,"1":21,"2":22,"3":23,"4":24,"5":25,"6":26,"7":27,"8":28,"9":29,":":30,";":31,"<":32,"=":33,">":34,"?":35,"@":36,"A":37,"B":38,"C":39,"D":40,"E":41,"F":42,"G":43,"H":44,"I":45,"J":46,"K":47,"L":48,"M":49,"N":50,"O":51,"P":52,"Q":53,"R":54,"S":55,"T":56,"U":57,"V":58,"W":59,"X":60,"Y":61,"Z":62,"[":63,"\\":64,"]":65,"^":66,"_":67,"`":68,"a":69,"b":70,"c":71,"d":72,"e":73,"f":74,"g":75,"h":76,"i":77,"j":78,"k":79,"l":80,"m":81,"n":82,"o":83,"p":84,"q":85,"r":86,"s":87,"t":88,"u":89,"v":90,"w":91,"x":92,"y":93,"z":94,"{":95,"|":96,"}":97,"~":98,"¡":99,"¢":100,"£":101,"¤":102,"¥":103,"¦":104,"§":105,"¨":106,"©":107,"ª":108,"«":109,"¬":110,"®":111,"¯":112,"°":113,"±":114,"²":115,"³":116,"´":117,"µ":118,"¶":119,"·":120,"¸":121,"¹":122,"º":123,"»":124,"¼":125,"½":126,"¾":127,"¿":128,"À":129,"Á":130,"Â":131,"Ã":132,"Ä":133,"Å":134,"Æ":135,"Ç":136,"È":137,"É":138,"Ê":139,"Ë":140,"Ì":141,"Í":142,"Î":143,"Ï":144,"Ð":145,"Ñ":146,"Ò":147,"Ó":148,"Ô":149,"Õ":150,"Ö":151,"×":152,"Ø":153,"Ù":154,"Ú":155,"Û":156,"Ü":157,"Ý":158,"Þ":159,"ß":160,"à":161,"á":162,"â":163,"ã":164,"ä":165,"å":166,"æ":167,"ç":168,"è":169,"é":170,"ê":171,"ë":172,"ì":173,"í":174,"î":175,"ï":176,"ð":177,"ñ":178,"ò":179,"ó":180,"ô":181,"õ":182,"ö":183,"÷":184,"ø":185,"ù":186,"ú":187,"û":188,"ü":189,"ý":190,"þ":191,"ÿ":192,"Ā":193,"ā":194,"Ă":195,"ă":196,"Ą":197,"ą":198,"Ć":199,"ć":200,"Ĉ":201,"ĉ":202,"Ċ":203,"ċ":204,"Č":205,"č":206,"Ď":207,"ď":208,"Đ":209,"đ":210,"Ē":211,"ē":212,"Ĕ":213,"ĕ":214,"Ė":215,"ė":216,"Ę":217,"ę":218,"Ě":219,"ě":220,"Ĝ":221,"ĝ":222,"Ğ":223,"ğ":224,"Ġ":225,"ġ":226,"Ģ":227,"ģ":228,"Ĥ":229,"ĥ":230,"Ħ":231,"ħ":232,"Ĩ":233,"ĩ":234,"Ī":235,"ī":236,"Ĭ":237,"ĭ":238,"Į":239,"į":240,"İ":241,"ı":242,"Ĳ":243,"ĳ":244,"Ĵ":245,"ĵ":246,"Ķ":247,"ķ":248,"ĸ":249,"Ĺ":250,"ĺ":251,"Ļ":252,"ļ":253,"Ľ":254,"ľ":255,"Ŀ":256,"ŀ":257,"Ł":258,"ł":259,"Ń":260,"čĊ":261,"ĠĠ":262,"ĠčĊ":263,"Ġt":264,"he":265,"Ġa":266,"ou":267,"Ġs":268,"ĠĠĠ":269,"in":270,"Ġm":271,"re":272,"Ġw":273,"ha":274,"nd":275,"Ġthe":276,"Ġb":277,"is":278,"er":279,"ĠĠĠĠ":280,"or":281,"ll":282,"Ġf":283,"Ġo":284,"en":285,"it":286,"es":287,"ĠI":288,"Ġc":289,"Ġd":290,"Ġy":291,"Ġl":292,"Ġh":293,"on":294,"Ġn":295,"ar":296,"Ġp":297,"Ġth":298,"Ġyou":299,"Ġand":300,"Ġto":301,"hat":302,"Ġof":303,"Ġhe":304,"an":305,"ve":306,"ot":307,"om":308,"st":309,"ing":310,"ow":311,"Ġg":312,"at":313,"ĠA":314,"Ġbe":315,"Ġin":316,"ĠT":317,"se":318,"ce":319,"le":320,"Ġha":321,"Ġmy":322,"et":323,"ld":324,"ay":325,"ed":326,"ir":327,"ĠĠĠĠĠĠĠĠ":328,"ĠS":329,"ut":330,"Ġme":331,"ith":332,"im":333,"ch":334,"Ġis":335,"Ġnot":336,"gh":337,"ea":338,"'s":339,"ill":340,"ĠW":341,"Ġthat":342,"Ġfor":343,"our":344,"oo":345,"ke":346,"Ġe":347,"Ġu":348,"Ġwith":349,"ent":350,"ĠĠĠĠĠ":351,"Ġwe":352,"Ġit":353,"ĠH":354,"ome":355,"Ġyour":356,"id":357,"her":358,"ter":359,"ra":360,"Ġhis":361,"Ġk":362,"Ġst":363,"ad":364,"as":365,"ri":366,"Ġthou":367,"ord":368,"ĠB":369,"Ġhim":370,"al":371,"Ġthis":372,"ght":373,"ene":374,"Ġhave":375,"ct":376,"Ġre":377,"ĠC":378,"EN":379,"ly":380,"ge":381,"IN":382,"Ġso":383,"Ġon":384,"ĠM":385,"Ġas":386,"Ġli":387,"AR":388,"'d":389,"cene":390,"ore":391,"ver":392,"ur":393,"ro":394,"US":395,"ĠE":396,"ould":397,"ĠP":398,"Ġwill":399,"ain":400,"ood":401,"Ġdo":402,"hi":403,"ĠL":404,"ĠO":405,"am":406,"us":407,"Ġsha":408,"ck":409,"Ġ|":410,"est":411,"ĠThe":412,"ess":413,"ĠN":414,"ion":415,"ĠAnd":416,"nt":417,"AN":418,"ous":419,"ES":420,"ĠF":421,"Ġher":422,"and":423,"Ġbut":424,"Ġde":425,"if":426,"Ġno":427,"Ġan":428,"th":429,"ER":430,"Ġsu":431,"Ġse":432,"Ġall":433,"Ġthy":434,"ĠG":435,"Ġlo":436,"ĠĠĠĠĠĠĠĠĠĠĠĠĠĠĠĠ":437,"ell":438,"ake":439,"il":440,"ru":441,"Ġsp":442,"Ġ'":443,"Ġfa":444,"ON":445,"Ġshall":446,"ear":447,"Ġkn":448,"And":449,"art":450,"ight":451,"Ġare":452,"Ġv":453,"ho":454,"Ġthee":455,"han":456,"Ġby":457,"rom":458,"Ġour":459,"ard":460,"ast":461,"ry":462,"IO":463,"Ġscene":464,"ĠD":465,"Ġman":466,"Ġsh":467,"Ġne":468,"ant":469,"qu":470,"Ġat":471,"OR":472,"age":473,"ine":474,"Ġam":475,"AL":476,"The":477,"Ġlord":478,"Ġup":479,"end":480,"Ġwhat":481,"Ġgood":482,"Ġcom":483,"Ġmu":484,"out":485,"sel":486,"'ll":487,"res":488,"ie":489,"Ġpr":490,"ive":491,"Ġwhe":492,"ĠR":493,"Ġgo":494,"ĠY":495,"ic":496,"ind":497,"Ġcon":498,"one":499,"ble":500,"hich":501,"own":502,"Ġshe":503,"ong":504,"Ġfrom":505,"ious":506,"ers":507,"ST":508,"ul":509,"ĠScene":510,"ven":511,"EL":512,"kes":513,"oth":514,"nter":515,"Ġwould":516,"Ġwas":517,"ost":518,"Ġthere":519,"OL":520,"Ġthem":521,"Ġlove":522,"ING":523,"Ġif":524,"Ġnow":525,"Ġsw":526,"ure":527,"Ġmore":528,"Ġbl":529,"Ġca":530,"--":531,"el":532,"ath":533,"Ġcan":534,"hy":535,"Ġthey":536,"em":537,"pp":538,"xt":539,"Ġsir":540,"Ġknow":541,"Ġhat":542,"Ġor":543,"ĠTo":544,"Ġthan":545,"ep":546,"ĠV":547,"Ġlet":548,"fe":549,"Ġtheir":550,"ol":551,"self":552,"Ġhome":553,"Ġar":554,"UC":555,"Ġhere":556,"Ġsay":557,"KING":558,"Ġwor":559,"IUS":560,"ond":561,"IC":562,"Ġus":563,"ink":564,"ame":565,"ate":566,"la":567,"ĠTh":568,"ish":569,"Ġbr":570,"ET":571,"fore":572,"ng":573,"pea":574,"reat":575,"other":576,"Ġwell":577,"ĠThat":578,"RO":579,"um":580,"Ġthen":581,"Ġking":582,"od":583,"Ġone":584,"ves":585,"ort":586,"Ġcome":587,"ather":588,"Ġhath":589,"Ġsee":590,"Ġlike":591,"IA":592,"ook":593,"Ġqu":594,"ig":595,"Ġj":596,"ice":597,"ĠNe":598,"ance":599,"Ġdid":600,"rev":601,"ound":602,"Ġmay":603,"hakes":604,"peare":605,"hakespeare":606,"page":607,"Ġshould":608,"Ġhomepage":609,"Ġr":610,"ere":611,"ĠBut":612,"Ġmake":613,"Ġsa":614,"To":615,"ĠAct":616,"Ġun":617,"LO":618,"Ġmad":619,"ĠWhat":620,"Ġupon":621,"ue":622,"Ġdis":623,"Ġho":624,"gain":625,"un":626,"ARD":627,"Ġmust":628,"Ġwere":629,"ĠNext":630,"Ġout":631,"ĠJ":632,"revious":633,"unt":634,"Ġwhich":635,"Ġhad":636,"irst":637,"AT":638,"pt":639,"very":640,"eak":641,"Ġtoo":642,"ide":643,"Ġpro":644,"ity":645,"ence":646,"Ġpart":647,"pe":648,"entle":649,"Ġwhen":650,"Ġtru":651,"Ġgra":652,"RY":653,"ies":654,"row":655,"Ġsuch":656,"ime":657,"are":658,"Ġhon":659,"ire":660,"orn":661,"LA":662,"ther":663,"xe":664,"all":665,"Ġpo":666,"Ġhand":667,"ĠEnter":668,"Ġspeak":669,"That":670,"Th":671,"Ġheart":672,"au":673,"ff":674,"ness":675,"Ġagain":676,"Ġyet":677,"ose":678,"Ġoff":679,"Ġwho":680,"ise":681,"ist":682,"Ġma":683,"Ġhow":684,"Ġro":685,"man":686,"ick":687,"wn":688,"Ġlea":689,"Ġal":690,"ady":691,"Ġ1":692,"Ġthese":693,"LE":694,"oy":695,"Ġsome":696,"Ġthink":697,"Ġfather":698,"ough":699,"Ġey":700,"Ġpl":701,"Ġmine":702,"har":703,"ĠK":704,"Ġ2":705,"aster":706,"ENRY":707,"xeunt":708,"Ġgreat":709,"ESS":710,"Ġgive":711,"ĠYou":712,"Ġfo":713,"ince":714,"Ġab":715,"Ġtake":716,"urn":717,"Ġfri":718,"eet":719,"CEN":720,"ĠFor":721,"hen":722,"ĠHe":723,"Ġmar":724,"ber":725,"IL":726,"'t":727,"Ġhea":728,"Ġtell":729,"AND":730,"Ġwhere":731,"Ġtw":732,"ĠMy":733,"ust":734,"Ġmuch":735,"FF":736,"ation":737,"As":738,"way":739,"ress":740,"ful":741,"ĠLord":742,"xit":743,"Ġtime":744,"ree":745,"Ġmost":746,"Ġbet":747,"les":748,"ĠHENRY":749,"ĠAs":750,"ave":751,"Ġen":752,"here":753,"Ġnever":754,"Ġex":755,"RA":756,"ign":757,"Ġhear":758,"ass":759,"Ġ3":760,"Ġlook":761,"ings":762,"ither":763,"ec":764,"ĠIf":765,"erv":766,"But":767,"Ġday":768,"old":769,"Ġdes":770,"Ġfriend":771,"Ġword":772,"Ġbre":773,"Ġmen":774,"QU":775,"Ġother":776,"ud":777,"Ġblood":778,"ack":779,"Ġhonour":780,"Ġra":781,"IAN":782,"ull":783,"Ġdeath":784,"per":785,"Ġart":786,"Ġear":787,"Ġlife":788,"ment":789,"igh":790,"een":791,"not":792,"KE":793,"ef":794,"Ġgentle":795,"tis":796,"PH":797,"ak":798,"io":799,"li":800,"ouse":801,"tle":802,"ger":803,"CH":804,"to":805,"Ġany":806,"Ġ4":807,"IR":808,"ss":809,"ĠShakespeare":810,"ool":811,"enry":812,"TH":813,"oul":814,"Ġple":815,"EST":816,"ead":817,"Ġfair":818,"Ġwr":819,"ove":820,"Ġfear":821,"Ġri":822,"IS":823,",--":824,"ount":825,"ĠHenry":826,"ĠGod":827,"Ġcomm":828,"Ġwar":829,"ĠPrevious":830,"nder":831,"ĠAN":832,"Ġcall":833,"ED":834,"ase":835,"ward":836,"Ġper":837,"Ġson":838,"Enter":839,"What":840,"CE":841,"First":842,"ren":843,"Ġad":844,"Ġdoth":845,"eed":846,"Act":847,"ces":848,"land":849,"ite":850,"Ġpray":851,"Ġtr":852,"Ġown":853,"Ġsc":854,"CENE":855,"Ġheaven":856,"SCENE":857,"For":858,"ĠĠĠĠĠĠĠĠĠĠĠĠĠĠĠĠĠĠĠĠĠĠĠĠĠĠĠĠĠĠĠĠ":859,"AM":860,"Ġmade":861,"ife":862,"ee":863,"Ġvery":864,"hing":865,"able":866,"Ġwh":867,"II":868,"use":869,"rown":870,"Ġtrue":871,"Ġsweet":872,"Ġke":873,"DU":874,"ans":875,"llow":876,"Ġcour":877,"Ġapp":878,"Ġfl":879,"ction":880,"Ġcannot":881,"Ġla":882,"ĠBe":883,"Ġbeen":884,"Ġhast":885,"IST":886,"Shakespeare":887,"ty":888,"ĠHow":889,"Ġwit":890,"ock":891,"ĠIn":892,"ĠOF":893,"Ġaway":894,"ESTER":895,"sw":896,"ĠThis":897,"Ġhouse":898,"Ġbrother":899,"Ġstr":900,"Ġaf":901,"Ġworld":902,"Ġnight":903,"Ġbear":904,"Ġway":905,"che":906,"ĠWhy":907,"cc":908,"op":909,"ag":910,"My":911,"Ġdone":912,"Ġstand":913,"ICK":914,"augh":915,"ĠIt":916,"Ġcomp":917,"Ġname":918,"Ġwom":919,"orrow":920,"Ġru":921,"Ġlady":922,"eal":923,"Ġdown":924,"Ġhead":925,"Ġarm":926,"Ġtwo":927,"Ġcl":928,"Ġever":929,"ci":930,"Ġeyes":931,"Ġnor":932,"Ġpres":933,"ower":934,"Ġleave":935,"Ġbefore":936,"ĠWith":937,"Ġim":938,"ĠSir":939,"Ġgrace":940,"ier":941,"uke":942,"Ġpla":943,"Ġcha":944,"IM":945,"RESS":946,"You":947,"ret":948,"ĠNo":949,"ks":950,"ving":951,"ert":952,"Previous":953,"Ġmight":954,"led":955,"Ġcont":956,"AFF":957,"UL":958,"MAR":959,"TON":960,"Ġthus":961,"Ġfool":962,"ĠCome":963,"aint":964,"ĠSo":965,"Ġold":966,"STAFF":967,"ALSTAFF":968,"Ġcomes":969,"Ġlong":970,"Ġnoble":971,"UCESTER":972,"LOUCESTER":973,"AS":974,"econd":975,"ears":976,"Ġmaster":977,"Ġthought":978,"ew":979,"ors":980,"Ġhar":981,"Ġbetter":982,"ĠAn":983,"ved":984,"Ġbeg":985,"DUKE":986,"OM":987,"ought":988,"hip":989,"With":990,"Ġcould":991,"Ġnew":992,"red":993,"erc":994,"ĠIs":995,"atter":996,"Ġpur":997,"iss":998,"Ġrem":999,"ons":1000,"eace":1001,"less":1002,"ĠĠĠĠĠĠĠĠĠĠĠĠ":1003,"ORD":1004,"Ġ5":1005,"EEN":1006,"ĠExeunt":1007,"Ġsoul":1008,"atch":1009,"ĠCa":1010,"INE":1011,"os":1012,"ĠMar":1013,"men":1014,"Ġbeing":1015,"nto":1016,"EM":1017,"come":1018,"Ġkeep":1019,"Ġinto":1020,"Ġdead":1021,"RIN":1022,"ĠWho":1023,"QUEEN":1024,"ĠOf":1025,"Ġpoor":1026,"FALSTAFF":1027,"Tis":1028,"If":1029,"ĠU":1030,"Ġrep":1031,"aughter":1032,"Ġboth":1033,"Ġmany":1034,"LES":1035,"ows":1036,"ds":1037,"ian":1038,"Ġfind":1039,"Ġend":1040,"ROS":1041,"rance":1042,"Ġent":1043,"for":1044,"ĠWell":1045,"He":1046,"Ġmyself":1047,"ĠEng":1048,"ield":1049,"Ġbest":1050,"Ġgl":1051,"rew":1052,"Ġnothing":1053,"Ġbra":1054,"ĠThere":1055,"ps":1056,"Ġtra":1057,"me":1058,"ĠKing":1059,"uck":1060,"ĠExit":1061,"ĠLet":1062,"ĠThou":1063,"ittle":1064,"mb":1065,"Ġevery":1066,"ĠWe":1067,"nce":1068,"Ġind":1069,"Ġta":1070,"ied":1071,"AG":1072,"UR":1073,"une":1074,"AD":1075,"Exeunt":1076,"ĠAnt":1077,"Ġlive":1078,"In":1079,"Second":1080,"ID":1081,"Ġlittle":1082,"Ġfollow":1083,"ace":1084,"ĠWhich":1085,"Ġlie":1086,"Ġset":1087,"Ġdaughter":1088,"eth":1089,"ne":1090,"Ġput":1091,"Ġwife":1092,"Ġfriends":1093,"vil":1094,"GLOUCESTER":1095,"Ġfell":1096,"sed":1097,"hall":1098,"IT":1099,"UN":1100,"ĠWhere":1101,"Ġtong":1102,"ĠNow":1103,"Ġsm":1104,"Ġplace":1105,"Ġstill":1106,"ged":1107,"Ġqueen":1108,"ia":1109,"Ġhigh":1110,"Ġlords":1111,"eas":1112,"ĠBy":1113,"Ġthing":1114,"mp":1115,"tend":1116,"Ġfirst":1117,"Ġfort":1118,"ICH":1119,"Ġyoung":1120,"Ġdie":1121,"Ġhold":1122,"Ġplay":1123,"int":1124,"ark":1125,"Ġansw":1126,"ĠVI":1127,"AB":1128,"Ġhour":1129,"Ġunder":1130,"Ġchi":1131,"Ġcourt":1132,"rant":1133,"Ġthose":1134,"be":1135,"UM":1136,"ony":1137,"Ġsle":1138,"uth":1139,"Ġcons":1140,"Ġserv":1141,"ft":1142,"Exit":1143,"alk":1144,"ĠOr":1145,"ile":1146,"Ġplease":1147,"AST":1148,"ect":1149,"Ġhimself":1150,"TIO":1151,"istress":1152,"Ġrest":1153,"Ġpa":1154,"Ġel":1155,"So":1156,"ĠWhen":1157,"No":1158,"iness":1159,"Ġch":1160,"Ġco":1161,"Ġgu":1162,"Ġnat":1163,"Ġpeace":1164,"Ġgone":1165,"esty":1166,"Ġconf":1167,"ilt":1168,"PRIN":1169,"ins":1170,"Ġagainst":1171,"BER":1172,"Ġshow":1173,"SIR":1174,"ISTRESS":1175,"lt":1176,"ĠHere":1177,"ĠFrance":1178,"Ġwoman":1179,"its":1180,"Ġdear":1181,"get":1182,"UCH":1183,"OP":1184,"Why":1185,"Ġnone":1186,"ason":1187,"Ġprince":1188,"How":1189,"Ġboy":1190,"ac":1191,"Ġstay":1192,"Ġbring":1193,"Of":1194,"HAM":1195,"iz":1196,"This":1197,"Ġtill":1198,"Ġface":1199,"ĠIV":1200,"Ġmind":1201,"Ġres":1202,"ORK":1203,"oud":1204,"Ġanswer":1205,"ICHARD":1206,"Ġpre":1207,"Ġfall":1208,"Ġtri":1209,"ius":1210,"Ġkind":1211,"lf":1212,"ĠAt":1213,"Ġtherefore":1214,"Ġpass":1215,"Ġgri":1216,"Ġvir":1217,"Ġeye":1218,"Ġpresent":1219,"Ġcrown":1220,"Ġfull":1221,"ison":1222,"Ġchar":1223,"Ġcount":1224,"ceive":1225,"Ġsword":1226,"the":1227,"Ġle":1228,"Ġworth":1229,"Ġmean":1230,"hard":1231,"Ġgi":1232,"ĠPr":1233,"Ġwords":1234,"sand":1235,"ĠSt":1236,"Ġtongue":1237,"OB":1238,"Ġmother":1239,"Ġthough":1240,"ĠJo":1241,"ens":1242,"Ġpal":1243,"arry":1244,"Ġcou":1245,"Ġsame":1246,"Ġafter":1247,"EY":1248,"pon":1249,"Ġelse":1250,"Ġmeet":1251,"esar":1252,"Ġright":1253,"Which":1254,"ĠAy":1255,"Ġunto":1256,"ĠRome":1257,"LUC":1258,"Ġche":1259,"ition":1260,"Ġturn":1261,"Ġcur":1262,"Ġforth":1263,"Ġsaid":1264,"Ġdra":1265,"Ġsub":1266,"Ġthine":1267,"Ġfaith":1268,"Ġhus":1269,"Ġpri":1270,"ird":1271,"OT":1272,"ĠYour":1273,"Ġwhose":1274,"Ġneed":1275,"Who":1276,"hn":1277,"ult":1278,"ĠIII":1279,"ĠDo":1280,"eech":1281,"Ġbel":1282,"Ġchild":1283,"Ġbid":1284,"Ġover":1285,"Ġhope":1286,"Ġtre":1287,"Ġthree":1288,"band":1289,"MISTRESS":1290,"UT":1291,"orse":1292,".'":1293,"pose":1294,"cl":1295,"Ġwhy":1296,"ati":1297,"Ġseem":1298,"ised":1299,"Ġonce":1300,"ab":1301,"ctor":1302,"ĠGentle":1303,"Ġspir":1304,"bt":1305,"Ġacc":1306,"Ġhum":1307,"Ġret":1308,"Ġwrong":1309,"asure":1310,"hile":1311,"ĠJohn":1312,"CUS":1313,"Ġindeed":1314,"Ġmatter":1315,"Ġbes":1316,"urd":1317,"ried":1318,"lown":1319,"ĠThen":1320,"ach":1321,"ĠMAR":1322,"Ġletter":1323,"Ġchan":1324,"Ġwhom":1325,"Ġback":1326,"Ġanother":1327,"Ġstran":1328,"CT":1329,"Ġ[":1330,"ichard":1331,"Ġabout":1332,"Ġhusband":1333,"Ġeven":1334,"We":1335,"Ġvill":1336,"essen":1337,"Ġthousand":1338,"It":1339,"Ġser":1340,"Ġthr":1341,"Ġheard":1342,"Ġhas":1343,"uty":1344,"ĠGo":1345,"GAR":1346,"Ġdou":1347,"Ġstre":1348,"Ġearth":1349,"Ġhence":1350,"any":1351,"Ġass":1352,"Be":1353,"UD":1354,"tw":1355,"By":1356,"Ġbod":1357,"Ġpower":1358,"Thou":1359,"ertain":1360,"Ġpra":1361,"ister":1362,"ĠII":1363,"ĠRICHARD":1364,"ary":1365,"ĠCaesar":1366,"ĠLE":1367,"Ġmadam":1368,"Ġthank":1369,"ail":1370,"ĠRichard":1371,"Ġcause":1372,"Ġea":1373,"Ġmon":1374,"Ġfal":1375,"Ġduke":1376,"Ġhel":1377,"ĠShe":1378,"Ġdisc":1379,"Ġimp":1380,"selves":1381,"ple":1382,"vy":1383,"Ġtruth":1384,"Aside":1385,"ph":1386,"ĠGood":1387,"ardon":1388,"LEON":1389,"Is":1390,"ont":1391,"ROM":1392,"enter":1393,"Ġsure":1394,"Ġkill":1395,"Ġlight":1396,"Ġjust":1397,"ĠANTON":1398,"Ġpe":1399,"ants":1400,"ANIO":1401,"Ġmis":1402,"essenger":1403,"Ġsl":1404,"ĠEngland":1405,"Ġi":1406,"Ġvirt":1407,"Ġsold":1408,"Ġsleep":1409,"bl":1410,"pect":1411,"Ġhands":1412,"PER":1413,"yal":1414,"Ġcame":1415,"ĠNor":1416,"Ġbed":1417,"Ġlaw":1418,"ĠBr":1419,"ury":1420,"There":1421,"ike":1422,"ĠWill":1423,"Ġwithin":1424,"day":1425,"Ġdre":1426,"ĠTro":1427,"PRINCE":1428,"imes":1429,"OF":1430,"hes":1431,"ains":1432,"Ġfalse":1433,"ars":1434,"Ġval":1435,"Ġgold":1436,"ROSAL":1437,"Ġsent":1438,"Ġnews":1439,"Where":1440,"Ġfight":1441,"ORT":1442,"Ġmaid":1443,"Ġbreak":1444,"LY":1445,"ms":1446,"Ġhither":1447,"ĠThey":1448,"fect":1449,"Ġmaj":1450,"ĠAntony":1451,"Ġstate":1452,"Ġdost":1453,"ute":1454,"Ġere":1455,"Ġmakes":1456,"air":1457,"Ġdi":1458,"Ġsince":1459,"omet":1460,"SH":1461,"When":1462,"ĠAl":1463,"gue":1464,"Ġland":1465,"Ġshame":1466,"ETR":1467,"Ġbus":1468,"ork":1469,"Ġwel":1470,"AGE":1471,"LI":1472,"Ġsea":1473,"ours":1474,"ets":1475,"fort":1476,"Ġmer":1477,"ham":1478,"Ġreason":1479,"ĠMaster":1480,"ix":1481,"ASS":1482,"Ġnature":1483,"Ġrather":1484,"Ġye":1485,"anc":1486,"Ġgentleman":1487,"ory":1488,"Ġmo":1489,"Ġhang":1490,"Ġpalace":1491,"cious":1492,"Ġfellow":1493,"Ġuse":1494,"Ġyouth":1495,"Ġhapp":1496,"Ġenough":1497,"HAR":1498,"LAND":1499,"Ġnear":1500,"ĠCA":1501,"gu":1502,"pen":1503,"well":1504,"Ġfortune":1505,"Ġfar":1506,"gether":1507,"Ġbu":1508,"ENT":1509,"bs":1510,"ĠNay":1511,"ĠANTONY":1512,"ousin":1513,"AV":1514,"Come":1515,"Ġadv":1516,"ouch":1517,"Ġdevil":1518,"Ġgods":1519,"Ġbo":1520,"ates":1521,"ĠHer":1522,"Ġfe":1523,"ANT":1524,"OLK":1525,"Ġmajesty":1526,"Let":1527,",'":1528,"Ġmistress":1529,"vere":1530,"Ġlast":1531,"ĠAll":1532,"ieve":1533,"Ġthings":1534,"ĠHis":1535,"Ġwind":1536,"vers":1537,"Clown":1538,"ject":1539,"Ġwithout":1540,"Ġhelp":1541,"DON":1542,"Ġsound":1543,"Ġstri":1544,"EUS":1545,"INA":1546,"LAUD":1547,"ĠRe":1548,"ATRA":1549,"LEOP":1550,"LEOPATRA":1551,"Ġcare":1552,"rench":1553,"Ġshalt":1554,"Ġpers":1555,"ions":1556,"Ġban":1557,"ner":1558,"night":1559,"Ġsec":1560,"Or":1561,"Ġlay":1562,"Ġdoes":1563,"Ġbody":1564,"Ġwelcome":1565,"Now":1566,"ides":1567,"ches":1568,"dd":1569,"ild":1570,"WICK":1571,"ap":1572,"ily":1573,"enem":1574,"Ġunc":1575,"Ay":1576,"Your":1577,"OTH":1578,"Ġill":1579,"ARWICK":1580,"ĠNot":1581,"usic":1582,"Ġenem":1583,"INCEN":1584,"Ġswear":1585,"INCENTIO":1586,"GR":1587,"Ġpati":1588,"ETH":1589,"Ġcommand":1590,"Ġinst":1591,"Ġarms":1592,"Ġgr":1593,"els":1594,"GARET":1595,"Ġyourself":1596,"uch":1597,"ween":1598,"de":1599,"ĠThan":1600,"Ġhonest":1601,"Ġremem":1602,"Ġfault":1603,"Ġsaw":1604,"SP":1605,"Ġsend":1606,"Ġhorse":1607,"Ġtears":1608,"ARDIN":1609,"iers":1610,"hed":1611,"ĠYork":1612,"Ġfield":1613,"Ġsun":1614,"Ġroyal":1615,"ĠEd":1616,"Ġlost":1617,"IANA":1618,"Ġkiss":1619,"Ġstrange":1620,"Ġgrief":1621,"HN":1622,"OHN":1623,"Ġonly":1624,"lish":1625,"Ġfire":1626,"ĠServ":1627,"eft":1628,"Ġwish":1629,"Ġyours":1630,"ercy":1631,"onder":1632,"ATHAR":1633,"ener":1634,"Ġget":1635,"hold":1636,"Ġjoy":1637,"ats":1638,"Ġdru":1639,"Ġstrong":1640,"WARD":1641,"Ġsomet":1642,"itiz":1643,"let":1644,"IND":1645,"OLI":1646,"Ġrun":1647,"Ġfore":1648,"VIA":1649,"ives":1650,"ning":1651,"Ġspirit":1652,"itt":1653,"ĠShall":1654,"ster":1655,"CO":1656,"Ġpardon":1657,"Ġmeans":1658,"Ġprom":1659,"ĠHave":1660,"Ġdeed":1661,"Ġdesire":1662,"Ġreturn":1663,"Ġtogether":1664,"BAST":1665,"Ġcousin":1666,"ERS":1667,"ĠDuke":1668,"ĠYORK":1669,"Ġborn":1670,"Ġdare":1671,"ause":1672,"morrow":1673,"Ġleft":1674,"Ġseen":1675,"oney":1676,"ken":1677,"uff":1678,"Ġoft":1679,"Ġthrough":1680,"ade":1681,"Ġbreath":1682,"outh":1683,"Ġspo":1684,"RUT":1685,"ĠVINCENTIO":1686,"GO":1687,"rest":1688,"Ġden":1689,"DR":1690,"uc":1691,"ents":1692,"ling":1693,"Ġdan":1694,"rence":1695,"OG":1696,"Ġcra":1697,"Ġread":1698,"Ġprove":1699,"of":1700,"Ġtalk":1701,"ELLO":1702,"Ġcoun":1703,"She":1704,"like":1705,"Ġhard":1706,"Ġweep":1707,"Then":1708,"Ġgrow":1709,"dom":1710,"Ġaw":1711,"Ġhu":1712,"Ġless":1713,"Ġexce":1714,"Ġwant":1715,"Ġsla":1716,"Ġgre":1717,"Ġstra":1718,"ift":1719,"Ġbusiness":1720,"RUTUS":1721,"bour":1722,"ĠGentleman":1723,"CLEOPATRA":1724,"Ġwilt":1725,"Ġjud":1726,"by":1727,"Ġsing":1728,"Ġfly":1729,"Ġfree":1730,"Ġhalf":1731,"DY":1732,"Ġsick":1733,"Ġbea":1734,"Ġpurpose":1735,"ĠKING":1736,"Ġtem":1737,"ĠSh":1738,"Ġitself":1739,"Here":1740,"MARK":1741,"YRA":1742,"gs":1743,"ĠSYRA":1744,"Ġseek":1745,"CUSE":1746,"ĠSYRACUSE":1747,"ithe":1748,"Ġdoubt":1749,"ROSALIND":1750,"HEL":1751,"IPH":1752,"ARDINAL":1753,"Ġoath":1754,"Ġtold":1755,"ĠFrench":1756,"ĠĠĠĠĠĠĠĠĠĠĠĠĠĠĠĠĠĠĠĠĠĠĠĠĠĠĠĠ":1757,"rink":1758,"Ġroom":1759,"iet":1760,"ross":1761,"ĠED":1762,"Well":1763,"sc":1764,"Ġmet":1765,"Ġsays":1766,"form":1767,"Ġcomfort":1768,"ĠBefore":1769,"Ġvo":1770,"Ġthoughts":1771,"com":1772,"OLUS":1773,"IPHOLUS":1774,"Ġprison":1775,"Ġservice":1776,"OCT":1777,"ĠCla":1778,"Ġdraw":1779,"ial":1780,"wick":1781,"ĠANDR":1782,"His":1783,"mer":1784,"ray":1785,"Ġsupp":1786,"LET":1787,"ĠĠĠĠĠĠĠĠĠĠĠĠĠĠĠĠĠĠĠĠ":1788,"ĠYet":1789,"IMON":1790,"Ġcountry":1791,"CA":1792,"LEN":1793,"St":1794,"Ġwa":1795,"ELIA":1796,"gainst":1797,"Ġlate":1798,"Ġdef":1799,"Ġvillain":1800,"Ġfound":1801,"roke":1802,"ABEL":1803,"Ġsorrow":1804,"Ġfoul":1805,"ARUS":1806,"ANTON":1807,"iol":1808,"Ġwear":1809,"Ġattend":1810,"IRON":1811,"oman":1812,"Ġproud":1813,"ADR":1814,"itor":1815,"Ġbloody":1816,"Ġcast":1817,"arwick":1818,"Ġpity":1819,"ĠPAGE":1820,"ĠOur":1821,"Ġfur":1822,"ople":1823,"ford":1824,"ater":1825,"ithee":1826,"ACH":1827,"Ġgener":1828,"Ġquick":1829,"All":1830,"Sir":1831,"Ġsen":1832,"ĠJOHN":1833,"Ġreven":1834,"ABELLA":1835,"Ġmarry":1836,"UNT":1837,"Ġbeseech":1838,"MEN":1839,"Than":1840,"Ġsad":1841,"ĠCle":1842,"WARWICK":1843,"ls":1844,"ures":1845,"Ġcry":1846,"ĠMARGARET":1847,"ĠEdward":1848,"ĠBEL":1849,"Ġsuff":1850,"LAUDIO":1851,"Ġdanger":1852,"aw":1853,"king":1854,"Ġgave":1855,"ĠThy":1856,"Ġsil":1857,"Ġcompany":1858,"PAR":1859,"oose":1860,"Ġknight":1861,"Ġdist":1862,"Ġsoon":1863,"HAMLET":1864,"ior":1865,"ship":1866,"Ġwin":1867,"ĠWarwick":1868,"Ġfoot":1869,"IANO":1870,"up":1871,"vour":1872,"Ġmusic":1873,"Ġcertain":1874,"Ġinf":1875,"Ġlies":1876,"They":1877,"TES":1878,"VOL":1879,"lo":1880,"Ġsister":1881,"Ġalone":1882,"Ġlear":1883,"Ġint":1884,"ENCE":1885,"ptain":1886,"Ġmark":1887,"Ġbri":1888,"Ġlose":1889,"UCKING":1890,"ments":1891,"Ġhighness":1892,"UCHIO":1893,"ROMIO":1894,"ETRUCHIO":1895,"UCKINGHAM":1896,"ible":1897,"Ġwarrant":1898,"most":1899,"Ġcond":1900,"Not":1901,"INIUS":1902,"Ġcharge":1903,"Ġsin":1904,"Ġcar":1905,"Ġcold":1906,"ott":1907,"ĠEDWARD":1908,"Nay":1909,"ues":1910,"Ġtend":1911,"BO":1912,"sh":1913,"Ġtimes":1914,"Ġdep":1915,"ERD":1916,"Ġlooks":1917,"Ġuncle":1918,"hal":1919,"ĠĠĠĠĠĠĠĠĠĠĠĠĠĠĠĠĠĠĠĠĠĠĠĠĠĠĠĠĠĠĠĠĠĠ":1920,"Ġpeople":1921,"Ġdream":1922,"JUL":1923,"UG":1924,"Ġair":1925,"Ġsight":1926,"Ġbound":1927,"ced":1928,"Ġgracious":1929,"oe":1930,"Ġsit":1931,"Ġyield":1932,"BRUTUS":1933,"UFF":1934,"ran":1935,"Ġsovere":1936,"Ġprin":1937,"Ġknows":1938,"IDA":1939,"UFFOLK":1940,"now":1941,"ĠAR":1942,"AC":1943,"Do":1944,"cess":1945,"Ġyears":1946,"ĠEnglish":1947,"BERT":1948,"Ġtrust":1949,"Ġdam":1950,"erer":1951,"Ġter":1952,"Ġpar":1953,"ĠAr":1954,"adam":1955,"ĠTOB":1956,"ĠGive":1957,"laim":1958,"Ġbetween":1959,"Ġfurther":1960,"ĠBELCH":1961,"ĠTOBY":1962,"Ġmurd":1963,"Ġcommon":1964,"ENA":1965,"INAND":1966,"ĠFrom":1967,"Ġthyself":1968,"ured":1969,"Ġdisp":1970,"ERDINAND":1971,"Tw":1972,"Ġcho":1973,"Ġhate":1974,"ring":1975,"ĠĠĠĠĠĠĠĠĠĠĠĠĠĠĠĠĠĠĠĠĠĠĠĠĠĠĠĠĠĠĠĠĠĠĠĠ":1976,"ĠCitiz":1977,"ĠVII":1978,"Ġbrought":1979,"Ġothers":1980,"BEN":1981,"VAL":1982,"no":1983,"Ġwound":1984,"ESAR":1985,"Ġholy":1986,"ANDARUS":1987,"COR":1988,"Good":1989,"ale":1990,"aff":1991,"LAN":1992,"Ġask":1993,"Ġdel":1994,"opat":1995,"ANTONIO":1996,"Ġsk":1997,"OLLES":1998,"Ġaff":1999,"Ġloves":2000,"opatra":2001,"DEM":2002,"FORD":2003,"bed":2004,"hant":2005,"ery":2006,"Ġrec":2007,"RESSIDA":2008,"Ġbar":2009,"Ġgiven":2010,"Ġbelieve":2011,"Ġserve":2012,"Ġeach":2013,"DROMIO":2014,"Ġdrink":2015,"oward":2016,"ENTINE":2017,"!'":2018,"Ġwise":2019,"Ġcut":2020,"ceed":2021,"ices":2022,"TEUS":2023,"ALLO":2024,"ROTEUS":2025,"Ġgrave":2026,"Ġremember":2027,"ALLOW":2028,"Ġwis":2029,"ATO":2030,"LADY":2031,"CLAUDIO":2032,"ned":2033,"Ġbat":2034,"Ġpay":2035,"ondon":2036,"Ġdays":2037,"Ġhappy":2038,"lly":2039,"Ġbeat":2040,"ĠSold":2041,"ĠLondon":2042,"ched":2043,"Ġbrave":2044,"ĠCleopatra":2045,"amp":2046,"ANS":2047,"Ġworthy":2048,"BIRON":2049,"PETRUCHIO":2050,"Ġcor":2051,"cester":2052,"KATHAR":2053,"Ġside":2054,"Ġknown":2055,"Ġmoney":2056,"Ġfour":2057,"ĠAre":2058,"Ġfarew":2059,"ROIL":2060,"Ġfarewell":2061,"ROILUS":2062,"Ġfit":2063,"ĠPro":2064,"unes":2065,"Ġcontent":2066,"Shall":2067,"Ġposs":2068,"ĠUpon":2069,"Ġgall":2070,"Go":2071,"Ġmin":2072,"Ġcol":2073,"Ġlad":2074,"Ġgar":2075,"Ġforg":2076,"Ġem":2077,"enty":2078,"estion":2079,"Ġvirtue":2080,"BEL":2081,"Have":2082,"fection":2083,"Ġsubject":2084,"Ġground":2085,"CAL":2086,"TR":2087,"Ġsake":2088,"Ġwhile":2089,"Ġloved":2090,"ICE":2091,"Ġpleasure":2092,"ĠĠĠĠĠĠĠĠĠĠĠĠĠĠĠĠĠĠĠĠĠĠĠĠĠĠĠĠĠĠĠĠĠĠĠ":2093,"Ġgeneral":2094,"ĠQU":2095,"Ġwork":2096,"Ġring":2097,"Ġreport":2098,"PANDARUS":2099,"Ġlives":2100,"ĠLike":2101,"Ġlead":2102,"BUS":2103,"Re":2104,"Ġperson":2105,"CRESSIDA":2106,"Ġpast":2107,"Ġeat":2108,"Ġmerry":2109,"VALENTINE":2110,"iant":2111,"CARDINAL":2112,"Ġten":2113,"Ġage":2114,"eter":2115,"arewell":2116,"Ġexp":2117,"az":2118,"Ġac":2119,"Ġmock":2120,"Ġopen":2121,"Ġpoint":2122,"Ġsovereign":2123,"Ġtouch":2124,"ICLES":2125,"ORTIA":2126,"Will":2127,"ush":2128,"AVIUS":2129,"oint":2130,"irth":2131,"ĠDid":2132,"iece":2133,"FERDINAND":2134,"Ġbold":2135,"ĠVen":2136,"Messenger":2137,"Ġact":2138,"Ġmouth":2139,"Ġsave":2140,"Ġwomen":2141,"PROTEUS":2142,"YORK":2143,"ĠPED":2144,"ief":2145,"peak":2146,"Ġprof":2147,"Ġbeauty":2148,"ĠPEDRO":2149,"Ġmercy":2150,"Ġknave":2151,"Ġhell":2152,"ĠCom":2153,"ally":2154,"EDICK":2155,"ĠCAESAR":2156,"pher":2157,"ined":2158,"Ġwoo":2159,"Ġwonder":2160,"ots":2161,"Ġrequ":2162,"urt":2163,"Ġdeep":2164,"ĠGl":2165,"ĠLEON":2166,"ĠVIII":2167,"NOR":2168,"ĠWould":2169,"Ġsum":2170,"Ġsuit":2171,"ĠTroil":2172,"Ġdiv":2173,"HELENA":2174,"stand":2175,"Ġprot":2176,"ĠJul":2177,"Ġrich":2178,"Ġenemy":2179,"Ġtown":2180,"OLPH":2181,"ARDOLPH":2182,"Ġliege":2183,"ixt":2184,"Ġnext":2185,"othing":2186,"Ġenter":2187,"BE":2188,"ĠHector":2189,"Ġord":2190,"Ġmorn":2191,"oof":2192,"Ġears":2193,"Ġtender":2194,"Ġest":2195,"Ġinc":2196,"Ġatt":2197,"Ġexc":2198,"Ġpatience":2199,"BUCKINGHAM":2200,"oucester":2201,"ĠLook":2202,"PAROLLES":2203,"sue":2204,"uous":2205,"Ġmove":2206,"ENIUS":2207,"Ġheavy":2208,"ISTOL":2209,"ceived":2210,"inks":2211,"AP":2212,"BOT":2213,"ION":2214,"ub":2215,"Ġsign":2216,"ĠDe":2217,"ICKLY":2218,"Ġpraise":2219,"urse":2220,"Ġknew":2221,"Ġvis":2222,"ĠQUICKLY":2223,"PO":2224,"ĠEN":2225,"Ġhair":2226,"ARBUS":2227,"Ġgoes":2228,"Ġhearts":2229,"SUFFOLK":2230,"irm":2231,"Ġconfess":2232,"ĠCitizen":2233,"BRO":2234,"CASS":2235,"Ġhot":2236,"Ġpen":2237,"ĠCor":2238,"ĠCan":2239,"Ġfast":2240,"OBARBUS":2241,"ĠENOBARBUS":2242,"BROKE":2243,"gg":2244,"Ġwater":2245,"Ġspeed":2246,"Ġshort":2247,"Ġbless":2248,"ered":2249,"JA":2250,"Lord":2251,"av":2252,"ires":2253,"ĠEPH":2254,"hil":2255,"ESUS":2256,"OMIT":2257,"LANDO":2258,"OTHELLO":2259,"ĠEPHESUS":2260,"OMITIUS":2261,"LAR":2262,"Ġsur":2263,"race":2264,"ĠCh":2265,"Ġdev":2266,"Ġneither":2267,"Ġgentlemen":2268,"YM":2269,"mber":2270,"ĠAd":2271,"ĠTw":2272,"ĠOn":2273,"IAGO":2274,"ROSPER":2275,"OGEN":2276,"ROSPERO":2277,"ught":2278,"vel":2279,"Ġcanst":2280,"Ġpret":2281,"ries":2282,"olk":2283,"Ġplain":2284,"nds":2285,"ĠHel":2286,"ĠMay":2287,"Ġtook":2288,"ĠGloucester":2289,"GEL":2290,"rah":2291,"ask":2292,"IOLA":2293,"Ġentreat":2294,"VOLIO":2295,"BENEDICK":2296,"GELO":2297,"with":2298,"Ġdro":2299,"Ġpu":2300,"Ġemb":2301,"From":2302,"ready":2303,"Ġworse":2304,"umber":2305,"SHALLOW":2306,"SAL":2307,"ĠHath":2308,"osom":2309,"Ġstraight":2310,"BU":2311,"HER":2312,"ated":2313,"riage":2314,"Ġquar":2315,"RAM":2316,"Ġdeser":2317,"Ġchange":2318,"BURY":2319,"TROILUS":2320,"Ġweak":2321,"Ġburn":2322,"Ġbase":2323,"ourish":2324,"Ġcourse":2325,"EED":2326,"Our":2327,"pr":2328,"ities":2329,"Ġdeli":2330,"ĠAnother":2331,"Ġcounsel":2332,"RI":2333,"bly":2334,"Ġcoward":2335,"ethinks":2336,"Ġbosom":2337,"owers":2338,"Ġbehold":2339,"Ġsomething":2340,"eep":2341,"Ġwall":2342,"Ġthri":2343,"Ġext":2344,"Ġprov":2345,"ISABELLA":2346,"Ġhaste":2347,"MENENIUS":2348,"DER":2349,"Ġdog":2350,"Ġtwenty":2351,"Ġglad":2352,"Ġvoice":2353,"Ġwatch":2354,"lesh":2355,"Ġtraitor":2356,"Nor":2357,"vent":2358,"ERN":2359,"icles":2360,"Ġthemselves":2361,"Ġquestion":2362,"Ġbegg":2363,"pherd":2364,"Ġduty":2365,"Ġnote":2366,"ortal":2367,"Ġappear":2368,"Ġsoldier":2369,"over":2370,"Ġvaliant":2371,"ĠServant":2372,"inds":2373,"Ġblack":2374,"Ġdidst":2375,"BAN":2376,"Ġwalk":2377,"ites":2378,"ote":2379,"ĠEven":2380,"Ġsat":2381,"ĠFl":2382,"PORTIA":2383,"oor":2384,"Ġtoward":2385,"ĠPer":2386,"ĠLA":2387,"Third":2388,"ressid":2389,"ully":2390,"Ġscorn":2391,"LEONTES":2392,"ek":2393,"Ġflesh":2394,"Ġfavour":2395,"feit":2396,"Ġjustice":2397,"FE":2398,"Yet":2399,"ones":2400,"Ġappro":2401,"dden":2402,"Ġsuffer":2403,"An":2404,"FL":2405,"fter":2406,"ĠAb":2407,"ĠLife":2408,"Ġcoming":2409,"Ġconst":2410,"Ġoffend":2411,"Ġstands":2412,"Al":2413,"Thy":2414,"cept":2415,"ĠCressid":2416,"INO":2417,"Ġloss":2418,"Ġharm":2419,"ĠUn":2420,"Ġguard":2421,"ges":2422,"hood":2423,"Ġcity":2424,"ona":2425,"PISTOL":2426,"rist":2427,"so":2428,"that":2429,"Ġbad":2430,"erchant":2431,"Ġpresently":2432,"you":2433,"Ġheir":2434,"ĠPage":2435,"aste":2436,"cius":2437,"PERICLES":2438,"NE":2439,"VIOLA":2440,"eel":2441,"ĠAttend":2442,"Ġdeny":2443,"UGH":2444,"SS":2445,"pl":2446,"pare":2447,"Ġaction":2448,"Ġsport":2449,"Ġtrump":2450,"Ġdesp":2451,"Ġsoldiers":2452,"Ġspoke":2453,"Ġbecome":2454,"Ġund":2455,"ĠLady":2456,"ORLANDO":2457,"Ġsworn":2458,"Ġalready":2459,"Ġwars":2460,"Ġwithal":2461,"Ġclose":2462,"ĠTherefore":2463,"LEONATO":2464,"weet":2465,"Ġow":2466,"Ġgrant":2467,"Ġunt":2468,"IOLAN":2469,"Ġmarried":2470,"IOLANUS":2471,"BETH":2472,"Ġwret":2473,"alm":2474,"ĠCy":2475,"Ġjest":2476,"ACBETH":2477,"Ġbattle":2478,"ip":2479,"Ġopp":2480,"eness":2481,"Ġreg":2482,"Ġpluck":2483,"Ġchamber":2484,"IMOGEN":2485,"med":2486,"Ġcreat":2487,"ĠFORD":2488,"cience":2489,"Ġmoon":2490,"OLIVIA":2491,"ĠVenice":2492,"ĠDE":2493,"Ġprithee":2494,"Ġheavens":2495,"PEY":2496,"Ġcle":2497,"etch":2498,"oop":2499,"Ġstir":2500,"thy":2501,"Ġprop":2502,"OMPEY":2503,"Ġbanish":2504,"SPEED":2505,"Ġforb":2506,"vern":2507,"ament":2508,"empt":2509,"Ġdeliver":2510,"RICE":2511,"Upon":2512,"ZAB":2513,"ĠELI":2514,"Ġspeech":2515,"ATRICE":2516,"ZABETH":2517,"ĠELIZABETH":2518,"PROSPERO":2519,"ience":2520,"ler":2521,"Ġtak":2522,"Ġlack":2523,"east":2524,"ĠWas":2525,"ashi":2526,"Ġalmost":2527,"Ġneeds":2528,"EBAST":2529,"mand":2530,"ses":2531,"inal":2532,"llent":2533,"Ġgro":2534,"ĠThese":2535,"Ġrespect":2536,"Ġmurder":2537,"LARENCE":2538,"EBASTIAN":2539,"ang":2540,"Ġtrou":2541,"Ġfeel":2542,"Pro":2543,"Ġmod":2544,"Ġmount":2545,"ĠSome":2546,"ANGELO":2547,"Ġoffice":2548,"ADO":2549,"Ġstreng":2550,"Ġrevenge":2551,"Ġdoor":2552,"cks":2553,"easure":2554,"Ġstreet":2555,"DOMITIUS":2556,"Ġtit":2557,"rel":2558,"rey":2559,"Ġwild":2560,"Ġlow":2561,"ĠLUC":2562,"Ġsudden":2563,"Ġkingdom":2564,"Ġhours":2565,"!--":2566,"vol":2567,"Ġbro":2568,"Ġbond":2569,"Ġworship":2570,"ainted":2571,"bey":2572,"Ġgrie":2573,"bit":2574,"Ġdark":2575,"lex":2576,"LAUN":2577,"Ġoffer":2578,"CHAR":2579,"Ġsons":2580,"UCHESS":2581,"OTSP":2582,"ĠSoldier":2583,"OTSPUR":2584,"pes":2585,"idow":2586,"ĠMistress":2587,"ĠOR":2588,"Ġthanks":2589,"Ġmorning":2590,"CESS":2591,"hind":2592,"Ġreb":2593,"ĠMore":2594,"ĠANT":2595,"used":2596,"LUCIO":2597,"UNTESS":2598,"FEU":2599,"ting":2600,"Ġfra":2601,"each":2602,"Ġemp":2603,"Ġred":2604,"hens":2605,"Ġscar":2606,"ĠCoriol":2607,"MADO":2608,"bury":2609,"Ġid":2610,"ines":2611,"ĠĠĠĠĠĠĠĠĠĠĠĠĠ":2612,"ution":2613,"ĠHarry":2614,"Ġready":2615,"ĠCass":2616,"Ġbook":2617,"Ġfat":2618,"ĠOut":2619,"ETER":2620,"nk":2621,"Ġvile":2622,"OLING":2623,"Ġbegin":2624,"Ġlordship":2625,"ĠPrince":2626,"ĠARMADO":2627,"OLINGBROKE":2628,"xec":2629,"Ġadd":2630,"ĠWhose":2631,"CELIA":2632,"SIL":2633,"oss":2634,"Ġhaving":2635,"eline":2636,"Ġmarriage":2637,"mbeline":2638,"Ġpale":2639,"Ġstrike":2640,"OCTAVIUS":2641,"Ġfam":2642,"Ġinter":2643,"rust":2644,"Ġwhole":2645,"Ġpriv":2646,"MAL":2647,"ench":2648,"anus":2649,"imon":2650,"ĠPl":2651,"ILL":2652,"JULIA":2653,"Ġmal":2654,"Ġfashi":2655,"Ġdish":2656,"Ġsoft":2657,"ignior":2658,"Ġwrit":2659,"Ġcommend":2660,"Ġunderstand":2661,"ĠPray":2662,"hamber":2663,"DES":2664,"GON":2665,"arum":2666,"ĠHUGH":2667,"ĠCl":2668,"Ġlips":2669,"Ġsever":2670,"Ġkings":2671,"Ġletters":2672,"BEATRICE":2673,"indsor":2674,"Ġmot":2675,"ENS":2676,"Ġspeaks":2677,"ixth":2678,"VANS":2679,"onst":2680,"ĠMurd":2681,"ĠEVANS":2682,"ĠFirst":2683,"Ġwhite":2684,"Ġconscience":2685,"Ġservant":2686,"Ġchur":2687,"God":2688,"Hath":2689,"TIMON":2690,"Ġfeast":2691,"Ġcamp":2692,"edy":2693,"ĠWindsor":2694,"ĠPom":2695,"ĠKate":2696,"Ġchildren":2697,"ĠChrist":2698,"ĠANTIPHOLUS":2699,"Ġtent":2700,"ndred":2701,"Ġlaugh":2702,"Ġself":2703,"ĠThough":2704,"Ġtruly":2705,"ired":2706,"Ġabove":2707,"Ġstrength":2708,"ura":2709,"Ġcase":2710,"umph":2711,"udio":2712,"ĠLEAR":2713,"Are":2714,"EW":2715,"HENRY":2716,"Ġwoe":2717,"ĠTy":2718,"ĠTake":2719,"Ġabs":2720,"PRINCESS":2721,"Ġresol":2722,"ĠRomeo":2723,"BERTRAM":2724,"SEY":2725,"UKE":2726,"ron":2727,"Ġmorrow":2728,"Ġgot":2729,"Ġbehind":2730,"Ġjo":2731,"ecause":2732,"Ġadm":2733,"Ġpretty":2734,"BY":2735,"HOTSPUR":2736,"bot":2737,"ict":2738,"isf":2739,"Ġhide":2740,"ĠSay":2741,"ĠBOLINGBROKE":2742,"ardinal":2743,"Ġrage":2744,"Ġwitness":2745,"LIFF":2746,"Host":2747,"PA":2748,"gment":2749,"oly":2750,"Ġve":2751,"ator":2752,"Ġrel":2753,"ĠFarewell":2754,"antage":2755,"ĠVer":2756,"Ġlabour":2757,"BASTARD":2758,"ĠANDREW":2759,"CORIOLANUS":2760,"IEL":2761,"Ġhost":2762,"asters":2763,"ealth":2764,"ADRIANO":2765,"Ġsense":2766,"At":2767,"eem":2768,"pin":2769,"Ġheal":2770,"Ġeither":2771,"ĠDUKE":2772,"ieu":2773,"ustice":2774,"yra":2775,"Ġsigh":2776,"Ġba":2777,"Ġfive":2778,"ĠWOL":2779,"ĠLove":2780,"THUM":2781,"BERLAND":2782,"Ġlearn":2783,"ĠWOLSEY":2784,"THUMBERLAND":2785,"REY":2786,"ny":2787,"Ġcross":2788,"inger":2789,"ĠMadam":2790,"Ġliber":2791,"Ġang":2792,"ONA":2793,"Ġenc":2794,"Ġfortunes":2795,"Ġspirits":2796,"Ġinstru":2797,"Ġorder":2798,"POMPEY":2799,"SEBASTIAN":2800,"VER":2801,"ying":2802,"Ġship":2803,"Ġmortal":2804,"itter":2805,"Ġdire":2806,"ider":2807,"raw":2808,"STARD":2809,"ations":2810,"Ġslain":2811,"ĠClaudio":2812,"Ġfashion":2813,"vost":2814,"Ġmist":2815,"anch":2816,"Ġbeast":2817,"Ġissue":2818,"ĠMost":2819,"ĠMeasure":2820,"Ġcheer":2821,"Ġhundred":2822,"awd":2823,"Ġag":2824,"Ġnay":2825,"ĠWere":2826,"Ġliving":2827,"ĠPar":2828,"ĠNothing":2829,"LAFEU":2830,"Ġdread":2831,"Ġprinces":2832,"HUM":2833,"aith":2834,"Ġeas":2835,"ises":2836,"ished":2837,"ited":2838,"Ġlim":2839,"Ġthrow":2840,"ĠĠĠĠĠĠĠĠĠĠĠ":2841,"ĠSc":2842,"Ġexec":2843,"icer":2844,"Ġacqu":2845,"ked":2846,"head":2847,"Ġap":2848,"Ġfill":2849,"enge":2850,"ĠTill":2851,"idd":2852,"lack":2853,"Ġalong":2854,"Ġmighty":2855,"Within":2856,"ITES":2857,"twas":2858,"ERSITES":2859,"Ġslave":2860,"ĠTroilus":2861,"CU":2862,"DUCHESS":2863,"bles":2864,"lain":2865,"nown":2866,"ĠSen":2867,"Ġforce":2868,"Ġlion":2869,"Ġran":2870,"Ġpleas":2871,"Ġlonger":2872,"ĠGentlemen":2873,"HOP":2874,"MOR":2875,"RAN":2876,"vest":2877,"ĠQ":2878,"Ġsho":2879,"Ġfetch":2880,"Ġloving":2881,"INGS":2882,"Ġhonourable":2883,"ISHOP":2884,"Ġpresence":2885,"ASTINGS":2886,"Ġpassion":2887,"ancy":2888,"BELINE":2889,"YMBELINE":2890,"Did":2891,"LORD":2892,"TIT":2893,"ffect":2894,"ze":2895,"Ġut":2896,"Ġseas":2897,"rer":2898,"Ġdin":2899,"Ġform":2900,"law":2901,"ILIA":2902,"Ġchoose":2903,"Ġoften":2904,"ient":2905,"Ġsim":2906,"ened":2907,"Ġcr":2908,"Ġbeard":2909,"ils":2910,"resh":2911,"Ġmarch":2912,"Ġsouls":2913,"Ġvalour":2914,"Ġsecret":2915,"ĠDeath":2916,"ca":2917,"Ġdied":2918,"Ġpost":2919,"ĠAway":2920,"LOT":2921,"CON":2922,"cher":2923,"Ġgift":2924,"ĠTal":2925,"set":2926,"Ġstru":2927,"ĠGLOUCESTER":2928,"ICINIUS":2929,"Ġoffence":2930,"Ġheads":2931,"hilst":2932,"Ġble":2933,"Ġfeed":2934,"iff":2935,"Ġaffection":2936,"ages":2937,"COUNTESS":2938,"DEMONA":2939,"ĠCymbeline":2940,"On":2941,"YSS":2942,"rous":2943,"sp":2944,"Ġty":2945,"Ġob":2946,"Ġpit":2947,"ĠSee":2948,"Ġstud":2949,"ONIC":2950,"Ġproceed":2951,"eads":2952,"ULYSS":2953,"Ġdouble":2954,"ĠANDRONIC":2955,"ULYSSES":2956,"under":2957,"Ġay":2958,"Ġwood":2959,"ĠHa":2960,"right":2961,"Ġseems":2962,"Ġsatisf":2963,"ĠANDRONICUS":2964,"Ġbirth":2965,"Ġlan":2966,"Ġprev":2967,"illes":2968,"Ġourselves":2969,"Ġconqu":2970,"Ġsafe":2971,"Ġparts":2972,"ILLO":2973,"Ġbuy":2974,"Ġpatient":2975,"Ġdeeds":2976,"Ġexcellent":2977,"Ġtitle":2978,"Even":2979,"Would":2980,"su":2981,"via":2982,"Ġign":2983,"ĠNight":2984,"Ġwouldst":2985,"ument":2986,"Ġtale":2987,"ANTIPHOLUS":2988,"Ġenemies":2989,"Ġcastle":2990,"vo":2991,"ĠSixth":2992,"Ġeffect":2993,"ĠLe":2994,"ĠYes":2995,"STHUM":2996,"OLY":2997,"elcome":2998,"ATUS":2999,"ledge":3000,"Ġpromise":3001,"ĠMurderer":3002,"LOTEN":3003,"STHUMUS":3004,":'":3005,"Ġ6":3006,"Ġteach":3007,"Ġsn":3008,"Ġocc":3009,"ĠTell":3010,"ety":3011,"alt":3012,"Ġsmall":3013,"ORTENS":3014,"Ġdangerous":3015,"TRANIO":3016,"ĠTalbot":3017,"EO":3018,"TA":3019,"gin":3020,"ugh":3021,"arch":3022,"ingly":3023,"ĠOne":3024,"ALBOT":3025,"Ġcap":3026,"umb":3027,"Ġrob":3028,"ĠLords":3029,"THERSITES":3030,"Ġtroth":3031,"Ġpaper":3032,"LYS":3033,"ETRIUS":3034,"Ġdepart":3035,"ĠLEONATUS":3036,"Ġwed":3037,"Ġbow":3038,"Ġobs":3039,"ify":3040,"Ġbreast":3041,"ĠMarry":3042,"Ġladies":3043,"CK":3044,"EAR":3045,"TIST":3046,"YET":3047,"YLO":3048,"cent":3049,"wor":3050,"rem":3051,"Ġhurt":3052,"Ġbec":3053,"ISBURY":3054,"Ġconsent":3055,"Ġchance":3056,"APTIST":3057,"Ġpubl":3058,"YLOCK":3059,"APTISTA":3060,"hom":3061,"pest":3062,"utus":3063,"Ġstop":3064,"ĠMessenger":3065,"rupt":3066,"ĠAlas":3067,"ĠClarence":3068,"Ne":3069,"ners":3070,"ina":3071,"Ġlust":3072,"Ġforsw":3073,"astard":3074,"Ġgod":3075,"ĠJew":3076,"IMO":3077,"Ġgives":3078,"Ġcurse":3079,"Ġsecond":3080,"Ġforest":3081,"Ġbrief":3082,"Sh":3083,"Un":3084,"fully":3085,"Ġseal":3086,"Ġmatch":3087,"vey":3088,"ĠSignior":3089,"Ġforward":3090,"Ġsteal":3091,"asion":3092,"als":3093,"ility":3094,"que":3095,"Ġvirtuous":3096,"Ġjudge":3097,"ĠCressida":3098,"Ġtrouble":3099,"ĠCoriolanus":3100,"BASS":3101,"gl":3102,"gy":3103,"Ġer":3104,"Ġgates":3105,"ĠHad":3106,"ELL":3107,"ILLES":3108,"Ġkept":3109,"Ġfoolish":3110,"Ġhumour":3111,"ĠTroy":3112,"Ġjudgment":3113,"Ġpossess":3114,"CALUS":3115,"ĠHelen":3116,"MALVOLIO":3117,"AU":3118,"essed":3119,"ĠSil":3120,"Ġvow":3121,"ends":3122,"Ġbreed":3123,"aked":3124,"ĠĠĠĠĠĠĠĠĠĠĠĠĠĠĠĠĠĠĠĠĠĠĠĠĠĠĠĠĠĠĠĠĠ":3125,"Ġcardinal":3126,"Ġdrown":3127,"Ġforget":3128,"Ġsucc":3129,"iew":3130,"emn":3131,"ude":3132,"Ġflatter":3133,"Ġquickly":3134,"ORTENSIO":3135,"Ġbreat":3136,"Ġdea":3137,"Ġyear":3138,"Ġneigh":3139,"Ġprayers":3140,"EG":3141,"Ġwon":3142,"Ġwent":3143,"chilles":3144,"Ġshad":3145,"ANO":3146,"Ġpride":3147,"ĠThus":3148,"pey":3149,"aught":3150,"Ġleast":3151,"ervant":3152,"Ġwrite":3153,"twere":3154,"Ġawhile":3155,"Ġwisdom":3156,"Ġhealth":3157,"GU":3158,"Ġfine":3159,"ĠTimon":3160,"ales":3161,"ĠChar":3162,"ĠMac":3163,"ĠFal":3164,"Ġcaptain":3165,"Ġentertain":3166,"ucking":3167,"Ġpract":3168,"ĠPericles":3169,"ĠAttendants":3170,"ural":3171,"OUCH":3172,"born":3173,"Ġopin":3174,"ĠSaint":3175,"ĠEx":3176,"Ġnoise":3177,"ONE":3178,"STONE":3179,"Ġblow":3180,"Ġpoison":3181,"Ġperform":3182,"NORTHUMBERLAND":3183,"HERM":3184,"Ġchurch":3185,"Ġangry":3186,"OUCHSTONE":3187,"CYMBELINE":3188,"Ġsor":3189,"ern":3190,"Ġsole":3191,"ĠRoman":3192,"Ġbears":3193,"but":3194,"more":3195,"leep":3196,"ĠSuff":3197,"Ġmeasure":3198,"ĠLuc":3199,"Ġanon":3200,"ĠDON":3201,"Ġamong":3202,"Ġgoing":3203,"Ġround":3204,"COSTARD":3205,"ĠVerona":3206,"Her":3207,"More":3208,"und":3209,"uri":3210,"Ġdri":3211,"staff":3212,"Ġshar":3213,"Ġproc":3214,"DESDEMONA":3215,"CLIFF":3216,"MED":3217,"OW":3218,"SICINIUS":3219,"ging":3220,"my":3221,"oke":3222,"Ġda":3223,"ENTIO":3224,"though":3225,"IOMED":3226,"Ġworst":3227,"Ġquiet":3228,"oved":3229,"Ġfools":3230,"Ġdinner":3231,"IOMEDES":3232,"EX":3233,"Servant":3234,"iled":3235,"Ġdu":3236,"ĠBel":3237,"Ġsaf":3238,"Ġperceive":3239,"ĠAthens":3240,"Ġtreason":3241,"ROMEO":3242,"IRA":3243,"con":3244,"ts":3245,"Ġfresh":3246,"Ġcru":3247,"Ġhorn":3248,"ĠSecond":3249,"ĠSpeak":3250,"Ġmanner":3251,"AMILLO":3252,"ealous":3253,"MARIA":3254,"OMERS":3255,"ĠĠĠĠĠĠĠĠĠĠĠĠĠĠĠĠĠ":3256,"ĠBrutus":3257,"KATHARINA":3258,"OMERSET":3259,"IP":3260,"MOTH":3261,"Some":3262,"ual":3263,"ided":3264,"aking":3265,"Ġquarrel":3266,"broke":3267,"sa":3268,"onour":3269,"ĠMerchant":3270,"ames":3271,"Ġrasc":3272,"Ġcounter":3273,"Whose":3274,"BOYET":3275,"Was":3276,"loy":3277,"arge":3278,"Ġpains":3279,"Ġele":3280,"gelo":3281,"ander":3282,"iles":3283,"Ġwhore":3284,"force":3285,"Ġprepare":3286,"ĠTwo":3287,"ĠPompey":3288,"BARDOLPH":3289,"EPH":3290,"FOLK":3291,"Give":3292,"MIAN":3293,"dge":3294,"gare":3295,"will":3296,"ĠQUEEN":3297,"Ġshi":3298,"Ġwert":3299,"erry":3300,"ĠTit":3301,"ĠHast":3302,"ract":3303,"ENES":3304,"Ġview":3305,"Ġgovern":3306,"icul":3307,"Ġblind":3308,"SHYLOCK":3309,"ADRIANA":3310,"Ġtaken":3311,"ĠSuffolk":3312,"CLARENCE":3313,"HOR":3314,"MON":3315,"akes":3316,"gle":3317,"Ġsort":3318,"Ġcarry":3319,"Ġinno":3320,"ease":3321,"eaven":3322,"Ġstar":3323,"Ġange":3324,"ĠGree":3325,"rue":3326,"Ġvi":3327,"ume":3328,"Ġfearful":3329,"osition":3330,"phin":3331,"itted":3332,"IET":3333,"ror":3334,"rid":3335,"ĠTower":3336,"iron":3337,"ESCALUS":3338,"Ġvain":3339,"Ġconcl":3340,"Ġunk":3341,"ISANIO":3342,"ĠAngelo":3343,"uckingham":3344,"May":3345,"Ġmasters":3346,"Ġbitter":3347,"Ġdull":3348,"Ġpage":3349,"ĠAh":3350,"ĠAchilles":3351,"Ġherself":3352,"Ġknock":3353,"Ġqual":3354,"Ġgolden":3355,"CLOTEN":3356,"PAGE":3357,"ax":3358,"Ġmed":3359,"read":3360,"erve":3361,"Ġpain":3362,"ĠSha":3363,"Ġdemand":3364,"Ġours":3365,"IACH":3366,"Ġsac":3367,"ĠJove":3368,"Ġgreen":3369,"KATHARINE":3370,"garet":3371,"IACHIMO":3372,"Ġwhi":3373,"ĠBuckingham":3374,"ĠJack":3375,"icked":3376,"bert":3377,"Ġarmy":3378,"Ġdrum":3379,"POSTHUMUS":3380,"ĠParis":3381,"Ġpublic":3382,"UEL":3383,"Were":3384,"Ġfier":3385,"Ġfled":3386,"Ġcred":3387,"Ġjew":3388,"airs":3389,"Ġfaults":3390,"UELLEN":3391,"Till":3392,"mon":3393,"Ġfrown":3394,"host":3395,"Ġshore":3396,"Ġshows":3397,"Ġproper":3398,"osed":3399,"Ġalive":3400,"ĠShould":3401,"lanch":3402,"woman":3403,"Ġsland":3404,"irc":3405,"ERIUS":3406,"ounds":3407,"Though":3408,"osal":3409,"Ġglory":3410,"IDERIUS":3411,"Ġcourtes":3412,"chan":3413,"Ġtry":3414,"Ġpiece":3415,"entine":3416,"ĠHam":3417,"ĠLa":3418,"Ġamb":3419,"ĠVal":3420,"Ġlaid":3421,"ĠMargaret":3422,"Ġprincely":3423,"SA":3424,"TOUCHSTONE":3425,"sper":3426,"uce":3427,"zen":3428,"Ġthither":3429,"vell":3430,"ley":3431,"Ġlived":3432,"Ġgreatness":3433,"Therefore":3434,"ROSALINE":3435,"OCTOR":3436,"ACHILLES":3437,"Ġcolour":3438,"Ġopinion":3439,"HASTINGS":3440,"Ġsch":3441,"Ġwea":3442,"ids":3443,"asons":3444,"ĠMerry":3445,"urst":3446,"Ġarg":3447,"Ġwherefore":3448,"Ġtakes":3449,"MACBETH":3450,"cy":3451,"mia":3452,"ua":3453,"Ġtor":3454,"ounter":3455,"Ġsus":3456,"reed":3457,"rent":3458,"Ġbastard":3459,"ĠChi":3460,"INS":3461,"Ġdec":3462,"ilty":3463,"ANDER":3464,"Ġbrain":3465,"ADE":3466,"UMIO":3467,"UTOLY":3468,"Ġmonth":3469,"Ġforgot":3470,"Ġemper":3471,"ĠAbout":3472,"Ġscarce":3473,"Ġignor":3474,"BASSANIO":3475,"UTOLYCUS":3476,"'re":3477,"BRA":3478,"CAMILLO":3479,"joy":3480,"mn":3481,"Ġlist":3482,"ĠSweet":3483,"ONIUS":3484,"Ġsorry":3485,"ĠHamlet":3486,"Ġmut":3487,"Ġmethinks":3488,"Ġdest":3489,"Ġpowers":3490,"Ġintend":3491,"ĠSince":3492,"ĠWives":3493,"Ġevil":3494,"Ġstood":3495,"ARIUS":3496,"ĠPUC":3497,"IAM":3498,"Ġjealous":3499,"Ġfolly":3500,"Ġplague":3501,"Ġcontin":3502,"Ġprotect":3503,"JAQU":3504,"Ġwalls":3505,"Ġjoin":3506,"iv":3507,"Ġbroke":3508,"llo":3509,"Ġclaim":3510,"omer":3511,"Ġgent":3512,"ĠTra":3513,"lease":3514,"ĠPeace":3515,"ference":3516,"ĠAnton":3517,"Ġhumble":3518,"ĠBrit":3519,"ĠCAIUS":3520,"HE":3521,"Reads":3522,"Say":3523,"cha":3524,"Ġwast":3525,"ĠInd":3526,"ĠSIR":3527,"urs":3528,"ĠEnds":3529,"Ġshape":3530,"ETTA":3531,"Ġpurse":3532,"Ġpleased":3533,"Ġdrawn":3534,"Ġpriest":3535,"Ġdefend":3536,"ĠJuliet":3537,"ĠFalstaff":3538,"Ġcruel":3539,"AIN":3540,"beth":3541,"Ġobey":3542,"Ġloud":3543,"Ġga":3544,"ĠSal":3545,"ĠWin":3546,"ĠRo":3547,"Ġhonesty":3548,"Ġbecause":3549,"Ġsharp":3550,"pit":3551,"Ġes":3552,"itors":3553,"Ġdance":3554,"arl":3555,"Ġpet":3556,"atri":3557,"Ġbeha":3558,"aming":3559,"Ġfaire":3560,"ortune":3561,"Ġhadst":3562,"auphin":3563,"Ġrogue":3564,"Ġcalls":3565,"Ġtrain":3566,"Ġrememb":3567,"Ġdrunk":3568,"Ġprisoner":3569,"LENDER":3570,"CASSIUS":3571,"RIAR":3572,"EPHANO":3573,"Can":3574,"HORTENSIO":3575,"Justice":3576,"OS":3577,"Ġed":3578,"Ġauth":3579,"Ġwine":3580,"Ġcre":3581,"ĠMust":3582,"ĠRosal":3583,"Ġknowledge":3584,"unning":3585,"ATIANO":3586,"Ġgreater":3587,"DEMETRIUS":3588,"Ġsuccess":3589,"Ha":3590,"Madam":3591,"SINO":3592,"gers":3593,"Ġgross":3594,"Ġur":3595,"ters":3596,"ĠMake":3597,"ĠOff":3598,"Ġvan":3599,"Ġconce":3600,"Ġsirrah":3601,"Ġways":3602,"ULINA":3603,"Ġleg":3604,"CTOR":3605,"Ġwounds":3606,"ĠORSINO":3607,"ĠMacbeth":3608,"Ca":3609,"Marry":3610,"house":3611,"mble":3612,"Ġpun":3613,"Ġheld":3614,"ourth":3615,"Ġequ":3616,"Ġshake":3617,"ĠĠĠĠĠĠĠĠĠĠĠĠĠĠĠĠĠĠĠ":3618,"Ġgoodly":3619,"Ġproof":3620,"Ġunf":3621,"ĠANNE":3622,"Ġboys":3623,"Ġcondition":3624,"BISHOP":3625,"BAPTISTA":3626,"GUS":3627,"Like":3628,"ding":3629,"go":3630,"ys":3631,"anio":3632,"ĠĠĠĠĠĠĠĠĠĠĠĠĠĠĠĠĠĠĠĠĠ":3633,"ELAND":3634,"oling":3635,"ĠThird":3636,"Ġthence":3637,"ESTMOR":3638,"ĠĠĠĠĠĠĠĠĠĠĠĠĠĠ":3639,"ĠĠĠĠĠĠĠĠĠĠĠĠĠĠĠ":3640,"EMIO":3641,"Ġdelight":3642,"Ġrequest":3643,"FLUELLEN":3644,"LAUNCE":3645,"omerset":3646,"ESTMORELAND":3647,"eks":3648,"stance":3649,"ature":3650,"Ġinj":3651,"Ġeld":3652,"ĠPER":3653,"usion":3654,"ĠTheir":3655,"ellow":3656,"Ġswift":3657,"Ġrough":3658,"perate":3659,"ĠMarcius":3660,"Ġfellows":3661,"ĠShrew":3662,"otten":3663,"TITUS":3664,"Ġemperor":3665,"AUTOLYCUS":3666,"Look":3667,"Ġmid":3668,"Ġobed":3669,"Ġlend":3670,"Ġthro":3671,"Ġreceive":3672,"amb":3673,"ĠFord":3674,"iful":3675,"Ġfare":3676,"ĠDauphin":3677,"THUR":3678,"cient":3679,"Ġvisit":3680,"Ġbeggar":3681,"Provost":3682,"olingbroke":3683,"Ġins":3684,"ĠSomerset":3685,"chief":3686,"ĠBolingbroke":3687,"These":3688,"rows":3689,"Ġhonours":3690,"Ġchast":3691,"ission":3692,"Ġinstant":3693,"Ġborne":3694,"ĠChristian":3695,"gypt":3696,"XENES":3697,"Ġfie":3698,"Ġcatch":3699,"Ġcirc":3700,"ĠSuch":3701,"Ġstor":3702,"Ġref":3703,"ĠLanc":3704,"ĠGu":3705,"ĠKATHAR":3706,"Ġexpect":3707,"OMINIUS":3708,"ABIAN":3709,"OLIXENES":3710,"JULIET":3711,"ĠChief":3712,"ĠLancaster":3713,"min":3714,"par":3715,"ued":3716,"Ġver":3717,"Ġmelanch":3718,"hose":3719,"Ġhearing":3720,"ĠAnne":3721,"ĠStand":3722,"Ġpromised":3723,"Ġdispatch":3724,"Ġembrace":3725,"Ġseveral":3726,"Ġstruck":3727,"ĠLeon":3728,";'":3729,"CADE":3730,"EAS":3731,"NON":3732,"One":3733,"Yes":3734,"Ġtaste":3735,"Ġdeal":3736,"Ġyea":3737,"Ġpure":3738,"Ġinv":3739,"ĠBARDOLPH":3740,"Ġdeg":3741,"ifford":3742,"ONG":3743,"ĠYea":3744,"AMEM":3745,"Ġchain":3746,"Ġbestow":3747,"Ġterms":3748,"JAX":3749,"Ġcreature":3750,"Ġclear":3751,"AMEMNON":3752,"Gentle":3753,"HOL":3754,"Most":3755,"ich":3756,"iance":3757,"sic":3758,"wise":3759,"ester":3760,"Ġlest":3761,"ĠAgainst":3762,"ĠSp":3763,"ĠĠĠĠĠĠĠĠĠĠĠĠĠĠĠĠĠĠ":3764,"Ġviol":3765,"arden":3766,"Ġneck":3767,"Ġblessed":3768,"hysic":3769,"acle":3770,"Ġdrop":3771,"Ġtrumpet":3772,"Ġmotion":3773,"Ġsafety":3774,"Ġmelancholy":3775,"VIUS":3776,"jo":3777,"Ġwicked":3778,"ĠĠĠĠĠĠ":3779,"Ġthird":3780,"Ġreceived":3781,"ĠEgypt":3782,"ALL":3783,"ways":3784,"Ġcourage":3785,"Ġlegs":3786,"Ġemploy":3787,"Ġprivate":3788,"ĠSenator":3789,"KENT":3790,"oral":3791,"orge":3792,"Ġfru":3793,"Ġcorn":3794,"Ġpin":3795,"Ġheels":3796,"ĠEarl":3797,"Ġshepherd":3798,"Ġblame":3799,"Ġusur":3800,"ATIO":3801,"Ġrude":3802,"MARINA":3803,"Ġcheek":3804,"ĠHero":3805,"GRUMIO":3806,"Ġowe":3807,"Ġcourtesy":3808,"ĠAntonio":3809,"Ġauthor":3810,"CIUS":3811,"OAN":3812,"VIRA":3813,"ians":3814,"ollow":3815,"orous":3816,"Ġcunning":3817,"ĠBes":3818,"Ġrevol":3819,"Ġfail":3820,"ardol":3821,"STEPHANO":3822,"ELLE":3823,"elf":3824,"ATES":3825,"Ġwits":3826,"Ġtongues":3827,"posed":3828,"Ġmonster":3829,"Ġadvantage":3830,"LAUDIUS":3831,"Ġchoice":3832,"Ġsummer":3833,"CHARMIAN":3834,"ILLIAM":3835,"Ġutter":3836,"VIRAGUS":3837,"ardolph":3838,"Ġgain":3839,"Ġmere":3840,"ĠCall":3841,"Ġaside":3842,"Ġnecess":3843,"arent":3844,"Ġholds":3845,"ĠClifford":3846,"Ġoccasion":3847,"MER":3848,"WIS":3849,"jax":3850,"son":3851,"say":3852,"Ġbones":3853,"Ġdies":3854,"Ġlarge":3855,"ĠAlex":3856,"utation":3857,"ĠCLAUDIUS":3858,"ĠMuch":3859,"Ġvent":3860,"icious":3861,"Ġrare":3862,"Ġtrans":3863,"Ġremain":3864,"Ġtrib":3865,"Ġpersu":3866,"Ġgreet":3867,"Ġsubjects":3868,"POINS":3869,"Ġmalice":3870,"yram":3871,"ĠQu":3872,"GUIDERIUS":3873,"ĠPUCELLE":3874,"RICHARD":3875,"rim":3876,"rate":3877,"Ġ7":3878,"Ġtear":3879,"Ġfig":3880,"Ġthreat":3881,"ĠĠĠĠĠĠĠĠĠĠ":3882,"ident":3883,"Ġancient":3884,"ustom":3885,"ocks":3886,"Ġprecious":3887,"Ġexcuse":3888,"Ġwretched":3889,"Ġforbid":3890,"DELLO":3891,"DIOMEDES":3892,"UBERT":3893,"isho":3894,"Ġbend":3895,"Ġweary":3896,"Ġyourselves":3897,"Ġstuff":3898,"Ġdebt":3899,"ĠGre":3900,"Ġmanners":3901,"Ġblows":3902,"Ġrans":3903,"Ġwhence":3904,"Ġwherein":3905,"Ġwrath":3906,"LUCENTIO":3907,"Ġmonst":3908,"IONDELLO":3909,"ĠCassio":3910,"Ġvictor":3911,":--":3912,"Take":3913,"take":3914,"vish":3915,"Ġbare":3916,"Ġfew":3917,"Ġfinger":3918,"ĠPH":3919,"ical":3920,"Ġbrothers":3921,"Ġvirgin":3922,"Ġoaths":3923,"Ġdamned":3924,"Ġencounter":3925,"Ġproclaim":3926,"Com":3927,"aunt":3928,"mit":3929,"your":3930,"Ġaught":3931,"Ġwo":3932,"Ġwidow":3933,"Ġfought":3934,"enance":3935,"Ġpol":3936,"Ġphysic":3937,"Ġheat":3938,"Ġused":3939,"Ġweight":3940,"ifth":3941,"Ġspend":3942,"Ġwash":3943,"Ġquoth":3944,"Ġquite":3945,"Ġdesires":3946,"OFERN":3947,"Ġmaiden":3948,"Ġcolours":3949,"NORFOLK":3950,"SALISBURY":3951,"OFERNES":3952,"PUL":3953,"TALBOT":3954,"eg":3955,"Ġdue":3956,"Ġstory":3957,"ards":3958,"Ġrise":3959,"Ġcalled":3960,"Ġbearing":3961,"Ġsmile":3962,"Ġguilty":3963,"ĠĠĠĠĠĠĠĠĠĠĠĠĠĠĠĠĠĠĠĠĠĠ":3964,"Ġbright":3965,"Ġthrice":3966,"PAULINA":3967,"Ġliberty":3968,"PULET":3969,"orious":3970,"Ġfi":3971,"Ġthunder":3972,"ĠAm":3973,"ourse":3974,"Ġsteel":3975,"Ġreve":3976,"ĠMil":3977,"Ġchall":3978,"Ġendure":3979,"ize":3980,"ĠServing":3981,"comes":3982,"Should":3983,"Ġshadow":3984,"ĠValentine":3985,"JAQUES":3986,"Ġaid":3987,"Ġsong":3988,"ating":3989,"Ġrevere":3990,"INUS":3991,"ĠDes":3992,"ppy":3993,"Ġdism":3994,"IANCA":3995,"Ġcompan":3996,"Ġcheeks":3997,"GREMIO":3998,"Ġgrows":3999,"BELARIUS":4000,"ointed":4001,"hamberlain":4002,"Ġconquer":4003,"ughter":4004,"IBAN":4005,"PISANIO":4006,"Since":4007,"Yea":4008,"ZAL":4009,"dain":4010,"mo":4011,"Ġdry":4012,"Ġhor":4013,"eds":4014,"ĠWest":4015,"ĠHear":4016,"ria":4017,"ĠBened":4018,"Ġnose":4019,"Ġkneel":4020,"ORC":4021,"Ġbrow":4022,"Ġdisg":4023,"Thus":4024,"Ġfears":4025,"Ġadieu":4026,"Ġglass":4027,"Ġsmo":4028,"BERRY":4029,"Ġthrone":4030,"GRATIANO":4031,"OGBERRY":4032,"Ġsilence":4033,"Ġprincess":4034,"Ġapproach":4035,"ĠLUCIUS":4036,"SILVIA":4037,"ronic":4038,"HECTOR":4039,"ZALO":4040,"Out":4041,"bb":4042,"der":4043,"thi":4044,"Ġsix":4045,"Ġbene":4046,"ising":4047,"Ġfame":4048,"omach":4049,"Ġgir":4050,"ays":4051,"ĠBardolph":4052,"ĠPercy":4053,"Ġseven":4054,"Ġlover":4055,"Ġamaz":4056,"ieur":4057,"icers":4058,"Ġtwice":4059,"Ġdesert":4060,"Ġperfect":4061,"Ġimag":4062,"EMILIA":4063,"Ġpaid":4064,"Ġswords":4065,"Ġimport":4066,"Ġwait":4067,"Ġsilver":4068,"Ġdamn":4069,"yramus":4070,"Ġransom":4071,"POLIXENES":4072,"phe":4073,"ug":4074,"wixt":4075,"Ġnurse":4076,"aring":4077,"omp":4078,"ĠAjax":4079,"Ġmend":4080,"ENEAS":4081,"ĠPOL":4082,"Ġdoing":4083,"ĠLear":4084,"ĠGe":4085,"Ġwhether":4086,"Ġunless":4087,"ANDA":4088,"IRANDA":4089,"DUM":4090,"IMP":4091,"ĠMark":4092,"aced":4093,"Ġwrongs":4094,"gues":4095,"Ġwanton":4096,"Ġwinter":4097,"Ġminister":4098,"Ġprotest":4099,"Ġmoved":4100,"Ġidle":4101,"elfth":4102,"ĠPOLONIUS":4103,"po":4104,"Ġsens":4105,"Ġmour":4106,"Ġwench":4107,"enet":4108,"Ġduc":4109,"Ġpot":4110,"Ġthief":4111,"Ġgarden":4112,"Ġmeat":4113,"Ġstain":4114,"Ġstars":4115,"ĠDoth":4116,"Ġshouldst":4117,"Ġsack":4118,"Ġrose":4119,"Ġfoe":4120,"IDIUS":4121,"gedy":4122,"Ġsolemn":4123,"FRIAR":4124,"Had":4125,"SLENDER":4126,"ZO":4127,"kin":4128,"ker":4129,"have":4130,"Ġbas":4131,"isp":4132,"Ġdwell":4133,"Ġheed":4134,"irt":4135,"ENZO":4136,"ESEUS":4137,"Ġanger":4138,"ORENZO":4139,"STAN":4140,"Ġfoes":4141,"cian":4142,"Ġrepent":4143,"Ġawake":4144,"Ġhung":4145,"oteus":4146,"Ġeasy":4147,"EARL":4148,"Ġneighbour":4149,"Ġremembrance":4150,"?'":4151,"AJAX":4152,"NIA":4153,"Ġod":4154,"Ġcried":4155,"ĠHeaven":4156,"Ġstomach":4157,"Ġreign":4158,"Ġknee":4159,"elve":4160,"Ġsail":4161,"lip":4162,"Ġleis":4163,"Ġslaughter":4164,"umberland":4165,"ĠTitus":4166,"HORATIO":4167,"ĠRosalind":4168,"TOM":4169,"WILLIAM":4170,"rt":4171,"what":4172,"Ġbount":4173,"Ġfond":4174,"Ġcost":4175,"Ġdign":4176,"ĠSe":4177,"road":4178,"ĠLu":4179,"ĠGreat":4180,"Ġspring":4181,"Ġvows":4182,"Ġconc":4183,"Ġsheep":4184,"Ġgallant":4185,"CASSIO":4186,"ĠSilvia":4187,"Ġcounterfeit":4188,"LUS":4189,"Tell":4190,"cil":4191,"fer":4192,"gar":4193,"Ġtune":4194,"heart":4195,"Ġwives":4196,"Ġwealth":4197,"Ġfood":4198,"Ġniece":4199,"Ġnumber":4200,"ĠHark":4201,"cted":4202,"ĠEp":4203,"Ġgrand":4204,"Ġrain":4205,"ĠBeing":4206,"Ġfollows":4207,"Ġcrowns":4208,"Ġforgive":4209,"ĠAdo":4210,"Ġsimple":4211,"Ġstudy":4212,"HOLOFERNES":4213,"DUMAIN":4214,"COMINIUS":4215,"DOL":4216,"Ġbuck":4217,"Ġfaint":4218,"Ġhol":4219,"Ġhunt":4220,"Ġport":4221,"omas":4222,"ĠWARWICK":4223,"Ġformer":4224,"Ġreasons":4225,"Ġones":4226,"Ġconj":4227,"LEANS":4228,"Ġbetray":4229,"EMANT":4230,"Ġconsider":4231,"ĠProteus":4232,"Alas":4233,"Ġbroken":4234,"Ġpractise":4235,"Ġslander":4236,"ĠLeonat":4237,"Ġfruit":4238,"Ġleisure":4239,"EMANTUS":4240,"ounce":4241,"Ġsqu":4242,"Ġfancy":4243,"Ġmeant":4244,"ĠBecause":4245,"Ġspent":4246,"Ġearn":4247,"orses":4248,"Ġkeeps":4249,"Ġlawful":4250,"Ġdeserve":4251,"Ġargument":4252,"DOCTOR":4253,"IZ":4254,"Pray":4255,"See":4256,"SOMERSET":4257,"fl":4258,"yond":4259,"Ġlament":4260,"Ġpound":4261,"Ġweigh":4262,"ĠClown":4263,"ĠPri":4264,"ruly":4265,"Ġspare":4266,"Ġkna":4267,"ORIZ":4268,"ĠNever":4269,"Ġrid":4270,"Ġparticul":4271,"Ġenjoy":4272,"AGAMEMNON":4273,"Ġtrial":4274,"Ġcountenance":4275,"Ġmiser":4276,"itting":4277,"Ġaffairs":4278,"Ġexpress":4279,"Ġprofess":4280,"Ġexecution":4281,"Ġforsworn":4282,"CLIFFORD":4283,"Ġrascal":4284,"Ġmonstrous":4285,"ORIZEL":4286,"bra":4287,"eous":4288,"reck":4289,"Ġcat":4290,"Ġdust":4291,"Ġbef":4292,"Ġstone":4293,"Ġstol":4294,"alf":4295,"ĠCon":4296,"ĠMISTRESS":4297,"thumberland":4298,"Ġseat":4299,"Ġfriar":4300,"Ġtwelve":4301,"Ġcharity":4302,"Ġtowards":4303,"ĠTyre":4304,"Ġbreathe":4305,"Ġusurp":4306,"Against":4307,"DOGBERRY":4308,"En":4309,"HUBERT":4310,"after":4311,"ees":4312,"she":4313,"vours":4314,"Ġmirth":4315,"Ġbig":4316,"ators":4317,"Ġmem":4318,"ĠWelcome":4319,"ĠPo":4320,"Ġdoctor":4321,"pped":4322,"Ġunha":4323,"istol":4324,"Ġwhereof":4325,"ctions":4326,"Ġremedy":4327,"ouchsa":4328,"Ġdishonour":4329,"GONZALO":4330,"umphrey":4331,"ATESBY":4332,"ishop":4333,"ĠBenedick":4334,"ban":4335,"iest":4336,"rors":4337,"Ġable":4338,"Ġfeet":4339,"Ġfury":4340,"Ġci":4341,"Ġcuck":4342,"Ġgate":4343,"Ġrealm":4344,"ĠRO":4345,"eless":4346,"allow":4347,"Ġthinks":4348,"Ġabroad":4349,"Ġflowers":4350,"Ġwitch":4351,"Ġcontr":4352,"Ġtail":4353,"Ġsooner":4354,"Ġbleed":4355,"Ġlangu":4356,"FABIAN":4357,"Nurse":4358,"UE":4359,"aid":4360,"Ġaim":4361,"Ġmessenger":4362,"isc":4363,"Ġfle":4364,"Ġfain":4365,"ences":4366,"Ġyonder":4367,"cend":4368,"Ġhap":4369,"Ġrenown":4370,"ĠFortune":4371,"ands":4372,"Ġloyal":4373,"elt":4374,"ĠThomas":4375,"ump":4376,"Ġmayst":4377,"Ġprosper":4378,"ĠKeep":4379,"Ġflood":4380,"Ġguilt":4381,"Ġsupper":4382,"upid":4383,"Ġcorrupt":4384,"asket":4385,"Ġdreadful":4386,"Ġtyrant":4387,"Ġprotector":4388,"ĠPHIL":4389,"Must":4390,"Ġ&":4391,"Ġcustom":4392,"Ġlen":4393,"Ġhit":4394,"Ġtop":4395,"ĠCO":4396,"Ġdoom":4397,"Ġvenge":4398,"Ġshut":4399,"Ġhopes":4400,"ĠKnow":4401,"aintain":4402,"Ġfalls":4403,"Ġkindness":4404,"Ġmeaning":4405,"Before":4406,"Ġhappiness":4407,"CALIBAN":4408,"CEL":4409,"IG":4410,"MUN":4411,"iam":4412,"ouds":4413,"ination":4414,"isbury":4415,"Ġgown":4416,"ĠTH":4417,"etween":4418,"ourt":4419,"ĠBl":4420,"ĠBass":4421,"ĠCARDINAL":4422,"ĠPRIN":4423,"ĠFourth":4424,"ERLE":4425,"Ġloath":4426,"lace":4427,"Ġdisgu":4428,"Ġleaves":4429,"eeth":4430,"Ġdesperate":4431,"ESTOR":4432,"Ġflight":4433,"agger":4434,"Ġchief":4435,"UMERLE":4436,"APEMANTUS":4437,"BOTTOM":4438,"LYSANDER":4439,"Ġpunish":4440,"ĠKATHARINE":4441,"Ġreverend":4442,"Ġducats":4443,"CELOT":4444,"MUND":4445,"Faith":4446,"MIRANDA":4447,"cus":4448,"ey":4449,"oot":4450,"val":4451,"Ġwhilst":4452,"ĠCount":4453,"ified":4454,"Ġspite":4455,"Ġshrew":4456,"Ġswore":4457,"pping":4458,"Ġmadness":4459,"Ġalways":4460,"Ġflower":4461,"MARGARET":4462,"ĠMars":4463,"Ġnatural":4464,"Ġtriumph":4465,"itizens":4466,"Ġlearned":4467,"ottom":4468,"Ġtrumpets":4469,"Ġjewel":4470,"Ġcircum":4471,"ault":4472,"folk":4473,"hum":4474,"oard":4475,"Ġant":4476,"Ġbought":4477,"Ġfee":4478,"Ġfirm":4479,"Ġdet":4480,"ane":4481,"ĠAUMERLE":4482,"ĠHold":4483,"ĠHumphrey":4484,"Ġstart":4485,"ads":4486,"Ġasleep":4487,"ĠPet":4488,"Ġnob":4489,"Ġcomb":4490,"Ġconvey":4491,"Ġunp":4492,"ILLE":4493,"EDGAR":4494,"Ġclo":4495,"Ġsmell":4496,"acher":4497,"Ġempt":4498,"CHARLES":4499,"onstable":4500,"Ġapart":4501,"ĠCharles":4502,"Ġschool":4503,"CIS":4504,"Such":4505,"bar":4506,"iving":4507,"ining":4508,"Ġwings":4509,"Ġwont":4510,"Ġbab":4511,"isher":4512,"att":4513,"amed":4514,"Ġgoodness":4515,"Ġdisple":4516,"Ġfright":4517,"Ġperil":4518,"Ġaffect":4519,"Ġguest":4520,"ails":4521,"Ġdiscourse":4522,"Ġslow":4523,"ĠNorthumberland":4524,"Ġlands":4525,"Ġweeping":4526,"Ġpossible":4527,"RANCIS":4528,"ĠHastings":4529,"Ah":4530,"Farewell":4531,"Make":4532,"do":4533,"Ġbawd":4534,"cel":4535,"edious":4536,"imer":4537,"rius":4538,"INCE":4539,"ĠMort":4540,"Ġdoors":4541,"ĠFifth":4542,"iling":4543,"ONS":4544,"oler":4545,"Ġgreatest":4546,"THESEUS":4547,"Ġruin":4548,"IDES":4549,"Ġlean":4550,"LUCETTA":4551,"AVILLE":4552,"IMONIDES":4553,"ĠTroiles":4554,"HERMIA":4555,"Ġcredit":4556,"ĠTragedy":4557,"ONGAVILLE":4558,"ĠPHILIP":4559,"Pr":4560,"WESTMORELAND":4561,"him":4562,"Ġtable":4563,"itude":4564,"Ġled":4565,"ĠWales":4566,"idings":4567,"Ġkins":4568,"Ġstep":4569,"hire":4570,"ĠOCT":4571,"andar":4572,"Ġallow":4573,"Ġprod":4574,"Ġheavenly":4575,"Ġfollowing":4576,"UMNIA":4577,"Ġease":4578,"Ġcouncil":4579,"ĠSoldiers":4580,"Ġdespair":4581,"Ġwretch":4582,"ĠSalisbury":4583,"Ġrevolt":4584,"LORENZO":4585,"Sweet":4586,"bear":4587,"his":4588,"Ġteeth":4589,"iter":4590,"Ġhorses":4591,"Ġpack":4592,"athar":4593,"adua":4594,"Ġdece":4595,"antag":4596,"ORACH":4597,"icy":4598,"Ġuns":4599,"Ġoutward":4600,"Ġplot":4601,"Ġhark":4602,"ĠNorfolk":4603,"Ġgriefs":4604,"Ġfreely":4605,"Ġvoices":4606,"Ġintent":4607,"atrice":4608,"Ġequal":4609,"Ġauthority":4610,"ĠGeorge":4611,"ONSO":4612,"ORACHIO":4613,"JOAN":4614,"there":4615,"erved":4616,"Ġcher":4617,"Ġcure":4618,"omin":4619,"ĠAg":4620,"Ġstones":4621,"ords":4622,"ĠCupid":4623,"ARIEL":4624,"ĠLy":4625,"ĠAndronic":4626,"Ġlovers":4627,"rum":4628,"Ġwarm":4629,"Ġclot":4630,"ĠCaptain":4631,"Ġguess":4632,"Ġmeeting":4633,"Ġbids":4634,"twixt":4635,"Ġhanged":4636,"Ġboot":4637,"Ġsingle":4638,"logue":4639,"Ġcondu":4640,"Ġthrive":4641,"urious":4642,"ĠShallow":4643,"Ġfiend":4644,"Ġcivil":4645,"DIANA":4646,"cri":4647,"eat":4648,"iar":4649,"net":4650,"Ġtedious":4651,"Ġmir":4652,"Ġfurn":4653,"itch":4654,"Ġbecomes":4655,"iment":4656,"ĠCam":4657,"ĠMont":4658,"ĠMACBETH":4659,"ARVIRAGUS":4660,"ĠPadua":4661,"Ġdeceived":4662,"ERIS":4663,"ĠDian":4664,"Ġsaying":4665,"Ġroot":4666,"Ġexam":4667,"Ġappears":4668,"Ġclouds":4669,"IMACH":4670,"Ġcontempt":4671,"ULT":4672,"Ġbegins":4673,"RINCU":4674,"ney":4675,"Ġbesides":4676,"ontent":4677,"Ġspoken":4678,"Ġdeserved":4679,"sooth":4680,"Ġabsence":4681,"EXETER":4682,"ĠLucius":4683,"ouchsafe":4684,"ERISSA":4685,"IMACHUS":4686,"RINCULO":4687,"Because":4688,"na":4689,"Ġz":4690,"oured":4691,"Ġsal":4692,"Ġmild":4693,"Ġthick":4694,"Ġtomb":4695,"Ġisland":4696,"ĠPyramus":4697,"ĠFALSTAFF":4698,"Ġsearch":4699,"Ġvar":4700,"Ġvice":4701,"Ġhollow":4702,"Ġofficer":4703,"Ġenvy":4704,"Ġwarlike":4705,"Ġwhither":4706,"Ġimper":4707,"ethought":4708,"Ġtrick":4709,"ĠWilliam":4710,"ĠTroj":4711,"Ġsometime":4712,"Ġsometimes":4713,"Shepherd":4714,"Ġtempest":4715,"ĠTwelfth":4716,"FLORIZEL":4717,"Ġacquaint":4718,"Ġrank":4719,"Ġdearest":4720,"Ġangel":4721,"Captain":4722,"Ġparticular":4723,"Away":4724,"CAST":4725,"Chamberlain":4726,"CLUS":4727,"Ex":4728,"Peace":4729,"PID":4730,"rat":4731,"rough":4732,"Ġmain":4733,"Ġwond":4734,"Ġborrow":4735,"Ġfish":4736,"ĠSAL":4737,"illo":4738,"tern":4739,"ĠBoy":4740,"Ġrender":4741,"Ġreward":4742,"INCH":4743,"ĠEr":4744,"ĠĠĠĠĠĠĠĠĠĠĠĠĠĠĠĠĠĠĠĠĠĠĠĠĠĠĠĠĠ":4745,"Ġspec":4746,"ĠDem":4747,"Ġbride":4748,"ROCLUS":4749,"ATROCLUS":4750,"DUFF":4751,"pense":4752,"ACDUFF":4753,"Ġskill":4754,"HERO":4755,"Ġprophe":4756,"Ġsuddenly":4757,"ORCESTER":4758,"Ġearnest":4759,"ĠAndronicus":4760,"CASTER":4761,"PIDUS":4762,"AENEAS":4763,"ever":4764,"fit":4765,"Ġtidings":4766,"Ġaud":4767,"iny":4768,"ĠInto":4769,"Ġloose":4770,"Ġhoney":4771,"Ġnaked":4772,"Ġthrust":4773,"ĠTale":4774,"Ġhaz":4775,"Ġmelt":4776,"ĠWilt":4777,"ĠWhom":4778,"ĠBo":4779,"ĠCo":4780,"Ġhers":4781,"Ġshallow":4782,"Their":4783,"Ġcapt":4784,"Ġbrings":4785,"Ġjoint":4786,"Ġalas":4787,"Ġwomb":4788,"ĠPrithee":4789,"clock":4790,"Ġstranger":4791,"Ġserved":4792,"Ġassured":4793,"Ġdenied":4794,"Ġsickness":4795,"Ġtempt":4796,"Ġtemper":4797,"ĠUnless":4798,"Ġforbear":4799,"Ġinnocent":4800,"cing":4801,"dle":4802,"ung":4803,"ws":4804,"Ġmil":4805,"Ġmaintain":4806,"enant":4807,"Ġhig":4808,"Ġnames":4809,"Ġbell":4810,"Ġincl":4811,"etrius":4812,"ĠWORCESTER":4813,"Ġung":4814,"cket":4815,"ĠFare":4816,"ĠRich":4817,"Ġdisdain":4818,"ption":4819,"CHBISHOP":4820,"Ġdeadly":4821,"Ġtraitors":4822,"Ġbelow":4823,"Ġtreacher":4824,"Ġaccount":4825,"Twas":4826,"Ġprofit":4827,"IONE":4828,"Ġundone":4829,"LAUNCELOT":4830,"Ġgirl":4831,"ald":4832,"can":4833,"ront":4834,"Ġwander":4835,"Ġdif":4836,"Ġdig":4837,"Ġdeter":4838,"ored":4839,"ĠFair":4840,"Ġlock":4841,"Ġspake":4842,"Ġfaces":4843,"ĠDost":4844,"igence":4845,"ĠKathar":4846,"Ġeng":4847,"Ġcompl":4848,"Ġrule":4849,"Ġarmour":4850,"ĠUnder":4851,"Ġcover":4852,"Ġhumbly":4853,"ĠMARK":4854,"Ġdivine":4855,"ĠFlore":4856,"ĠFlourish":4857,"MONT":4858,"chance":4859,"Ġstorm":4860,"ĠEphes":4861,"Bes":4862,"BAL":4863,"Bawd":4864,"SIMP":4865,"bus":4866,"Ġtree":4867,"orter":4868,"Ġhid":4869,"Ġnought":4870,"Ġgrown":4871,"ĠTaming":4872,"verse":4873,"ĠOLI":4874,"ANUS":4875,"ĠFr":4876,"romio":4877,"ICANUS":4878,"Ġbrook":4879,"Ġperj":4880,"Ġpurcha":4881,"LUCIANA":4882,"Ġvirtues":4883,"ĠHermia":4884,"Ġestate":4885,"Ġextrem":4886,"Ġconstant":4887,"OWER":4888,"ridge":4889,"Ġignorant":4890,"Ġchallenge":4891,"Ġcontrary":4892,"Ġleng":4893,"ĠMortimer":4894,"mong":4895,"ope":4896,"we":4897,"rees":4898,"Ġwide":4899,"Ġcup":4900,"ĠPost":4901,"ĠDou":4902,"Ġblest":4903,"ement":4904,"Ġparty":4905,"Ġcommission":4906,"Ġflies":4907,"ĠBeatrice":4908,"Ġcomplex":4909,"oses":4910,"Ġglorious":4911,"atience":4912,"Ġdischar":4913,"Ġburied":4914,"Ġcrack":4915,"Ġmodesty":4916,"Ġmountain":4917,"Ġsighs":4918,"EGAN":4919,"Ġvengeance":4920,"Speak":4921,"SIMONIDES":4922,"aul":4923,"chamber":4924,"ex":4925,"hor":4926,"mond":4927,"vious":4928,"Ġtort":4929,"Ġmess":4930,"ision":4931,"Ġpict":4932,"Ġgaz":4933,"ĠSH":4934,"utenant":4935,"ash":4936,"Ġsore":4937,"ĠMusic":4938,"Ġnobl":4939,"Ġknife":4940,"Ġknees":4941,"Ġtherein":4942,"Ġride":4943,"Ġappre":4944,"ĠItal":4945,"Ġfollowers":4946,"Ġundertake":4947,"Ġcoz":4948,"Ġminds":4949,"ĠStay":4950,"Ġassure":4951,"Ġmischief":4952,"ĠBrook":4953,"Ġmerit":4954,"Ġcrave":4955,"VOLUMNIA":4956,"Ġquality":4957,"Ġvictory":4958,"ĠPRINCE":4959,"antagenet":4960,"ĠEphesus":4961,"Fool":4962,"Master":4963,"iver":4964,"sing":4965,"Ġwol":4966,"Ġbird":4967,"Ġcam":4968,"semb":4969,"ĠST":4970,"ills":4971,"ĠWor":4972,"Ġforfeit":4973,"ctly":4974,"ros":4975,"Ġmaking":4976,"Ġflourish":4977,"onsieur":4978,"Ġpair":4979,"Ġseeming":4980,"ĠAlarum":4981,"Ġgarments":4982,"Ġregard":4983,"Ġobject":4984,"worthy":4985,"Ġobedience":4986,"ĠOCTAVIUS":4987,"Both":4988,"gn":4989,"hither":4990,"time":4991,"Ġsalt":4992,"haps":4993,"Ġbark":4994,"Ġfun":4995,"Ġcere":4996,"Ġnine":4997,"Ġpress":4998,"ances":4999,"etter":5000,"idius":5001,"Ġstock":5002,"ĠBar":5003,"ĠPoor":5004,"hiles":5005,"thur":5006,"ALONSO":5007,"Ġswell":5008,"ody":5009,"Ġplead":5010,"ĠĠĠĠĠĠĠĠĠĠĠĠĠĠĠĠĠĠĠĠĠĠĠĠĠĠĠĠĠĠĠĠĠĠĠĠĠ":5011,"Ġladyship":5012,"Ġnorth":5013,"ĠWithout":5014,"Ġends":5015,"thello":5016,"Ġprize":5017,"Ġprevent":5018,"Ġthroat":5019,"Ġreverence":5020,"Ġsmooth":5021,"Ġempty":5022,"ĠDemetrius":5023,"Fl":5024,"vous":5025,"ream":5026,"omed":5027,"Ġhabit":5028,"Ġsto":5029,"ording":5030,"ĠBian":5031,"Ġsooth":5032,"ĠOthello":5033,"ERTR":5034,"ĠGERTR":5035,"iliar":5036,"ĠThink":5037,"Ġbrows":5038,"alls":5039,"MARCIUS":5040,"Ġvillany":5041,"UDE":5042,"Ġexcept":5043,"Ġcondemn":5044,"Ġbeaten":5045,"ossible":5046,"Ġlimbs":5047,"Ġprevail":5048,"Ġsacred":5049,"Ġbehalf":5050,"ĠCamillo":5051,"ĠGERTRUDE":5052,"AIS":5053,"BIONDELLO":5054,"Constable":5055,"JOHN":5056,"LONGAVILLE":5057,"PUC":5058,"gen":5059,"look":5060,"ns":5061,"ta":5062,"ĠX":5063,"Ġsan":5064,"Ġwing":5065,"Ġwaste":5066,"Ġcries":5067,"Ġpie":5068,"entio":5069,"rible":5070,"Ġreck":5071,"ĠMoor":5072,"ursed":5073,"ĠEre":5074,"ĠDromio":5075,"Ġshed":5076,"udge":5077,"ago":5078,"Ġcompass":5079,"forth":5080,"Ġconfirm":5081,"sander":5082,"Ġretire":5083,"Ġbuild":5084,"Ġdarest":5085,"ĠĠĠĠĠĠĠĠĠĠĠĠĠĠĠĠĠĠĠĠĠĠĠ":5086,"ĠArt":5087,"CORN":5088,"Ġdrops":5089,"LYSIMACHUS":5090,"ĠBritain":5091,"Ġdegree":5092,"Ġmemory":5093,"Ġconduct":5094,"AISA":5095,".--":5096,"Ab":5097,"TIUS":5098,"cle":5099,"ipe":5100,"kest":5101,"lock":5102,"which":5103,"Ġing":5104,"Ġapt":5105,"Ġdurst":5106,"Ġpear":5107,"Ġghost":5108,"Ġbelly":5109,"Ġinvent":5110,"ĠHal":5111,"ĠCLEOPATRA":5112,"ĠFie":5113,"Ġblush":5114,"Ġquit":5115,"Ġbetwixt":5116,"Ġbred":5117,"Ġgentlewoman":5118,"EDMUND":5119,"Ġappare":5120,"ĠSirrah":5121,"Ġtreasure":5122,"twill":5123,"Ġbodies":5124,"Ġadvance":5125,"ĠĠĠĠĠĠĠĠĠĠĠĠĠĠĠĠĠĠĠĠĠĠĠĠĠĠĠĠĠĠ":5126,"Ġesteem":5127,"Ġattempt":5128,"ĠCassius":5129,"ĠScot":5130,"Ġseason":5131,"Ġsatisfied":5132,"Ġfiery":5133,"Ġsuspect":5134,"ĠIndeed":5135,"ĠBassanio":5136,"CY":5137,"Old":5138,"TRINCULO":5139,"Ġtaught":5140,"Ġavo":5141,"Ġsy":5142,"inite":5143,"Ġwreck":5144,"Ġfin":5145,"Ġforsooth":5146,"rand":5147,"ĠCal":5148,"ĠMen":5149,"ĠMal":5150,"Ġliest":5151,"ĠPlease":5152,"ĠDi":5153,"ĠDraw":5154,"Ġcave":5155,"Ġrhy":5156,"Ġheav":5157,"ĠHereford":5158,"Ġbeloved":5159,"Ġwinds":5160,"PARIS":5161,"Ġdisposition":5162,"Ġshortly":5163,"Ġdevice":5164,"Ġdespite":5165,"Ġtyran":5166,"ĠPERCY":5167,"Gentleman":5168,"STANCE":5169,"ĠBianca":5170,"BORACHIO":5171,"Doth":5172,"NESTOR":5173,"rs":5174,"Ġiron":5175,"Ġwake":5176,"Ġwither":5177,"Ġpick":5178,"ĠTime":5179,"Ġhall":5180,"ANNE":5181,"ĠGR":5182,"Ġves":5183,"ieved":5184,"Ġlovely":5185,"Ġabuse":5186,"Ġtells":5187,"lipp":5188,"atchman":5189,"Ġtread":5190,"Being":5191,"Ġpeers":5192,"Ġsentence":5193,"ĠĠĠĠĠĠĠĠĠĠĠĠĠĠĠĠĠĠĠĠĠĠĠĠĠĠĠĠĠĠĠ":5194,"Ġprisoners":5195,"Ġmarket":5196,"Ġuntil":5197,"Ġresolved":5198,"Hostess":5199,"Ġgifts":5200,"Ġhorns":5201,"Ġfairest":5202,"Ġmidnight":5203,"Ġhazard":5204,"?--":5205,"Ant":5206,"Boy":5207,"IGO":5208,"VERS":5209,"avy":5210,"bow":5211,"draw":5212,"eld":5213,"faced":5214,"pir":5215,"port":5216,"Ġsits":5217,"Ġmiss":5218,"Ġwat":5219,"ening":5220,"Ġbeyond":5221,"Ġinfect":5222,"ĠSyra":5223,"utes":5224,"ĠWINCH":5225,"Ġstab":5226,"rived":5227,"ĠMine":5228,"ĠPistol":5229,"ĠFollow":5230,"Ġsuper":5231,"Ġlod":5232,"ĠRem":5233,"icate":5234,"Ġsway":5235,"Ġsav":5236,"Ġparted":5237,"QUINCE":5238,"Ġfairly":5239,"ĠCaius":5240,"Ġreputation":5241,"Ġtrif":5242,"elsh":5243,"Ġinfinite":5244,"BOULT":5245,"ĠArthur":5246,"DERIGO":5247,"ERNON":5248,"Ġmodest":5249,"ĠPlantagenet":5250,"umbers":5251,"Ġedge":5252,"Ġpolicy":5253,"ĠMilan":5254,"Ġkinsman":5255,"ĠWINCHESTER":5256,"CR":5257,"Call":5258,"nat":5259,"Ġsides":5260,"Ġmerchant":5261,"Ġfing":5262,"Ġfro":5263,"Ġdying":5264,"Ġline":5265,"Ġpainted":5266,"uring":5267,"ĠPis":5268,"ĠGet":5269,"Ġshot":5270,"assad":5271,"Ġperforce":5272,"ized":5273,"Ġprefer":5274,"LUCIUS":5275,"Ġprick":5276,"Ġadvice":5277,"ĠEdm":5278,"HELICANUS":5279,"Ġsky":5280,"Ġminute":5281,"Ġoffended":5282,"Ġunkind":5283,"ĠWinter":5284,"ĠGuard":5285,"ĠGrecian":5286,"ĠServingman":5287,"ĠDiomed":5288,"Ġvessel":5289,"GUN":5290,"PATROCLUS":5291,"WER":5292,"ded":5293,"ib":5294,"rite":5295,"soe":5296,"Ġtide":5297,"Ġder":5298,"omans":5299,"edant":5300,"ĠSEN":5301,"illon":5302,"ĠWelsh":5303,"idence":5304,"raid":5305,"Ġstaff":5306,"rib":5307,"roach":5308,"ĠPut":5309,"ĠFri":5310,"Ġdeer":5311,"Ġsees":5312,"ruction":5313,"IOR":5314,"ĠDen":5315,"ember":5316,"olute":5317,"Ġunw":5318,"Ġfathers":5319,"Ġraise":5320,"PHIN":5321,"Ġcloud":5322,"Ġimm":5323,"URGUN":5324,"Ġdearly":5325,"Ġstreets":5326,"Ġsleeping":5327,"OLIVER":5328,"GOWER":5329,"Ġdevise":5330,"Ġfamiliar":5331,"AUPHIN":5332,"Ġdares":5333,"Ġambition":5334,"Ġamazed":5335,"ĠSENIOR":5336,"URGUNDY":5337,"BIANCA":5338,"Hear":5339,"Whom":5340,"bours":5341,"ris":5342,"shall":5343,"hest":5344,"isper":5345,"ering":5346,"Ġfits":5347,"Ġfix":5348,"Ġcool":5349,"Ġcease":5350,"Ġlin":5351,"Ġpat":5352,"Ġthie":5353,"semble":5354,"ado":5355,"ĠCLARENCE":5356,"ĠLest":5357,"this":5358,"Ġven":5359,"Ġgraces":5360,"Ġmarks":5361,"Ġearly":5362,"Ġfairy":5363,"Ġafraid":5364,"ĠWithin":5365,"Ġchair":5366,"Ġservants":5367,"Ġslight":5368,"Ġmaids":5369,"Unless":5370,"ĠLucentio":5371,"Ġprepared":5372,"Ġmonths":5373,"Ġdisgrace":5374,"Ġodds":5375,"ĠRichmond":5376,"DEN":5377,"Ent":5378,"NERISSA":5379,"REGAN":5380,"des":5381,"pet":5382,"ndy":5383,"Ġcell":5384,"Ġcock":5385,"Ġluck":5386,"arm":5387,"ĠAfter":5388,"ĠTem":5389,"leans":5390,"Ġforces":5391,"ĠBoth":5392,"ctav":5393,"urance":5394,"roll":5395,"ĠLo":5396,"amour":5397,"ERTES":5398,"Ġsuck":5399,"Ġfavours":5400,"ĠRomans":5401,"ules":5402,"ĠToby":5403,"ols":5404,"Ġworthi":5405,"Ġrock":5406,"Ġalter":5407,"Ġalike":5408,"Ġripe":5409,"EDFORD":5410,"ĠUnto":5411,"Ġchide":5412,"Ġnative":5413,"Ġresc":5414,"Ġserp":5415,"Ġkilled":5416,"Ġsounds":5417,"Stand":5418,"Ġrevenged":5419,"Ġdreams":5420,"prise":5421,"volio":5422,"Ġframe":5423,"CONSTANCE":5424,"HERMIONE":5425,"OWBRA":5426,"THURIO":5427,"ĠAlexand":5428,"Ġfigure":5429,"Ġcompanion":5430,"Ġcuckold":5431,"OWBRAY":5432,"AUS":5433,"DE":5434,"Ind":5435,"Under":5436,"ape":5437,"father":5438,"pic":5439,"ton":5440,"ted":5441,"Ġscept":5442,"Ġbottom":5443,"Ġfart":5444,"ency":5445,"Ġpier":5446,"Ġbew":5447,"ĠThose":5448,"Ġweather":5449,"adies":5450,"ĠBur":5451,"ĠBUCKINGHAM":5452,"ARON":5453,"ĠPardon":5454,"ĠPandar":5455,"ĠOctav":5456,"ERIL":5457,"Ġpron":5458,"Ġhereafter":5459,"Ġunb":5460,"Ġheartily":5461,"Ġcler":5462,"Ġimage":5463,"Ġpursu":5464,"URN":5465,"ĠOrleans":5466,"Ġcharm":5467,"Ġcursed":5468,"Ġchanged":5469,"Ġstream":5470,"Ġmonument":5471,"ĠANTONIO":5472,"uteous":5473,"Ġattended":5474,"Ġintell":5475,"otted":5476,"Ġmurderer":5477,"ĠComedy":5478,"Ġburning":5479,"Ġviolent":5480,"ĠPriam":5481,"Ġlanguage":5482,"Ġcomplexion":5483,"EIG":5484,"IER":5485,"NIER":5486,"act":5487,"iate":5488,"Ġtall":5489,"Ġwag":5490,"Ġbade":5491,"Ġnice":5492,"Ġparent":5493,"Ġinher":5494,"ĠTIT":5495,"chio":5496,"eave":5497,"ĠHu":5498,"rald":5499,"rier":5500,"ĠBa":5501,"alks":5502,"ARINO":5503,"ARCHBISHOP":5504,"amemn":5505,"ĠFisher":5506,"Ġbutcher":5507,"ruchio":5508,"iege":5509,"Ġalthough":5510,"Ġrash":5511,"EDWARD":5512,"Ġpurp":5513,"Ġbrains":5514,"AGUE":5515,"URREY":5516,"Ġdaughters":5517,"Ġfriendship":5518,"BERON":5519,"Ġprey":5520,"ĠBring":5521,"gundy":5522,"Ġhardly":5523,"Ġwax":5524,"MENAS":5525,"ranio":5526,"ĠLEONATO":5527,"Ġgrieve":5528,"Ġunknown":5529,"Ġelder":5530,"humus":5531,"ĠErrors":5532,"Ġdeterm":5533,"Ġsanct":5534,"ĠBurgundy":5535,"EIGNIER":5536,"amemnon":5537,"'?":5538,"Con":5539,"FIDIUS":5540,"OV":5541,"good":5542,"lic":5543,"Ġtest":5544,"Ġtame":5545,"Ġtarry":5546,"held":5547,"Ġsour":5548,"Ġmerc":5549,"Ġcens":5550,"Ġcalm":5551,"Ġdumb":5552,"Ġink":5553,"Ġinform":5554,"oops":5555,"ĠHence":5556,"Ġstat":5557,"Ġstroke":5558,"ENCR":5559,"ĠEn":5560,"ĠPAR":5561,"outs":5562,"Ġarrest":5563,"ĠMarch":5564,"Ġslew":5565,"Ġdiscover":5566,"Ġimpossible":5567,"ĠCAPULET":5568,"Ġboast":5569,"ANTZ":5570,"Ġblessing":5571,"Ġprivile":5572,"Ġvex":5573,"CUTIO":5574,"Ġwhoreson":5575,"ĠLysander":5576,"Ġpicture":5577,"Ġapparel":5578,"ENCRANTZ":5579,"Fair":5580,"ez":5581,"ivers":5582,"pons":5583,"Ġwants":5584,"Ġbind":5585,"Ġfant":5586,"Ġcrow":5587,"Ġcitizens":5588,"Ġdim":5589,"Ġpill":5590,"Ġherald":5591,"ĠTr":5592,"ĠSw":5593,"uted":5594,"Ġeight":5595,"rif":5596,"ĠCould":5597,"ĠCOR":5598,"Ġwilling":5599,"ĠNOR":5600,"ntil":5601,"Ġvantage":5602,"ĠDis":5603,"ĠDream":5604,"Ġshine":5605,"Ġswallow":5606,"Ġcares":5607,"ept":5608,"Ġsayest":5609,"ICA":5610,"igious":5611,"erest":5612,"Ġroar":5613,"ESSICA":5614,"Ġprayer":5615,"Ġclim":5616,"Ġtrade":5617,"Ġsmiles":5618,"Ġsubstance":5619,"Ġadvised":5620,"Ġbanqu":5621,"Ġexceed":5622,"Ġexped":5623,"Ġadmir":5624,"ĠQue":5625,"Never":5626,"ĠGreek":5627,"ĠRobert":5628,"sayer":5629,"Ġdignity":5630,"Ġknaves":5631,"Ġdispleasure":5632,"ĠFisherman":5633,"NYM":5634,"co":5635,"light":5636,"ping":5637,"hether":5638,"inius":5639,"Ġmart":5640,"Ġwink":5641,"Ġwhip":5642,"Ġband":5643,"Ġodd":5644,"Ġdagger":5645,"Ġhind":5646,"Ġpil":5647,"ĠSUFFOLK":5648,"Ġisle":5649,"ĠBRUTUS":5650,"ĠMade":5651,"Ġdogs":5652,"ilius":5653,"Ġvol":5654,"hange":5655,"Ġshr":5656,"Ġnegle":5657,"ALD":5658,"Ġspeaking":5659,"Ġabused":5660,"PHELIA":5661,"Ġwhisper":5662,"ercules":5663,"Ġglove":5664,"Ġputs":5665,"Ġconsul":5666,"Ġmisc":5667,"itten":5668,"Ġsorrows":5669,"Ġcommonw":5670,"Ġdelay":5671,"Ġaffli":5672,"BANY":5673,"Ġgroan":5674,"Ġdarkness":5675,"Ġrebell":5676,"Ġfatal":5677,"Ġacquainted":5678,"Ġfierce":5679,"ĠLaun":5680,"Ġshrewd":5681,"Ġclothes":5682,"ĠMontag":5683,"Ġspecial":5684,"ĠFranc":5685,"ĠEdmund":5686,"Ad":5687,"AUNT":5688,"COL":5689,"EET":5690,"Into":5691,"gged":5692,"kind":5693,"leness":5694,"mes":5695,"mend":5696,"Ġsink":5697,"Ġsaint":5698,"Ġmass":5699,"hand":5700,"Ġbot":5701,"Ġbite":5702,"Ġpour":5703,"ĠTEAR":5704,"lend":5705,"ĠSle":5706,"ENAS":5707,"ĠMethinks":5708,"aine":5709,"ĠLab":5710,"ANIA":5711,"Ġdeb":5712,"Ġnobles":5713,"ĠGAUNT":5714,"run":5715,"rump":5716,"Ġmult":5717,"seless":5718,"Ġworn":5719,"Ġseeing":5720,"Ġjour":5721,"Ġsaved":5722,"Ġsauc":5723,"lesome":5724,"Ġenforce":5725,"chester":5726,"Ġbegu":5727,"Ġrepair":5728,"Ġcoff":5729,"acy":5730,"Ġassist":5731,"ĠLEWIS":5732,"bling":5733,"SHEET":5734,"Ġdevils":5735,"Ġhateful":5736,"Ġaccept":5737,"Ġundo":5738,"Ġwoes":5739,"Ġmourn":5740,"ĠPosthumus":5741,"PUCK":5742,"Ġreckon":5743,"Entire":5744,"ĠAlexandria":5745,"ĠTEARSHEET":5746,"Page":5747,"cuse":5748,"oll":5749,"ux":5750,"hend":5751,"reak":5752,"Ġwrest":5753,"Ġbull":5754,"ĠIS":5755,"Ġcla":5756,"Ġnaught":5757,"Ġpomp":5758,"otion":5759,"earer":5760,"Ġweeds":5761,"hers":5762,"Ġkin":5763,"uses":5764,"think":5765,"Ġseest":5766,"Ġsweat":5767,"ummer":5768,"Ġdiss":5769,"ATURN":5770,"Ġpocket":5771,"Ġfox":5772,"Ġotherwise":5773,"Ġarmed":5774,"Ġplaces":5775,"URENCE":5776,"Ġmisery":5777,"Ġlaws":5778,"Ġfeather":5779,"upiter":5780,"ĠLAURENCE":5781,"Ġaffections":5782,"Ġshift":5783,"Ġunfold":5784,"Ġstolen":5785,"Ġdisguised":5786,"ĠAgamemnon":5787,"Ġlength":5788,"Ġbanquet":5789,"ATURNINUS":5790,"Hark":5791,"ITH":5792,"Unto":5793,"Widow":5794,"YR":5795,"action":5796,"boy":5797,"chard":5798,"ped":5799,"place":5800,"rison":5801,"shire":5802,"zz":5803,"Ġav":5804,"Ġsnow":5805,"Ġbent":5806,"Ġburt":5807,"Ġnumbers":5808,"aries":5809,"oment":5810,"ĠHercules":5811,"Ġstick":5812,"aded":5813,"Ġrecom":5814,"ĠLie":5815,"ĠNature":5816,"Ġdew":5817,"Ġsup":5818,"Ġsell":5819,"Ġrotten":5820,"Think":5821,"ĠKent":5822,"THAISA":5823,"ewis":5824,"ICHMON":5825,"Ġkindly":5826,"ailor":5827,"Ġcommanded":5828,"Ġsends":5829,"Ġdrums":5830,"Ġknights":5831,"BOW":5832,"Two":5833,"BENVOLIO":5834,"etern":5835,"ĠJulius":5836,"ĠOutlaw":5837,"Ġbabe":5838,"kedom":5839,"moreland":5840,"Ġdukedom":5841,"Ġangels":5842,"idsummer":5843,"Ġconceit":5844,"ĠBesides":5845,"Ġnecessity":5846,"ĠWestmoreland":5847,"Ġbounty":5848,"Ġconcern":5849,"Ġzeal":5850,"Ġpurposes":5851,"ĠQueen":5852,"ICHMOND":5853,"After":5854,"Bel":5855,"OX":5856,"fellow":5857,"lay":5858,"Ġtask":5859,"Ġdot":5860,"Ġlamb":5861,"ĠTranio":5862,"ĠWhile":5863,"Ġev":5864,"ram":5865,"Ġstret":5866,"Ġstoop":5867,"room":5868,"ĠLong":5869,"ĠFaith":5870,"thing":5871,"ORA":5872,"ĠRous":5873,"othsayer":5874,"Ġarch":5875,"ortens":5876,"LEPIDUS":5877,"ĠAside":5878,"Ġperish":5879,"AMORA":5880,"Ġappet":5881,"Ġcontract":5882,"MARCUS":5883,"ĠCapit":5884,"Ġturned":5885,"Ġfaithful":5886,"Ġsurely":5887,"Ġsecure":5888,"Ġstronger":5889,"Ġdefence":5890,"LANCASTER":5891,"Ġconstable":5892,"Ġbooks":5893,"Ġmistake":5894,"Ġobserv":5895,"Ġweapons":5896,"Ġfairer":5897,"Ġcreep":5898,"ĠOfficers":5899,"Ġchaste":5900,"Ġbenefit":5901,"ĠPetruchio":5902,"Ġnobility":5903,"ĠTrojan":5904,"ĠMalvolio":5905,"Ġthieves":5906,"ĠHubert":5907,"CATESBY":5908,"DAUPHIN":5909,"Made":5910,"Off":5911,"poral":5912,"Ġsings":5913,"Ġmoment":5914,"Ġfelt":5915,"arrow":5916,"Ġpause":5917,"Ġbeam":5918,"irty":5919,"uts":5920,"ĠHEL":5921,"rain":5922,"ĠCHAR":5923,"ĠFR":5924,"Ġnobly":5925,"ERIMON":5926,"ĠGREY":5927,"Ġvouchsafe":5928,"Ġshun":5929,"ĠRet":5930,"Ġblus":5931,"Ġworm":5932,"Ġunse":5933,"ared":5934,"LAERTES":5935,"Ġleague":5936,"Ġmarvel":5937,"ILIUS":5938,"Ġwrought":5939,"Ġflow":5940,"Ġharsh":5941,"ITA":5942,"ĠWherein":5943,"Ġturns":5944,"Ġpraised":5945,"blood":5946,"hamed":5947,"Ġhangs":5948,"ĠServants":5949,"Ġcountrymen":5950,"Ġbarren":5951,"ĠProvost":5952,"Ġgarland":5953,"ĠJulia":5954,"Ġinstrument":5955,"VERG":5956,"Ġpleasant":5957,"Ġdrive":5958,"Ġinnoc":5959,"MERCUTIO":5960,"DOLL":5961,"Ġdifference":5962,"ĠOLIVIA":5963,"Flourish":5964,"Ġfingers":5965,"ĠMontague":5966,"ortensio":5967,"ĠCapitol":5968,"Hold":5969,"Welcome":5970,"WALL":5971,"app":5972,"eve":5973,"fold":5974,"upon":5975,"Ġet":5976,"Ġetern":5977,"Ġfate":5978,"ĠIago":5979,"Ġyes":5980,"Ġyester":5981,"Ġhill":5982,"arter":5983,"Ġgather":5984,"ĠAu":5985,"ĠApp":5986,"ĠTALBOT":5987,"ldom":5988,"Ġwears":5989,"ades":5990,"Ġrede":5991,"Ġrejo":5992,"ĠPeter":5993,"ĠLost":5994,"ĠLewis":5995,"Ġsple":5996,"asted":5997,"quire":5998,"ived":5999,"Ġgodd":6000,"unate":6001,"unts":6002,"ptist":6003,"Ġproved":6004,"Ġtwain":6005,"tled":6006,"overed":6007,"retion":6008,"Ġtravel":6009,"Ġplays":6010,"Ġslept":6011,"Ġpawn":6012,"Ġcoat":6013,"Ġstays":6014,"Ġaccuse":6015,"Ġvillains":6016,"Ġearthly":6017,"Ġeast":6018,"Ġsleeps":6019,"Ġfalsehood":6020,"Ġwounded":6021,"Ġrecover":6022,"Ġcoron":6023,"Ġguarded":6024,"Ġcreatures":6025,"Ġfamous":6026,"iddle":6027,"Ġshoot":6028,"Ġpitch":6029,"worth":6030,"Next":6031,"Ġunhappy":6032,"ĠBohe":6033,"Ġpieces":6034,"Ġavoid":6035,"Ġwaters":6036,"Ġsceptre":6037,"Ġpronounce":6038,"ĠFrancis":6039,"Ġgoddess":6040,"GE":6041,"LANT":6042,"Per":6043,"Qu":6044,"WELL":6045,"hra":6046,"long":6047,"pul":6048,"vior":6049,"xford":6050,"Ġsins":6051,"Ġmood":6052,"reland":6053,"Ġfil":6054,"Ġfront":6055,"ĠIreland":6056,"Ġdress":6057,"onest":6058,"Ġpeas":6059,"omen":6060,"sequ":6061,"ĠHER":6062,"Ġstore":6063,"ĠBE":6064,"ENET":6065,"rog":6066,"thou":6067,"ilia":6068,"Ġspur":6069,"asting":6070,"Ġconference":6071,"Ġthereof":6072,"Ġshoulders":6073,"ĠJupiter":6074,"LAVIUS":6075,"LEY":6076,"Ġthinking":6077,"Ġplant":6078,"Ġabide":6079,"Ġaboard":6080,"ression":6081,"Ġenvious":6082,"Ġfinds":6083,"Ġglo":6084,"AGENET":6085,"ĠWherefore":6086,"Ġcourtier":6087,"Ġconfound":6088,"Ġhuman":6089,"Ġhumours":6090,"Ġmonarch":6091,"Ġmouths":6092,"Ġtowns":6093,"Ġdeserves":6094,"Alarum":6095,"Ġoppos":6096,"mediate":6097,"Ġgroans":6098,"glas":6099,"Ġentertainment":6100,"Ġignorance":6101,"Ġsenses":6102,"hearted":6103,"celot":6104,"Ġfurnish":6105,"Ġacquaintance":6106,"Ġhigher":6107,"ĠItaly":6108,"Ġsavage":6109,"natural":6110,"ĠTempest":6111,"ĠBaptist":6112,"ĠSlender":6113,"Ġredeem":6114,"LANTAGENET":6115,"Great":6116,"Know":6117,"MACDUFF":6118,"While":6119,"fty":6120,"love":6121,"off":6122,"some":6123,"wife":6124,"Ġach":6125,"Ġmoral":6126,"Ġoak":6127,"Ġdow":6128,"Ġheight":6129,"ĠToo":6130,"ĠTurn":6131,"ĠBid":6132,"Ġashamed":6133,"Ġlip":6134,"rop":6135,"roy":6136,"ĠPO":6137,"ĠNap":6138,"Ġnephe":6139,"ORLEANS":6140,"ivered":6141,"RODERIGO":6142,"Ġalso":6143,"Ġalarum":6144,"Ġrail":6145,"Ġcommit":6146,"AMP":6147,"aged":6148,"MARIANA":6149,"ĠIsab":6150,"Ġyounger":6151,"ĠStill":6152,"Ġaccus":6153,"Ġadvent":6154,"Ġhuge":6155,"Ġwishes":6156,"Ġpenny":6157,"reedom":6158,"Ġconjure":6159,"ĠDouglas":6160,"Ġtorture":6161,"ĠRousillon":6162,"ĠNaples":6163,"De":6164,"HAN":6165,"Keep":6166,"Nothing":6167,"OUG":6168,"OBERON":6169,"OPHELIA":6170,"RAT":6171,"aoler":6172,"col":6173,"then":6174,"Ġsought":6175,"inct":6176,"Ġball":6177,"llor":6178,"Ġyoke":6179,"Ġthorn":6180,"Ġgidd":6181,"ĠBER":6182,"ĠMe":6183,"ĠMidsummer":6184,"urb":6185,"ĠEL":6186,"ĠLadies":6187,"ouses":6188,"ĠGaunt":6189,"Ġknit":6190,"ĠDOUG":6191,"ALBANY":6192,"Ġorchard":6193,"Ġunworthy":6194,"LOV":6195,"ATHAN":6196,"Ġpartly":6197,"LAS":6198,"LEWIS":6199,"Ġdesign":6200,"Ġfriendly":6201,"Ġcommitted":6202,"Ġperfection":6203,"Ġstanding":6204,"Ġchase":6205,"EMBROKE":6206,"Ġserves":6207,"Ġadvise":6208,"Ġtemple":6209,"Ġrecord":6210,"Ġcorre":6211,"Ġincre":6212,"Ġbanishment":6213,"Ġwhiles":6214,"Ġcombat":6215,"ĠSALISBURY":6216,"ĠXI":6217,"ĠBaptista":6218,"ĠDOUGLAS":6219,"ATHANIEL":6220,"AARON":6221,"PPA":6222,"balt":6223,"ext":6224,"nock":6225,"uries":6226,"would":6227,"zed":6228,"Ġsine":6229,"Ġmile":6230,"Ġbill":6231,"Ġpee":6232,"Ġstub":6233,"Ġsoci":6234,"Ġwillingly":6235,"Ġdozen":6236,"ĠOxford":6237,"ifty":6238,"ques":6239,"Ġblown":6240,"Ġexper":6241,"Ġappointed":6242,"Ġafear":6243,"Ġremains":6244,"AGRI":6245,"Ġkindred":6246,"Ġpassage":6247,"Ġbelong":6248,"Ġtremble":6249,"Ġhelm":6250,"Ġruns":6251,"Ġreading":6252,"Ġgrey":6253,"Ġsilent":6254,"Ġpleasures":6255,"Ġpossession":6256,"Ġambassad":6257,"Ġgait":6258,"ĠPERICLES":6259,"ĠLeonato":6260,"Ġmessage":6261,"Antony":6262,"Indeed":6263,"ĠBohemia":6264,"Ġpeevish":6265,"AGRIPPA":6266,"BURGUNDY":6267,"bray":6268,"eward":6269,"than":6270,"Ġtou":6271,"Ġtut":6272,"Ġwest":6273,"Ġbur":6274,"Ġbag":6275,"ishes":6276,"Ġyond":6277,"Ġnation":6278,"arried":6279,"owbray":6280,"Ġinward":6281,"ĠTrue":6282,"Ġhail":6283,"ĠSet":6284,"ĠSOMERSET":6285,"ĠWatchman":6286,"ĠBISHOP":6287,"ĠPhi":6288,"Ġspl":6289,"Ġamiss":6290,"ĠRep":6291,"bled":6292,"ELBOW":6293,"eliver":6294,"emper":6295,"Ġknowing":6296,"Ġquench":6297,"Ġbread":6298,"Ġbreach":6299,"Ġraven":6300,"Ġperhaps":6301,"ĠThisby":6302,"Ġclock":6303,"IMER":6304,"ĠMarcus":6305,"forced":6306,"Ġservices":6307,"Ġprepar":6308,"Ġtricks":6309,"Ġpassing":6310,"ĠBrother":6311,"ORTIMER":6312,"ancing":6313,"Ġwindow":6314,"ARDINER":6315,"Ġslaves":6316,"ĠCitizens":6317,"Ġbravely":6318,"RIVERS":6319,"Ġproport":6320,"Ġrebels":6321,"Ġempress":6322,"Ġships":6323,"RANMER":6324,"Ġwedding":6325,"WILLIAMS":6326,"Ġmiserable":6327,"Ġtailor":6328,"Ġcircumstance":6329,"Ġcloak":6330,"Ġwondrous":6331,"Ġmilk":6332,"ĠFlorence":6333,"ĠSHALLOW":6334,"picion":6335,"Ġburthen":6336,"Ġappetite":6337,"Fie":6338,"SON":6339,"cest":6340,"mark":6341,"new":6342,"pu":6343,"pur":6344,"roop":6345,"Ġstern":6346,"ino":6347,"Ġbasket":6348,"isible":6349,"Ġfifty":6350,"itable":6351,"Ġcand":6352,"Ġthrown":6353,"Ġtoil":6354,"ĠSic":6355,"Ġfors":6356,"ĠHortensio":6357,"rac":6358,"asy":6359,"urk":6360,"rocl":6361,"ĠEither":6362,"ĠFear":6363,"Ġspit":6364,"Ġfares":6365,"hance":6366,"Ġblunt":6367,"pper":6368,"Ġabhor":6369,"Ġlooked":6370,"Ġscru":6371,"Ġrust":6372,"Ġcharac":6373,"Ġremoved":6374,"Ġtravell":6375,"URS":6376,"Ġchid":6377,"Ġcharged":6378,"Ġcurst":6379,"Ġimprison":6380,",'--":6381,"Ġlately":6382,"Ġsenate":6383,"Ġdepend":6384,"Ġcholer":6385,"ĠPrologue":6386,"Ġenterprise":6387,"ĠHelp":6388,"Ġliberal":6389,"Ġerror":6390,"Ġmedic":6391,"ĠWinchester":6392,"Ġpetition":6393,"Ġspleen":6394,"Ġafeard":6395,"Br":6396,"PLANTAGENET":6397,"bin":6398,"bishop":6399,"cap":6400,"fidius":6401,"hrew":6402,"just":6403,"lus":6404,"mian":6405,"oon":6406,"ser":6407,"zy":6408,"hel":6409,"Ġmill":6410,"Ġbury":6411,"Ġhie":6412,"ĠAmen":6413,"Ġbeheld":6414,"ĠSat":6415,"Ġforced":6416,"ĠHost":6417,"raced":6418,"ĠBear":6419,"ENTON":6420,"INOR":6421,"Ġsoil":6422,"ĠPAND":6423,"ested":6424,"ously":6425,"EROS":6426,"Ġknot":6427,"Ġshown":6428,"STERN":6429,"Ġcaught":6430,"Ġbrid":6431,"Ġkingly":6432,"Ġunnatural":6433,"Ġoffices":6434,"ILDEN":6435,"RADE":6436,"liament":6437,"Ġado":6438,"ULPH":6439,"Without":6440,"Ġremorse":6441,"Ġtap":6442,"ĠAthen":6443,"Ġcurt":6444,"Ġsubtle":6445,"Ġneedful":6446,"ĠMARIA":6447,"Ġhanging":6448,"scri":6449,"SALARINO":6450,"Ġgrievous":6451,"GONERIL":6452,"Ġeasily":6453,"Ġsatisfaction":6454,"urio":6455,"Ġdaily":6456,"ĠBelieve":6457,"Ġconclude":6458,"Ġsacrif":6459,"Ġtorment":6460,"Ġjealousy":6461,"Ġpetty":6462,"mogen":6463,"Ġdischarge":6464,"Ġwolf":6465,"Ġserpent":6466,"Ġrebellion":6467,"Ġsaucy":6468,"ĠPANDULPH":6469,"ILDENSTERN":6470,";--":6471,"Ar":6472,"CUR":6473,"Lo":6474,"Lest":6475,"VERNON":6476,"bes":6477,"cul":6478,"dem":6479,"master":6480,"non":6481,"side":6482,"Ġir":6483,"Ġsiege":6484,"rels":6485,"Ġbon":6486,"Ġbud":6487,"Ġfed":6488,"ĠImogen":6489,"Ġlower":6490,"Ġhur":6491,"Ġnim":6492,"Ġnails":6493,"atic":6494,"irds":6495,"Ġweek":6496,"ĠBra":6497,"ĠMerc":6498,"ĠMowbray":6499,"Ġlift":6500,"ĠPaul":6501,"ĠLAD":6502,"Ġancest":6503,"ĠGU":6504,"Ġlovest":6505,"ilus":6506,"Ġamen":6507,"resent":6508,"Ġshoulder":6509,"aug":6510,"Ġdescend":6511,"Ġrap":6512,"Ġearl":6513,"Ġtrim":6514,"Ġnights":6515,"osing":6516,"ĠAntip":6517,"they":6518,"Ġgiving":6519,"Ġhenceforth":6520,"Ġeagle":6521,"Ġdiscretion":6522,"Ġsounded":6523,"Ġjoys":6524,"Ġforeign":6525,"Ġstrain":6526,"Stay":6527,"Ġparley":6528,"Ġexchange":6529,"ĠOnly":6530,"Ġgranted":6531,"bitious":6532,"ĠTybalt":6533,"Ġabsent":6534,"Ġrobb":6535,"Ġlusty":6536,"Ġtroubled":6537,"AUFIDIUS":6538,"Ġgovernment":6539,"Ġinvisible":6540,"Ġpinch":6541,"Ġvarlet":6542,"Ġaudience":6543,"CORNWALL":6544,"Ġrhyme":6545,"Ġtyranny":6546,"soever":6547,"Ġprivilege":6548,"ĠLauncelot":6549,"ĠISABELLA":6550,"ĠAufidius":6551,"Ġstubborn":6552,"ĠLADY":6553,"Des":6554,"DOWER":6555,"GILIA":6556,"JESSICA":6557,"Lady":6558,"Mine":6559,"ULA":6560,"WALD":6561,"YZ":6562,"gon":6563,"pass":6564,"war":6565,"Ġ8":6566,"Ġmask":6567,"Ġbore":6568,"Ġfreedom":6569,"iting":6570,"Ġcrest":6571,"Ġlying":6572,"Ġpate":6573,"ative":6574,"atrocl":6575,"ĠAcc":6576,"ĠTars":6577,"ĠSOL":6578,"ĠSIL":6579,"heriff":6580,"rike":6581,"ĠCons":6582,"geon":6583,"Ġaspect":6584,"Ġliking":6585,"ĠEX":6586,"ĠNone":6587,"ĠFRANCIS":6588,"ERICK":6589,"Ġalleg":6590,"ĠGarter":6591,"Ġambitious":6592,"ĠVery":6593,"ĠThree":6594,"Ġunm":6595,"uns":6596,"ĠJUL":6597,"Ġparting":6598,"Ġpoet":6599,"Ġleap":6600,"IRGILIA":6601,"EDERICK":6602,"lando":6603,"Ġtroops":6604,"Ġkey":6605,"Ġruled":6606,"Ġbegan":6607,"Ġended":6608,"mbl":6609,"Ġcoast":6610,"clam":6611,"Ġvillan":6612,"Ġvalue":6613,"omething":6614,"Ġboots":6615,"Ġstrive":6616,"Ġstrife":6617,"Ġfields":6618,"ĠShow":6619,"CAIUS":6620,"LENDOWER":6621,"rank":6622,"Ġterm":6623,"noon":6624,"IONYZ":6625,"Ġhairs":6626,"Ġbeholding":6627,"Ġredress":6628,"Ġabsolute":6629,"Ġago":6630,"Ġconquest":6631,"Ġforswear":6632,"Ġamongst":6633,"Ġgently":6634,"Ġventure":6635,"Ġhaply":6636,"Ġpurchase":6637,"ĠSyracuse":6638,"Ġjourney":6639,"Ġstretch":6640,"ĠFREDERICK":6641,"Ġnephew":6642,"Ġgiddy":6643,"atroclus":6644,"ĠTarsus":6645,"ĠSOLINUS":6646,"IONYZA":6647,"Pardon":6648,"bble":6649,"upt":6650,"ugg":6651,"Ġtum":6652,"Ġale":6653,"oubt":6654,"Ġsouth":6655,"Ġweal":6656,"Ġburst":6657,"orough":6658,"Ġfret":6659,"Ġcalf":6660,"Ġhom":6661,"stit":6662,"Ġgru":6663,"ĠAng":6664,"ĠTROILUS":6665,"ĠWitch":6666,"Ġevent":6667,"ĠHang":6668,"Ġsting":6669,"Ġsteed":6670,"ĠBAST":6671,"ĠCade":6672,"Ġspace":6673,"arded":6674,"Ġshri":6675,"Ġrouse":6676,"Ġdisease":6677,"Ġwholesome":6678,"Ġlooking":6679,"THAS":6680,"Ġscour":6681,"Ġscore":6682,"Ġflat":6683,"Ġlieutenant":6684,"Ġsmiling":6685,"Ġplaced":6686,"Ġcurses":6687,"Ġcurrent":6688,"Ġyouthful":6689,"Ġbanished":6690,"Ġjoyful":6691,"ANTONY":6692,"Ġcarried":6693,"should":6694,"ĠARIEL":6695,"ĠArm":6696,"Twere":6697,"Ġincen":6698,"Ġsigns":6699,"Ġactions":6700,"Ġbeasts":6701,"Ġshield":6702,"Ġsuspicion":6703,"Ġobedient":6704,"Ġtribunes":6705,"ĠLeonatus":6706,"Ġbefall":6707,"ĠKatharina":6708,"Ġcamest":6709,"Ġfarther":6710,"ĠPandarus":6711,"Ġinherit":6712,"Ġcommonwealth":6713,"ĠBASTARD":6714,"THASAR":6715,"BEDFORD":6716,"CAN":6717,"DITA":6718,"Love":6719,"SURREY":6720,"True":6721,"mouth":6722,"ples":6723,"rong":6724,"zo":6725,"reet":6726,"Ġbru":6727,"Ġlent":6728,"Ġnon":6729,"Ġpaint":6730,"Ġgoose":6731,"ĠAE":6732,"ĠAp":6733,"Ġnotice":6734,"illain":6735,"Ġwept":6736,"Ġstage":6737,"Ġstamp":6738,"Ġreach":6739,"ĠCar":6740,"ĠMight":6741,"Ġliqu":6742,"urvy":6743,"ĠPho":6744,"ĠPORTIA":6745,"ĠNATHANIEL":6746,"andal":6747,"Ġsuc":6748,"Ġsuits":6749,"ĠĠĠĠĠĠĠĠĠĠĠĠĠĠĠĠĠĠĠĠĠĠĠĠĠĠĠ":6750,"Ġspurn":6751,"Ġoracle":6752,"ĠVols":6753,"Ġtheirs":6754,"ĠJa":6755,"Ġcommons":6756,"Ġwarri":6757,"ased":6758,"Ġadvers":6759,"Ġtroop":6760,"Ġflout":6761,"Ġcouldst":6762,"Ġcoll":6763,"Ġdiscontent":6764,"ROMWELL":6765,"PERDITA":6766,"Ġbank":6767,"Ġstrongly":6768,"Ġweeps":6769,"Ġbeauteous":6770,"CAPULET":6771,"Ġlearning":6772,"Ġterror":6773,"standing":6774,"Ġrebel":6775,"Ġresolution":6776,"Ġinstruct":6777,"headed":6778,"ĠExeter":6779,"Ġconclusion":6780,"Ġjewels":6781,"Ġcontinue":6782,"ĠDiana":6783,"Ġexample":6784,"SIMPLE":6785,"Ġvenom":6786,"COLM":6787,"hersites":6788,"ĠELINOR":6789,"ĠAthenian":6790,"EB":6791,"Ere":6792,"Sold":6793,"SATURNINUS":6794,"TAMORA":6795,"gan":6796,"where":6797,"Ġwail":6798,"Ġburd":6799,"Ġfla":6800,"Ġdote":6801,"Ġnest":6802,"Ġpace":6803,"stain":6804,"Ġstrew":6805,"Ġrece":6806,"ilful":6807,"ĠDavy":6808,"Ġshines":6809,"ica":6810,"Ġtheme":6811,"Ġrate":6812,"QUO":6813,"Ġwritten":6814,"Ġendea":6815,"ROSENCRANTZ":6816,"Ġconfusion":6817,"Ġgild":6818,"Ġoverth":6819,"Ġserious":6820,"Ġassurance":6821,"ĠAlban":6822,"Ġbox":6823,"Ġkisses":6824,"Ġinterest":6825,"Ġwisely":6826,"Ġdivor":6827,"Ġquarter":6828,"Ġcowards":6829,"Ġprovo":6830,"ĠORLEANS":6831,"Ġseverally":6832,"Ġveins":6833,"ĠHelena":6834,"ĠGreeks":6835,"Ġinjury":6836,"Ġgrandam":6837,"Ġprodig":6838,"Ġperjured":6839,"ĠPisanio":6840,"Ġrecompense":6841,"ĠIsabel":6842,"DICK":6843,"ECA":6844,"Fore":6845,"LUNT":6846,"REIGNIER":6847,"SLY":6848,"TRAM":6849,"den":6850,"foot":6851,"ips":6852,"lse":6853,"live":6854,"nzo":6855,"rish":6856,"sbury":6857,"uced":6858,"wer":6859,"Ġcal":6860,"Ġdrew":6861,"Ġphra":6862,"Ġtooth":6863,"owl":6864,"ĠAlack":6865,"Ġbelike":6866,"illing":6867,"ĠWhilst":6868,"ĠMonsieur":6869,"orenzo":6870,"ĠEight":6871,"ĠEros":6872,"Ġshapes":6873,"Ġsequ":6874,"Ġseldom":6875,"Ġload":6876,"ĠDOMITIUS":6877,"Ġmanhood":6878,"iel":6879,"Ġconven":6880,"eling":6881,"Ġmag":6882,"erving":6883,"ioch":6884,"Ġperpet":6885,"ĠOrlando":6886,"Soothsayer":6887,"ĠStep":6888,"Ġfever":6889,"Ġcommands":6890,"Ġrunning":6891,"Ġspoil":6892,"scape":6893,"Ġsupply":6894,"Ġsupposed":6895,"CORIN":6896,"Ġdelivered":6897,"Ġvisage":6898,"Ġprovide":6899,"Ġtaking":6900,"SILVIUS":6901,"Ġresolve":6902,"Ġhostess":6903,"Ġdirect":6904,"ELLUS":6905,"Ġdeaf":6906,"Ġschol":6907,"Ġtorch":6908,"Ġeldest":6909,"minster":6910,"ĠWestminster":6911,"pollo":6912,"Ġfleet":6913,"Ġdeceit":6914,"Ġmiracle":6915,"Ġrescue":6916,"Ġeternal":6917,"ĠBERTRAM":6918,"Ġpreparation":6919,"Ġsucceed":6920,"ECAENAS":6921,"BIA":6922,"CI":6923,"Much":6924,"Those":6925,"VINCENTIO":6926,"aph":6927,"ele":6928,"give":6929,"grim":6930,"mony":6931,"nken":6932,"inate":6933,"Ġbay":6934,"isons":6935,"Ġoce":6936,"Ġtoken":6937,"ĠTruly":6938,"Ġug":6939,"Ġstale":6940,"ĠBetween":6941,"ĠCast":6942,"ĠPort":6943,"ĠLay":6944,"ĠOnce":6945,"Ġsue":6946,"Ġspread":6947,"Ġshook":6948,"ALEX":6949,"Ġswears":6950,"Ġarrived":6951,"Ġrhe":6952,"ĠMyself":6953,"aken":6954,"lied":6955,"together":6956,"Ġperf":6957,"Ġwhit":6958,"Ġlap":6959,"chess":6960,"Ġruff":6961,"Ġnewly":6962,"ĠMarina":6963,"Ġbrace":6964,"ension":6965,"Ġprice":6966,"Ġaccused":6967,"Ġhusbands":6968,"Item":6969,"Ġpraises":6970,"Ġgrat":6971,"ĠThanks":6972,"Ġroyalty":6973,"Ġdrunken":6974,"Ġgrowing":6975,"Ġbeaut":6976,"Ġdeputy":6977,"Ġdrinking":6978,"ĠAdieu":6979,"ĠMayor":6980,"Ġbreeding":6981,"ĠCharmian":6982,"Ġrefuse":6983,"Ġpersuade":6984,"Ġimagination":6985,"Eneas":6986,"Ġcherish":6987,"Ġbottle":6988,"clamation":6989,"BIADES":6990,"CIBIADES":6991,"Could":6992,"CERIMON":6993,"EBE":6994,"French":6995,"FLAVIUS":6996,"GLENDOWER":6997,"Heaven":6998,"KEN":6999,"Po":7000,"fall":7001,"roof":7002,"inous":7003,"Ġming":7004,"reme":7005,"Ġward":7006,"Ġbirds":7007,"Ġyellow":7008,"Ġlam":7009,"Ġlaughter":7010,"Ġnet":7011,"athe":7012,"cellent":7013,"lean":7014,"ĠSm":7015,"ĠSave":7016,"Ġforty":7017,"ĠHy":7018,"ras":7019,"ĠBO":7020,"ĠBlack":7021,"ĠBiron":7022,"Ġrend":7023,"ARTHUR":7024,"ĠPol":7025,"ĠLY":7026,"ĠOli":7027,"essica":7028,"Ġdem":7029,"Ġseize":7030,"ĠGoth":7031,"Ġspy":7032,"Ġvoy":7033,"ĠDon":7034,"Ġamend":7035,"Ġgoods":7036,"Ġswain":7037,"Ġsirs":7038,"ferent":7039,"Ġworking":7040,"ĠThurio":7041,"Ġbran":7042,"ounded":7043,"Ġunjust":7044,"Ġdisci":7045,"ĠJessica":7046,"Ġplains":7047,"Ġtelling":7048,"PHEBE":7049,"Ġfairies":7050,"Ġflatt":7051,"cians":7052,"ASCA":7053,"Ġbeget":7054,"Ġpursue":7055,"ĠCapu":7056,"Ġbraw":7057,"eases":7058,"acles":7059,"Ġcheque":7060,"Ġtrees":7061,"Ġbreaks":7062,"Ġstrangely":7063,"Ġdesired":7064,"Ġlesser":7065,"iety":7066,"Ġdraws":7067,"Ġcrying":7068,"Ġbargain":7069,"Ġestim":7070,"avin":7071,"ĠAdam":7072,"Ġburns":7073,"Ġprovided":7074,"ĠAttendant":7075,"ĠCorioli":7076,"SILENCE":7077,"TITANIA":7078,"CONRADE":7079,"Ġpitiful":7080,"remio":7081,"ursions":7082,"Ġurged":7083,"ĠOfficer":7084,"ĠShrewsbury":7085,"Ġtribute":7086,"DOLABELLA":7087,"Ġrenowned":7088,"Ġloyalty":7089,"Ġprosperous":7090,"rumio":7091,"Ġceremony":7092,"Ġclerk":7093,"Ġcensure":7094,"Ġclimb":7095,"ĠHELENA":7096,"ĠEXETER":7097,"Ġallegiance":7098,"FRANCIS":7099,"Methinks":7100,"br":7101,"bon":7102,"ique":7103,"nel":7104,"oat":7105,"ratch":7106,"tic":7107,"Ġtick":7108,"Ġaunt":7109,"Ġmas":7110,"Ġfan":7111,"enches":7112,"ital":7113,"Ġdat":7114,"Ġhy":7115,"Ġthin":7116,"Ġthread":7117,"hath":7118,"Ġgrew":7119,"ĠAEneas":7120,"ĠWhiles":7121,"Ġwithdraw":7122,"ĠHo":7123,"ĠHASTINGS":7124,"ĠHugh":7125,"idus":7126,"ĠMakes":7127,"Ġlikes":7128,"nty":7129,"Ġdeceive":7130,"Ġdecl":7131,"Ġhated":7132,"fered":7133,"Ġbrown":7134,"Ġlikewise":7135,"ignty":7136,"Ġje":7137,"Ġleads":7138,"echer":7139,"Ġimmediate":7140,"Ġcontro":7141,"them":7142,"Ġpalm":7143,"Ġbush":7144,"Ġmerri":7145,"lete":7146,"Ġbreathing":7147,"Ġcounse":7148,"Ġexcell":7149,"Ġmetal":7150,"Ġinfant":7151,"ĠCannot":7152,"Ġprophes":7153,"Ġfeeling":7154,"ĠPlay":7155,"Ġsatisfy":7156,"ĠConf":7157,"Ġbleeding":7158,"cription":7159,"Ġtreacherous":7160,"Besides":7161,"Ġinvention":7162,"ĠFriar":7163,"ĠDenmark":7164,"ĠOctavia":7165,"ĠPAROLLES":7166,"Ġpilgrim":7167,"Ġproportion":7168,"ĠAntipho":7169,"Dis":7170,"GARDINER":7171,"IGON":7172,"Me":7173,"MORTIMER":7174,"Rem":7175,"TIS":7176,"ares":7177,"acc":7178,"aches":7179,"lter":7180,"pro":7181,"voy":7182,"Ġtur":7183,"inary":7184,"Ġwot":7185,"had":7186,"erle":7187,"Ġox":7188,"Ġcop":7189,"Ġcorse":7190,"oten":7191,"ĠThersites":7192,"sey":7193,"keep":7194,"ĠBIANCA":7195,"ĠCLAUDIO":7196,"ĠPart":7197,"ĠPETER":7198,"ĠPatroclus":7199,"Ġwills":7200,"Ġshade":7201,"ĠGremio":7202,"ALICE":7203,"ressed":7204,"Ġseeks":7205,"Ġlikely":7206,"Ġrush":7207,"Ġgraves":7208,"Ġofficers":7209,"ĠKnight":7210,"Ġhears":7211,"Ġragged":7212,"wards":7213,"Ġperchance":7214,"Ġsweetly":7215,"swain":7216,"Ġcomplain":7217,"Ġpreserve":7218,"Ġcontents":7219,"Ġindign":7220,"Ġguide":7221,"Ġresist":7222,"Ġafternoon":7223,"atient":7224,"Ġaccess":7225,"Ġaccident":7226,"Ġstrang":7227,"Ġjustly":7228,"Ġbreaking":7229,"Ġbusy":7230,"Ġtalking":7231,"Ġdefy":7232,"Sirrah":7233,"Ġsuffic":7234,"Ġterrible":7235,"Ġcontented":7236,"Ġpenit":7237,"Ġheirs":7238,"Ġkingdoms":7239,"Ġstrump":7240,"Ġobserve":7241,"Ġbreathed":7242,"Ġdestruction":7243,"Ġphysician":7244,"Ġcomplaint":7245,"Ġapprehend":7246,"Ġintelligence":7247,"lendower":7248,"Ġopposite":7249,"Ġincrease":7250,"Ġnimble":7251,"Ġrapier":7252,"KENBURY":7253,"Ġdiscipl":7254,"ĠCapulet":7255,"IGONUS":7256,"Bring":7257,"CRANMER":7258,"Mistress":7259,"Tro":7260,"Wilt":7261,"fast":7262,"iven":7263,"maid":7264,"rity":7265,"tell":7266,"tles":7267,"wind":7268,"Ġtied":7269,"reg":7270,"Ġbol":7271,"Ġope":7272,"Ġhaunt":7273,"utch":7274,"illy":7275,"ĠWhither":7276,"ĠHail":7277,"Ġsty":7278,"ĠBea":7279,"Ġrev":7280,"ĠCry":7281,"ĠMON":7282,"ĠMant":7283,"Ġliver":7284,"Ġlions":7285,"ĠLeave":7286,"Ġshare":7287,"ĠGrumio":7288,"ĠGlendower":7289,"Ġlodge":7290,"ĠDear":7291,"Ġmanif":7292,"Ġamends":7293,"Ġcomest":7294,"Ġblue":7295,"epidus":7296,"orthi":7297,"Ġdisposed":7298,"Ġmakest":7299,"Ġfearing":7300,"Ġscatter":7301,"Ġscurvy":7302,"Ġappla":7303,"ertes":7304,"Ġharbour":7305,"mbers":7306,"Ġtax":7307,"ĠAntioch":7308,"Ġanswers":7309,"Ġchin":7310,"Ġcouch":7311,"Ġsubd":7312,"Ġtremb":7313,"Ġlights":7314,"arson":7315,"Ġdivers":7316,"Ġforehead":7317,"Ġyielded":7318,"Ġsovereignty":7319,"Ġdelicate":7320,"Ġbarbar":7321,"Ġpoints":7322,"Ġwonderful":7323,"Ġsignify":7324,"LARTIUS":7325,"Ġsurfeit":7326,"Ġweakness":7327,"Ġsufferance":7328,"Ġclean":7329,"Ġapace":7330,"voc":7331,"Ġshadows":7332,"Ġwhipped":7333,"Ġweapon":7334,"Ġdestroy":7335,"Ġbehavior":7336,"Ġurge":7337,"ĠROSAL":7338,"Prithee":7339,"Ġsteps":7340,"Ġimperial":7341,"mongst":7342,"Ġpearl":7343,"ĠScotland":7344,"ĠTITUS":7345,"Ġrejoice":7346,"LOVELL":7347,"demona":7348,"Ġocean":7349,"ĠAntipholus":7350,"ĠMONT":7351,"CROMWELL":7352,"HY":7353,"Sw":7354,"Turn":7355,"bell":7356,"cock":7357,"court":7358,"ection":7359,"hine":7360,"ium":7361,"lor":7362,"mont":7363,"nes":7364,"sion":7365,"upp":7366,"wit":7367,"were":7368,"work":7369,"Ġought":7370,"Ġvers":7371,"hear":7372,"Ġape":7373,"Ġsitting":7374,"Ġmould":7375,"Ġmethought":7376,"Ġwore":7377,"erman":7378,"itic":7379,"Ġdine":7380,"Ġdun":7381,"Ġnamed":7382,"Ġnarrow":7383,"Ġpark":7384,"Ġthirty":7385,"ank":7386,"anley":7387,"ĠAU":7388,"ĠTrump":7389,"ĠBAPTISTA":7390,"ĠBIONDELLO":7391,"ĠCATESBY":7392,"ĠMon":7393,"ĠMess":7394,"ĠLorenzo":7395,"ĠLavin":7396,"ĠOld":7397,"ĠNept":7398,"ERBURY":7399,"Ġsembl":7400,"Ġfact":7401,"Ġvul":7402,"ĠDIOMEDES":7403,"ĠDOCTOR":7404,"Ġamity":7405,"Ġupright":7406,"ĠRead":7407,"icle":7408,"Ġconceive":7409,"umed":7410,"Ġunl":7411,"Ġprocess":7412,"Ġtrunk":7413,"ANDRA":7414,"Ġenforced":7415,"Ġrack":7416,"aker":7417,"Ġkeen":7418,"Ġappoint":7419,"Ġapparent":7420,"ĠBehold":7421,"Ġbegot":7422,"Ġsleeve":7423,"Ġpasses":7424,"Ġlev":7425,"Ġlevel":7426,"Ġbidding":7427,"Ġthrong":7428,"Ġthankful":7429,"Ġslay":7430,"atesby":7431,"ANTERBURY":7432,"Ġmettle":7433,"Ġsuppose":7434,"Ġdistress":7435,"Ġparliament":7436,"ĠĠĠĠĠĠĠĠĠĠĠĠĠĠĠĠĠĠĠĠĠĠĠĠĠĠĠĠĠĠĠĠĠĠĠĠĠĠ":7437,"Ġacts":7438,"ndsire":7439,"withstanding":7440,"Ġbosoms":7441,"Ġcloset":7442,"Ġopposed":7443,"ĠLUCENTIO":7444,"Ġqualities":7445,"Ġdecay":7446,"Ġconceal":7447,"kerchief":7448,"Ġextremity":7449,"Ġsuperfl":7450,"Ġpierce":7451,"Ġexpedition":7452,"Ġdowry":7453,"Ġmedicine":7454,"Ġvoyage":7455,"Ġstrumpet":7456,"Troilus":7457,"ĠLavinia":7458,"ĠNeptune":7459,"Fear":7460,"Please":7461,"Pedant":7462,"Too":7463,"VIRGILIA":7464,"eves":7465,"overy":7466,"sha":7467,"sen":7468,"yet":7469,"Ġaged":7470,"Ġalack":7471,"erity":7472,"orp":7473,"eser":7474,"Ġcudge":7475,"Ġlines":7476,"inging":7477,"Ġgame":7478,"ĠAri":7479,"ĠApollo":7480,"Ġbere":7481,"Ġbeds":7482,"sec":7483,"ĠWESTMORELAND":7484,"Ġforms":7485,"key":7486,"ĠHim":7487,"Ġstro":7488,"ric":7489,"ril":7490,"ĠBan":7491,"ĠBLUNT":7492,"ĠMEN":7493,"ĠPROSPERO":7494,"ĠLepidus":7495,"uss":7496,"estor":7497,"ĠGaoler":7498,"Ġspect":7499,"Ġvous":7500,"Ġvass":7501,"ĠDEM":7502,"Ġgoss":7503,"umes":7504,"Ġmayor":7505,"ĠJes":7506,"Ġroad":7507,"Ġroaring":7508,"Ġaloud":7509,"Ġbetimes":7510,"Ġexerc":7511,"sses":7512,"Ġwrink":7513,"ĠĠĠĠĠĠĠĠĠĠĠĠĠĠĠĠĠĠĠĠĠĠĠĠĠĠĠĠĠĠĠĠĠĠĠĠĠĠĠĠĠĠĠ":7514,"Ġhousehold":7515,"Myself":7516,"Ġmightst":7517,"ORDELIA":7518,"osop":7519,"Ġsets":7520,"Ġfalling":7521,"ably":7522,"btain":7523,"Ġwronged":7524,"Ġbeside":7525,"ontin":7526,"Wherein":7527,"Ġstrikes":7528,"Ġinstance":7529,"Ġprompt":7530,"Ġpromises":7531,"Ġcraft":7532,"Still":7533,"Ġsuffice":7534,"Ġdistemper":7535,"nowledge":7536,"Ġskin":7537,"hilosop":7538,"Ġsurvey":7539,"prised":7540,"Ġowes":7541,"Ġaddition":7542,"ossom":7543,"Ġwriting":7544,"Ġexecute":7545,"Ġproceeding":7546,"Ġdeparture":7547,"Ġconclud":7548,"Caesar":7549,"Ġconditions":7550,"Ġinstantly":7551,"Ġgreeting":7552,"Ġvirginity":7553,"ĠDesdemona":7554,"Ġsensible":7555,"Ġpotent":7556,"ĠROSS":7557,"MONTAGUE":7558,"ĠRemember":7559,"Ġbeams":7560,"Ġyesterday":7561,"Ġadventure":7562,"Ġscruple":7563,"Ġvillanous":7564,"Ġscholar":7565,"Ġugly":7566,"ĠPortia":7567,"ĠDEMETRIUS":7568,"Am":7569,"Between":7570,"CLEON":7571,"CELLUS":7572,"Either":7573,"FENTON":7574,"ILO":7575,"PEMBROKE":7576,"Whilst":7577,"bast":7578,"gentle":7579,"ky":7580,"may":7581,"nard":7582,"oons":7583,"pas":7584,"same":7585,"ties":7586,"Ġtro":7587,"Ġtents":7588,"oun":7589,"Ġsed":7590,"Ġslipp":7591,"hast":7592,"Ġbul":7593,"Ġbatter":7594,"Ġful":7595,"Ġobtain":7596,"Ġcook":7597,"Ġnap":7598,"Ġnupt":7599,"Ġpi":7600,"Ġpull":7601,"Ġpush":7602,"Ġthrew":7603,"Ġgird":7604,"Ġgap":7605,"ĠTom":7606,"eder":7607,"enton":7608,"ĠHas":7609,"asp":7610,"ĠCASS":7611,"ĠCLIFF":7612,"lysses":7613,"Ġlivery":7614,"ĠPISANIO":7615,"Ġdove":7616,"amond":7617,"ĠNer":7618,"ĠNed":7619,"ĠFERDINAND":7620,"Ġdeck":7621,"Ġdeposed":7622,"Ġvot":7623,"Ġmanage":7624,"Ġarise":7625,"Ġherein":7626,"umerle":7627,"odity":7628,"igent":7629,"uno":7630,"uned":7631,"Ġgrass":7632,"Ġoffences":7633,"Ġalt":7634,"Ġaltogether":7635,"ĠYoung":7636,"Ġmarvell":7637,"ANDS":7638,"Ġraised":7639,"Ġriches":7640,"ĠANGELO":7641,"Ġscope":7642,"Ġeverl":7643,"Ġbegun":7644,"Ġremove":7645,"Ġrepose":7646,"ADSH":7647,"Ġcoin":7648,"Ġconfident":7649,"Ġpreced":7650,"OBBO":7651,"ĠJoan":7652,"Ġaccording":7653,"Ġmatters":7654,"Ġpeer":7655,"COX":7656,"CAESAR":7657,"Ġsenseless":7658,"Ġsadness":7659,"Ġdistance":7660,"Ġcarri":7661,"Ġgarment":7662,"TRIA":7663,"ĠVenus":7664,"Ġwooing":7665,"Ġbeggars":7666,"Ġbonds":7667,"ossess":7668,"MALCOLM":7669,"Ġreligious":7670,"Ġmarching":7671,"Ġsecrets":7672,"Only":7673,"Ġeffects":7674,"ĠBelmont":7675,"ĠGreece":7676,"Ġevils":7677,"ivity":7678,"Ġconqueror":7679,"Ġhungry":7680,"Ġmiseries":7681,"Ġbabes":7682,"Ġtreachery":7683,"Ġgaze":7684,"Ġtrifle":7685,"Ġimmortal":7686,"Ġneglect":7687,"Believe":7688,"CURTIS":7689,"Ġdivorce":7690,"ĠEighth":7691,"Ġmerrily":7692,"Ġnuptial":7693,"ĠCLIFFORD":7694,"ADSHILL":7695,"BR":7696,"CASCA":7697,"DOV":7698,"Kne":7699,"bation":7700,"horse":7701,"mm":7702,"ming":7703,"sues":7704,"teen":7705,"wing":7706,"xcom":7707,"Ġtim":7708,"Ġtea":7709,"Ġtres":7710,"Ġwenches":7711,"enes":7712,"Ġhey":7713,"vet":7714,"ĠAL":7715,"Ġnoted":7716,"ĠWhether":7717,"tery":7718,"ENN":7719,"ĠFL":7720,"ĠFRAN":7721,"thought":7722,"ĠGall":7723,"Ġamorous":7724,"ALCIBIADES":7725,"ulate":7726,"Ġorn":7727,"Ġworks":7728,"ICO":7729,"ĠThrough":7730,"Ġquest":7731,"Ġhose":7732,"Ġoutra":7733,"Ġproclamation":7734,"Ġplan":7735,"hered":7736,"Ġriver":7737,"Ġafoot":7738,"Ġpresume":7739,"Young":7740,"ĠSoft":7741,"ĠUlysses":7742,"ROSS":7743,"Ġcoats":7744,"Ġresign":7745,"ĠDoes":7746,"Ġsurety":7747,"Ġlightning":7748,"Ġdiamond":7749,"Ġmoves":7750,"Ġboar":7751,"ĠHerald":7752,"Ġfeign":7753,"Ġkissing":7754,"Thanks":7755,"Ġpays":7756,"Ġfourteen":7757,"ĠProceed":7758,"Ġexplo":7759,"Ġrequite":7760,"ĠHelic":7761,"Ġtitles":7762,"Ġdoublet":7763,"Ġsafely":7764,"Ġdrowned":7765,"Ġshores":7766,"Ġinsol":7767,"ĠMilford":7768,"ĠPoins":7769,"Ġlodging":7770,"Ġfrost":7771,"ĠLabour":7772,"Ġinnocence":7773,"Ġpeasant":7774,"Ġsinews":7775,"Ġsociety":7776,"Ġsacrifice":7777,"Ġburden":7778,"DOVICO":7779,"ĠFRANCE":7780,"CARUS":7781,"DIONYZA":7782,"EON":7783,"EIUS":7784,"GOBBO":7785,"Hast":7786,"Hang":7787,"King":7788,"Once":7789,"Put":7790,"TER":7791,"cra":7792,"fret":7793,"field":7794,"gra":7795,"jou":7796,"kins":7797,"late":7798,"mpt":7799,"oc":7800,"ogue":7801,"pers":7802,"pence":7803,"was":7804,"Ġton":7805,"Ġaxe":7806,"Ġslip":7807,"Ġwet":7808,"Ġbully":7809,"Ġfem":7810,"Ġost":7811,"encon":7812,"Ġchat":7813,"Ġcel":7814,"see":7815,"Ġhaw":7816,"iring":7817,"ĠSure":7818,"chor":7819,"Ġnotes":7820,"ĠWh":7821,"Ġits":7822,"ĠHor":7823,"raint":7824,"Ġhist":7825,"Ġstout":7826,"Ġstum":7827,"riend":7828,"ĠCousin":7829,"ĠCamb":7830,"ĠCAMP":7831,"ENCON":7832,"ENETTA":7833,"Ġliken":7834,"ARL":7835,"ĠEach":7836,"ĠPhe":7837,"ĠPISTOL":7838,"ĠPhil":7839,"ĠNestor":7840,"ANTH":7841,"Ġsuitor":7842,"ĠĠĠĠĠĠĠĠĠĠĠĠĠĠĠĠĠĠĠĠĠĠĠĠ":7843,"Ġspark":7844,"quis":7845,"ALENCON":7846,"ELAUS":7847,"Ġthereby":7848,"hylock":7849,"Ġrus":7850,"Ġroof":7851,"ĠJud":7852,"Ġpox":7853,"Ġhandkerchief":7854,"Ġdeaths":7855,"Ġwrites":7856,"ĠInn":7857,"OMAS":7858,"issa":7859,"Ġbragg":7860,"Ġyoungest":7861,"Ġmothers":7862,"Ġrightly":7863,"ĠDoctor":7864,"Ġaccord":7865,"Ġaccursed":7866,"Ġhappily":7867,"AVY":7868,"AVIA":7869,"ANTIGONUS":7870,"Ġstrict":7871,"Ġcareful":7872,"Ġdoubtful":7873,"Ġwager":7874,"Ġsenators":7875,"Ġcertainly":7876,"Ġinteg":7877,"Ġchosen":7878,"Ġgallows":7879,"Ġlads":7880,"Ġembass":7881,"Ġharmony":7882,"Ġgroom":7883,"Ġtroubles":7884,"ĠPomfret":7885,"Ġbache":7886,"Ġdirection":7887,"cape":7888,"EGEON":7889,"Ġeleven":7890,"Ġgovernor":7891,"Ġmutiny":7892,"OSWALD":7893,"Ġexpectation":7894,"Ġdismiss":7895,"Ġprofession":7896,"ĠKeeper":7897,"Ġfantast":7898,"Ġconcerns":7899,"Ġcorrection":7900,"Ġambassador":7901,"URSULA":7902,"ĠAngiers":7903,"ĠPhoe":7904,"Ġphrase":7905,"ĠLYS":7906,"Ġflatterer":7907,"ĠCAMPEIUS":7908,"ANTHINO":7909,"App":7910,"AEM":7911,"Bear":7912,"Hel":7913,"Might":7914,"None":7915,"NARD":7916,"PR":7917,"PETER":7918,"ae":7919,"ien":7920,"mission":7921,"oft":7922,"ym":7923,"yard":7924,"åĲ":7925,"Ġtar":7926,"heard":7927,"Ġsand":7928,"inces":7929,"Ġwaking":7930,"llen":7931,"Ġfrank":7932,"itness":7933,"Ġcord":7934,"Ġdil":7935,"Ġdame":7936,"Ġlark":7937,"Ġlecher":7938,"Ġhouses":7939,"Ġnun":7940,"Ġphilosop":7941,"Ġhedge":7942,"stone":7943,"athed":7944,"ourn":7945,"ourage":7946,"Ġsteep":7947,"rian":7948,"rive":7949,"rial":7950,"rief":7951,"Ġrear":7952,"Ġrepe":7953,"ĠCatesby":7954,"ĠMan":7955,"ĠMaine":7956,"verty":7957,"ĠPETRUCHIO":7958,"Ġsugg":7959,"ĠGrey":7960,"Ġspe":7961,"Ġspr":7962,"Ġfawn":7963,"Ġviz":7964,"Ġourself":7965,"Ġprint":7966,"Ġwheel":7967,"Ġcong":7968,"Ġconver":7969,"Ġconverse":7970,"ulous":7971,"ulation":7972,"oster":7973,"Ġque":7974,"Ġdisper":7975,"Ġdiseases":7976,"Ġhole":7977,"Ġmuster":7978,"Ġprover":7979,"peci":7980,"Ġgrandsire":7981,"Ġpoverty":7982,"Through":7983,"Ġroses":7984,"ĠKnock":7985,"Ġscandal":7986,"Ġhasty":7987,"Ġafar":7988,"Ġcontain":7989,"Ġharvest":7990,"Ġcozen":7991,"Ġcoxcom":7992,"thee":7993,"ĠStanley":7994,"Ġaccomp":7995,"Ġimped":7996,"Ġslumber":7997,"Ġdiest":7998,"ĠAlthough":7999,"Ġsoundly":8000,"HELEN":8001,"ĠFrenchmen":8002,"formed":8003,"Ġcomforts":8004,"ĠĠĠĠĠĠĠĠĠĠĠĠĠĠĠĠĠĠĠĠĠĠĠĠĠ":8005,"Ġinfirm":8006,"Ġintents":8007,"Ġcarriage":8008,"Ġrequire":8009,"Ġapprove":8010,"Ġgrieves":8011,"Ġinterp":8012,"eeming":8013,"Ġinstruments":8014,"Ġflattery":8015,"Ġthroats":8016,"Ġchastity":8017,"Ġhunger":8018,"eyed":8019,"Ġprophet":8020,"ezan":8021,"Ġexceeding":8022,"Ġreckoning":8023,"Ġcoronation":8024,"Ġexperience":8025,"Ġcandle":8026,"Ġancestors":8027,"Soldier":8028,"ĠMantua":8029,"Ġverses":8030,"Ġvulgar":8031,"Art":8032,"CANTERBURY":8033,"Dost":8034,"Fourth":8035,"Follow":8036,"MOWBRAY":8037,"POLY":8038,"Save":8039,"Signior":8040,"back":8041,"fed":8042,"how":8043,"mion":8044,"Ġ9":8045,"Ġtren":8046,"Ġtaint":8047,"Ġah":8048,"repare":8049,"eral":8050,"eration":8051,"ora":8052,"itive":8053,"ese":8054,"Ġcas":8055,"Ġdain":8056,"Ġdiff":8057,"Ġlee":8058,"Ġlinger":8059,"Ġpest":8060,"Ġpite":8061,"Ġpred":8062,"ingu":8063,"Ġgn":8064,"ĠAumerle":8065,"ĠTut":8066,"ĠTurk":8067,"Ġmyster":8068,"ĠSend":8069,"Ġnotwithstanding":8070,"ĠWAL":8071,"ĠWidow":8072,"advent":8073,"order":8074,"ĠCrom":8075,"ĠMany":8076,"ĠMOWBRAY":8077,"Ġashes":8078,"ĠPOMPEY":8079,"ĠOVER":8080,"amy":8081,"ĠFore":8082,"hano":8083,"ardy":8084,"ĠDies":8085,"ulvia":8086,"igo":8087,"Ġjot":8088,"Ġsails":8089,"Ġdispose":8090,"unch":8091,"irect":8092,"Ġmars":8093,"Ġexile":8094,"ecom":8095,"Ġsweetest":8096,"Ġappeal":8097,"ĠCaeser":8098,"iano":8099,"Ġhourly":8100,"Ġundergo":8101,"Ġelbow":8102,"Ġmeanest":8103,"esario":8104,"Ġsubscri":8105,"Ġbelie":8106,"Ġbacks":8107,"Ġboard":8108,"DONE":8109,"ittance":8110,"Ġcraves":8111,"Ġattending":8112,"Ġcarries":8113,"Ġwatery":8114,"SALANIO":8115,"BANTIO":8116,"Ġscorns":8117,"Ġfrail":8118,"Ġagree":8119,"idden":8120,"ĠSenators":8121,"Ġbowels":8122,"IRAS":8123,"IPPOLY":8124,"Ġdestiny":8125,"Ġcruelty":8126,"Ġvanity":8127,"Ġinjuries":8128,"Ġemployment":8129,"ĠQuick":8130,"Ġwoful":8131,"Ġpunishment":8132,"ĠKatharine":8133,"BALTHASAR":8134,"SIMPCOX":8135,"ĠCORIOLANUS":8136,"ĠNORFOLK":8137,"Ġhinder":8138,"YREUS":8139,"Officer":8140,"VERGES":8141,"ĠHERM":8142,"ĠBEAU":8143,"RATCLIFF":8144,"Ġforsake":8145,"ĠCarrier":8146,"Ġperpetual":8147,"ĠCastle":8148,"Ġsemblance":8149,"Ġhistory":8150,"Ġlikeness":8151,"Ġintegrity":8152,"Ġdainty":8153,"ĠOVERDONE":8154,"IPPOLYTA":8155,"MOGEN":8156,"Poor":8157,"Whiles":8158,"bel":8159,"bol":8160,"dis":8161,"nicious":8162,"roth":8163,"sm":8164,"wart":8165,"Ġtales":8166,"Ġack":8167,"ĠIMOGEN":8168,"Ġles":8169,"Ġlatter":8170,"Ġpul":8171,"Ġhare":8172,"etwixt":8173,"rip":8174,"ĠCame":8175,"INIA":8176,"Ġlief":8177,"ĠFull":8178,"ĠFool":8179,"ĠFenton":8180,"thren":8181,"ERIA":8182,"Ġsex":8183,"Ġvig":8184,"Ġneat":8185,"endom":8186,"ĠRICHMOND":8187,"Ġconsequ":8188,"ELIUS":8189,"Ġblot":8190,"Ġcanker":8191,"oder":8192,"Ġrites":8193,"unity":8194,"ĠJuno":8195,"Three":8196,"Ġmale":8197,"Ġrocks":8198,"eches":8199,"Ġarticles":8200,"lihood":8201,"Ġriot":8202,"Ġscratch":8203,"Ġflock":8204,"cheth":8205,"Ġchamp":8206,"ĠNoble":8207,"Ġkeeping":8208,"Ġentrance":8209,"URIO":8210,"mph":8211,"Ġcourteous":8212,"acious":8213,"Ġbringing":8214,"Ġfallen":8215,"Ġtried":8216,"Ġgiant":8217,"ĠDoll":8218,"Ġretreat":8219,"Ġkills":8220,"Ġhangman":8221,"Ġpersons":8222,"ranch":8223,"ĠĠĠĠĠĠĠĠĠĠĠĠĠĠĠĠĠĠĠĠĠĠĠĠĠĠĠĠĠĠĠĠĠĠĠĠĠĠĠĠĠ":8224,"Ġrecon":8225,"ĠProsper":8226,"Ġladder":8227,"Ġpenance":8228,"Ġprovost":8229,"Ġmountains":8230,"Ġsoftly":8231,"ĠCloten":8232,"Ġadmit":8233,"Ġbald":8234,"Ġdirectly":8235,"Ġmistook":8236,"Ġpleasing":8237,"rers":8238,"Ġobsc":8239,"centio":8240,"ĠSilence":8241,"Ġstarve":8242,"Ġmeddle":8243,"Ġdemands":8244,"ĠCOUNTESS":8245,"Ġguests":8246,"ĠWorthy":8247,"Ġprevented":8248,"Ġstopp":8249,"Ġfixed":8250,"Ġmultitude":8251,"Ġsplit":8252,"Ġrheum":8253,"Ġsufficient":8254,"Ġvassal":8255,"Acc":8256,"AEGEON":8257,"Dear":8258,"GADSHILL":8259,"Henry":8260,"SANDS":8261,"Until":8262,"awn":8263,"bridge":8264,"lies":8265,"pse":8266,"til":8267,"wh":8268,"æĭ":8269,"Ġsire":8270,"incul":8271,"incentio":8272,"Ġmiles":8273,"Ġwaked":8274,"Ġwalks":8275,"habit":8276,"ories":8277,"Ġcove":8278,"Ġdrows":8279,"Ġdancing":8280,"Ġyon":8281,"Ġlance":8282,"Ġlun":8283,"Ġlew":8284,"Ġlute":8285,"Ġhounds":8286,"oted":8287,"ĠADR":8288,"Ġinch":8289,"ĠTR":8290,"ĠTam":8291,"lead":8292,"Ġhaught":8293,"ĠSn":8294,"utland":8295,"racious":8296,"Ġstead":8297,"Ġstocks":8298,"asing":8299,"rich":8300,"ĠBer":8301,"ĠBEN":8302,"ĠPatience":8303,"Ġann":8304,"Ġsung":8305,"Ġsugar":8306,"ĠGhost":8307,"ĠGOWER":8308,"ĠGerman":8309,"ellows":8310,"Ġvast":8311,"Ġvine":8312,"Ġvault":8313,"ĠRou":8314,"ĠRutland":8315,"Ġblast":8316,"Ġblock":8317,"Ġblaz":8318,"ĠVar":8319,"ĠVincentio":8320,"Ġmadman":8321,"LAM":8322,"Ġrobe":8323,"ĠMytil":8324,"CHUS":8325,"Ġpledge":8326,"Ġperd":8327,"Ġflint":8328,"Ġevermore":8329,"MARCELLUS":8330,"Ġpurge":8331,"Ġkeeper":8332,"ĠUntil":8333,"Ġreply":8334,"Ġreproach":8335,"Ġfortunate":8336,"Ġanswered":8337,"TIOCHUS":8338,"Ġnatures":8339,"Ġconfeder":8340,"Ġprec":8341,"Ġcharms":8342,"Ġchest":8343,"Ġaccom":8344,"Ġassault":8345,"UDREY":8346,"Ġdiet":8347,"ĠAlencon":8348,"Ġreasonable":8349,"Ġcareless":8350,"Ġpurposed":8351,"Ġsilk":8352,"Ġdistract":8353,"Ġdisturb":8354,"Ġinfl":8355,"UGBY":8356,"ĠARVIRAGUS":8357,"Twill":8358,"Twixt":8359,"ĠDidst":8360,"ĠLEONTES":8361,"Ġsumm":8362,"Ġdivide":8363,"Ġsignior":8364,"velvet":8365,"Ġpuiss":8366,"Ġbondage":8367,"Ġgrieved":8368,"ĠORLANDO":8369,"onstant":8370,"Ġhideous":8371,"Ġbeastly":8372,"Ġlimb":8373,"Ġlimit":8374,"Ġpleases":8375,"Ġutmost":8376,"Ġsimpl":8377,"Ġcrook":8378,"ĠHaving":8379,"Ġbreeds":8380,"Ġneighbours":8381,"Ġelection":8382,"Ġelements":8383,"HORSON":8384,"Ġfrowns":8385,"Ġcreate":8386,"Ġvanqu":8387,"Ġmerely":8388,"Ġpolitic":8389,"ispers":8390,"STANLEY":8391,"Ġguiltless":8392,"Ġsalute":8393,"ratiano":8394,"ungs":8395,"Ġwandering":8396,"Ġapprehens":8397,"Ġarchbishop":8398,"Ġballad":8399,"ĠVolsces":8400,"Ġconvenient":8401,"ĠGoths":8402,"Ġestimation":8403,"Ġstrokes":8404,"bastian":8405,"Ġmarvellous":8406,"Ġtonight":8407,"ĠPhebe":8408,"mione":8409,"ĠWALTER":8410,"ĠCromwell":8411,"Ġlewd":8412,"ĠMytilene":8413,"Bl":8414,"Makes":8415,"MECAENAS":8416,"Sha":8417,"Son":8418,"Truly":8419,"Very":8420,"dra":8421,"know":8422,"lar":8423,"mas":8424,"mity":8425,"Ġwipe":8426,"Ġfray":8427,"Ġfires":8428,"enius":8429,"ĠImp":8430,"Ġdart":8431,"Ġlungs":8432,"Ġnearer":8433,"arius":8434,"Ġpor":8435,"atio":8436,"Ġinquire":8437,"Ġhab":8438,"ĠSleep":8439,"ĠHORTENSIO":8440,"ripp":8441,"ĠBASS":8442,"Ġreap":8443,"Ġsolic":8444,"ainter":8445,"ĠLORD":8446,"estial":8447,"ifferent":8448,"ĠGon":8449,"Ġfaction":8450,"Ġshout":8451,"quo":8452,"ĠReads":8453,"empl":8454,"Ġhates":8455,"Ġworms":8456,"Ġquaint":8457,"iger":8458,"Ġrat":8459,"Ġunre":8460,"LODOVICO":8461,"ĠJOAN":8462,"Ġrope":8463,"Ġfold":8464,"Ġenra":8465,"Ġraging":8466,"Ġperi":8467,"Ġpernicious":8468,"Ġappea":8469,"Ġflame":8470,"Ġcompar":8471,"Ġcompell":8472,"Ġcomplete":8473,"Ġchap":8474,"ĠAnjou":8475,"erchance":8476,"Ġfollowed":8477,"Ġforthwith":8478,"Ġsubstit":8479,"Ġhumility":8480,"Ġpowerful":8481,"Ġmischance":8482,"Ġswearing":8483,"Ġgrim":8484,"Ġstraw":8485,"Ġsinging":8486,"Ġcountryman":8487,"Ġbounds":8488,"Ġaffright":8489,"Ġleading":8490,"Ġtenor":8491,"ĠCominius":8492,"Ġdivision":8493,"Ġattain":8494,"Ġblessings":8495,"prus":8496,"BANQUO":8497,"Ġjests":8498,"Ġstirring":8499,"Ġenchant":8500,"Ġmistrust":8501,"Ġrobes":8502,"Ġerrand":8503,"ĠLaertes":8504,"BRAKENBURY":8505,"ĠRobin":8506,"Ġescape":8507,"Ġlegions":8508,"ĠAlexander":8509,"Ġpersuaded":8510,"Ġdeserts":8511,"Ġimagine":8512,"Ġministers":8513,"Ġmourning":8514,"Ġcaptains":8515,"Ġceremon":8516,"AUSTRIA":8517,"Ġdetermined":8518,"Ġpillow":8519,"Ġbeguile":8520,"Ġcurtain":8521,"ĠPaulina":8522,"Ġincensed":8523,"Poet":8524,"Ġexcellence":8525,"Ġsuperfluous":8526,"ĠAriel":8527,"ĠJesu":8528,"Ġexercise":8529,"ĠPhoebus":8530,"Ġspeeches":8531,"pecially":8532,"Ġcoxcomb":8533,"Ġpiteous":8534,"AQU":8535,"Cla":8536,"CRO":8537,"Draw":8538,"Eng":8539,"Hence":8540,"Lay":8541,"Long":8542,"Mark":8543,"OUR":8544,"Pl":8545,"Post":8546,"Read":8547,"Sings":8548,"Whither":8549,"ais":8550,"from":8551,"faith":8552,"ias":8553,"oqu":8554,"sick":8555,"éģ":8556,"Ġice":8557,"Ġtired":8558,"Ġafore":8559,"Ġsilly":8560,"Ġbishop":8561,"Ġfift":8562,"envoy":8563,"itary":8564,"Ġdower":8565,"once":8566,"ario":8567,"Ġpounds":8568,"Ġthorough":8569,"aniel":8570,"Ġgage":8571,"Ġbethink":8572,"Ġinfection":8573,"Ġhack":8574,"ĠSy":8575,"ĠSit":8576,"ĠSEBASTIAN":8577,"uties":8578,"ille":8579,"raise":8580,"asions":8581,"ĠCorn":8582,"ĠCesario":8583,"Ġsober":8584,"Ġassemb":8585,"ARIO":8586,"urity":8587,"ĠNym":8588,"ĠFather":8589,"Ġbutt":8590,"ific":8591,"ilence":8592,"Ġmanly":8593,"Ġnegl":8594,"ending":8595,"ĠRes":8596,"Ġconvers":8597,"ular":8598,"venge":8599,"OLOG":8600,"Ġswim":8601,"Ġlets":8602,"Ġbranch":8603,"ROCU":8604,"Ġlikelihood":8605,"ĠJustice":8606,"ĠJAQU":8607,"Ġprologue":8608,"arer":8609,"Ġpope":8610,"Ġrogues":8611,"LEIUS":8612,"Ġsomewhat":8613,"FFITH":8614,"Ġdesol":8615,"Ġdescent":8616,"Ġbloods":8617,"Ġarticle":8618,"Ġpert":8619,"AMILL":8620,"ĠUp":8621,"Ġreproof":8622,"never":8623,"Ġsmoke":8624,"Ġundert":8625,"beit":8626,"Ġrestore":8627,"Ġrestored":8628,"Ġcrowned":8629,"Ġcouple":8630,"Ġrights":8631,"Ġtreasons":8632,"abb":8633,"Ġbackward":8634,"Ġevening":8635,"Ġimpatience":8636,"Ġfighting":8637,"Ġmajest":8638,"Ġmoe":8639,"Ġawe":8640,"Ġrevenue":8641,"Ġtrusty":8642,"Ġafford":8643,"ĠProc":8644,"Ġeaten":8645,"otspur":8646,"Ġsurprised":8647,"Ġextreme":8648,"ventry":8649,"ĠCyprus":8650,"Ġregent":8651,"Ġshoes":8652,"Ġproceedings":8653,"Ġdearer":8654,"Ġmedit":8655,"ĠKATHARINA":8656,"join":8657,"Ġchallen":8658,"Ġholid":8659,"ĠCOUNT":8660,"ĠCOSTARD":8661,"Ġwonders":8662,"Ġperjury":8663,"ĠWorcester":8664,"ĠBarnard":8665,"Ġstole":8666,"Ġlinen":8667,"Ġbeware":8668,"Ġparents":8669,"ĠNORTHUMBERLAND":8670,"ĠCHARMIAN":8671,"Ġblushing":8672,"Ġcharacter":8673,"Ġliquor":8674,"Ġprodigal":8675,"ĠStephano":8676,"Ġstyle":8677,"ĠMonmouth":8678,"ĠNerissa":8679,"Ġeverlasting":8680,"Ġtrespass":8681,"ĠJudas":8682,"AEMELIA":8683,"ecomes":8684,"inculo":8685,"ĠRouen":8686,"CROOP":8687,"OLOGUE":8688,"ROCULEIUS":8689,"AMILLIUS":8690,"ĠBarnardine":8691,"Amen":8692,"CORDELIA":8693,"Ghost":8694,"Mar":8695,"Porter":8696,"board":8697,"even":8698,"fav":8699,"iqu":8700,"kens":8701,"lorn":8702,"part":8703,"pire":8704,"wear":8705,"why":8706,"ymph":8707,"ä½":8708,"åı":8709,"Ġvelvet":8710,"Ġtal":8711,"reant":8712,"Ġfount":8713,"Ġfert":8714,"Ġcasket":8715,"Ġhue":8716,"Ġpere":8717,"angs":8718,"ĠTrib":8719,"ĠSur":8720,"Ġep":8721,"Ġebb":8722,"ĠHUM":8723,"ĠHotspur":8724,"assed":8725,"ĠBed":8726,"alter":8727,"alty":8728,"Ġrelish":8729,"geant":8730,"ĠMOTH":8731,"ĠMACDUFF":8732,"rove":8733,"ĠLAN":8734,"using":8735,"Ġshames":8736,"ĠFly":8737,"ĠGratiano":8738,"ĠDUCHESS":8739,"Ġmantle":8740,"Ġshrink":8741,"ĠYe":8742,"icha":8743,"xton":8744,"Ġknowest":8745,"Ġhatred":8746,"ĠTopas":8747,"Ġsap":8748,"Ġpos":8749,"Ġoffers":8750,"Ġroll":8751,"Ġabbey":8752,"Ġenmity":8753,"Ġdescription":8754,"Ġbrethren":8755,"Ġravish":8756,"gery":8757,"Ġribs":8758,"ĠThisbe":8759,"Ġclamour":8760,"Ġsetting":8761,"Ġconfer":8762,"Ġcheap":8763,"ĠShepherd":8764,"Ġdiscord":8765,"Ġpeep":8766,"Ġmoons":8767,"Ġburial":8768,"ĠHermione":8769,"Ġlays":8770,"Ġreturned":8771,"Ġwaves":8772,"Ġattends":8773,"Ġsilken":8774,"Ġsisters":8775,"Ġprinci":8776,"Ġchose":8777,"Ġbattles":8778,"Ġmocks":8779,"Ġmocking":8780,"Ġspeedy":8781,"Ġdevised":8782,"Ġdevotion":8783,"ĠGloucestershire":8784,"Ġcounsels":8785,"Ġextend":8786,"Ġopport":8787,"Ġmurderous":8788,"Ġrebuke":8789,"Ġcheerful":8790,"Ġexecuted":8791,"Ġwedded":8792,"Ġbecame":8793,"Ġrascals":8794,"Ġlists":8795,"Ġgentleness":8796,"Ġesp":8797,"Ġgrossly":8798,"Ġpersuasion":8799,"Ġhorrible":8800,"Ġdwells":8801,"Ġcuckoo":8802,"ĠBlunt":8803,"Ġfeeble":8804,"Ġnobody":8805,"Ġengaged":8806,"ĠFlorent":8807,"Ġnobler":8808,"gnant":8809,"Ġinfected":8810,"Ġparentage":8811,"Ġdetermine":8812,"Conf":8813,"Ġdissol":8814,"Ġfilthy":8815,"Ġtouches":8816,"Ġimprisonment":8817,"Brother":8818,"ALEXAS":8819,"Ġbarbarous":8820,"Ġprecedent":8821,"Ġoutrage":8822,"Ġmystery":8823,"adventure":8824,"Ġdrowsy":8825,"Cy":8826,"Cons":8827,"Gain":8828,"IENS":8829,"LL":8830,"Painter":8831,"Rep":8832,"SET":8833,"Zounds":8834,"aven":8835,"aves":8836,"dea":8837,"gate":8838,"gments":8839,"kn":8840,"pite":8841,"sino":8842,"uary":8843,"when":8844,"water":8845,"å®":8846,"åħ":8847,"åį":8848,"éĢ":8849,"Ġtie":8850,"ouns":8851,"Ġsli":8852,"iner":8853,"inter":8854,"Ġmiddle":8855,"erves":8856,"Ġcurious":8857,"Ġdroop":8858,"Ġlar":8859,"Ġlime":8860,"Ġlaug":8861,"Ġhire":8862,"Ġpine":8863,"Ġthirst":8864,"aning":8865,"ato":8866,"atest":8867,"ĠShylock":8868,"iments":8869,"Ġec":8870,"terbury":8871,"Ġstake":8872,"Ġstuck":8873,"Ġstiff":8874,"Ġsteward":8875,"asures":8876,"ĠMAL":8877,"ĠLead":8878,"ĠLOV":8879,"ĠOh":8880,"amn":8881,"Ġsham":8882,"ĠNell":8883,"ĠAndrew":8884,"ĠField":8885,"ĠFABIAN":8886,"ĠFulvia":8887,"Ġdevour":8888,"Ġsustain":8889,"Ġseized":8890,"Ġalliance":8891,"Ġlosing":8892,"ello":8893,"Ġspell":8894,"ĠDer":8895,"ĠDROMIO":8896,"ORSET":8897,"ĠRoder":8898,"Ġsheets":8899,"Ġthereto":8900,"Ġcannon":8901,"Ġhatch":8902,"ĠNeither":8903,"Ġrot":8904,"Ġruth":8905,"Ġdislike":8906,"imely":8907,"Ġaloof":8908,"Ġaloft":8909,"Ġplent":8910,"ĠHec":8911,"ĠAss":8912,"Ġenf":8913,"PHIL":8914,"CHIRON":8915,"Ġwrang":8916,"ĠĠĠĠĠĠĠĠĠĠĠĠĠĠĠĠĠĠĠĠĠĠĠĠĠĠĠĠĠĠĠĠĠĠĠĠĠĠĠĠĠĠ":8917,"DULL":8918,"swer":8919,"Ġclam":8920,"Ġindifferent":8921,"Ġconspir":8922,"OPSA":8923,"Ġtriump":8924,"Ġleather":8925,"orset":8926,"Behold":8927,"Ġimpatient":8928,"Ġwelkin":8929,"ixenes":8930,"Ġboat":8931,"aws":8932,"Ġinfer":8933,"Ġsights":8934,"Doctor":8935,"ĠĠĠĠĠĠĠĠĠĠĠĠĠĠĠĠĠĠĠĠĠĠĠĠĠĠĠĠĠĠĠĠĠĠĠĠĠĠĠ":8936,"nobar":8937,"owards":8938,"Ġvision":8939,"DERBY":8940,"Although":8941,"Ġdespised":8942,"Ġrespects":8943,"Ġfamish":8944,"Ġlaughing":8945,"Ġrelieve":8946,"Ġagreed":8947,"Didst":8948,"Ġobli":8949,"Ġpatiently":8950,"Ġflattering":8951,"Ġprocure":8952,"Ġduchess":8953,"conbridge":8954,"iculous":8955,"BRABANTIO":8956,"Ġcontinu":8957,"Ġcrept":8958,"Ġvanish":8959,"Ġdelights":8960,"Ġvisitation":8961,"Ġinvite":8962,"Ġthreaten":8963,"Ġthreatening":8964,"ĠAmong":8965,"Ġdismal":8966,"ugby":8967,"ĠSebastian":8968,"Ġholp":8969,"Ġridiculous":8970,"ourtezan":8971,"Ġante":8972,"ratitude":8973,"ĠCoventry":8974,"Ġjoints":8975,"Ġdischarged":8976,"sembling":8977,"Ġswelling":8978,"About":8979,"Ġsymp":8980,"Ġstatue":8981,"Adv":8982,"ĠCHARLES":8983,"Ġtutor":8984,"ĠJaques":8985,"Ġwarriors":8986,"Ġoverthrow":8987,"Ġbranches":8988,"Ġprophesy":8989,"Ġpenitent":8990,"ĠBeau":8991,"Ġtrembling":8992,"Ġfemale":8993,"ĠHoratio":8994,"Ġbachelor":8995,"Ġmarshal":8996,"Ġfifteen":8997,"ĠRoderigo":8998,"Citizens":8999,"Ret":9000,"RICHMOND":9001,"Sp":9002,"face":9003,"great":9004,"gress":9005,"gins":9006,"liness":9007,"met":9008,"might":9009,"ob":9010,"speak":9011,"tong":9012,"ule":9013,"women":9014,"éĽ":9015,"īå":9016,"Ġtire":9017,"Ġsands":9018,"Ġmat":9019,"Ġmouse":9020,"Ġwid":9021,"Ġbalm":9022,"Ġcull":9023,"Ġnigh":9024,"Ġpir":9025,"Ġpant":9026,"Ġheinous":9027,"owing":9028,"ĠAud":9029,"Ġbeats":9030,"Ġhalt":9031,"ĠSound":9032,"Ġmeed":9033,"imony":9034,"Ġforlorn":9035,"ĠHar":9036,"adem":9037,"ĠBour":9038,"Ġrein":9039,"urous":9040,"Ġwillow":9041,"ĠLion":9042,"ĠFind":9043,"Ġdefe":9044,"Ġnoon":9045,"thorn":9046,"Ġsullen":9047,"Ġallay":9048,"ĠGON":9049,"Ġlocks":9050,"Ġvap":9051,"ĠDu":9052,"Ġample":9053,"Ġupbra":9054,"Ġmudd":9055,"Ġwhet":9056,"ĠRather":9057,"Ġblossom":9058,"elia":9059,"peach":9060,"umn":9061,"Ġju":9062,"Ġjer":9063,"Ġunivers":9064,"Ġdiso":9065,"Ġtruer":9066,"aud":9067,"manner":9068,"ecome":9069,"Ġcommodity":9070,"Ġadore":9071,"Ġwhist":9072,"Ġkeys":9073,"Ġcourses":9074,"Ġcompound":9075,"Ġcompare":9076,"Ġrub":9077,"Ġrue":9078,"Ġlonging":9079,"ĠAnon":9080,"Ġendured":9081,"Ġbrass":9082,"Ġtavern":9083,"their":9084,"Ġbelieved":9085,"abs":9086,"ĠMARCIUS":9087,"Ġstrangers":9088,"essengers":9089,"Ġthousands":9090,"Ġhelps":9091,"Wherefore":9092,"Ġbreakfast":9093,"Ġmoving":9094,"Ġwindows":9095,"Ġdangers":9096,"Ġwanting":9097,"ĠFrenchman":9098,"Ġyielding":9099,"Ġleaden":9100,"Ġexclaim":9101,"Ġconfession":9102,"ĠCanterbury":9103,"Ġquarrels":9104,"Ġcowardice":9105,"Ġapproved":9106,"Ġowl":9107,"Ġidly":9108,"Ġunderstanding":9109,"Ġvein":9110,"Attend":9111,"Ġinstruction":9112,"Ġobst":9113,"Ġstudied":9114,"Ġsnatch":9115,"GUILDENSTERN":9116,"Ġdriven":9117,"Ġdrift":9118,"month":9119,"Ġslanders":9120,"Cannot":9121,"Ġviolence":9122,"Ġnecessary":9123,"Ġbending":9124,"Ġmaidenhead":9125,"irtue":9126,"ominable":9127,"Ġmerciful":9128,"boys":9129,"OXFORD":9130,"Ġgloves":9131,"Ġachieve":9132,"ĠPOSTHUMUS":9133,"ĠPhilip":9134,"ĠSicilia":9135,"Ġhomage":9136,"Ġscourge":9137,"ĠROSALIND":9138,"ĠMONTAGUE":9139,"ĠTrumpets":9140,"Ġbereft":9141,"Ġexploit":9142,"craft":9143,"Ġconsequence":9144,"Ġreconci":9145,"Ġcovet":9146,"ĠTRANIO":9147,"Cymbeline":9148,"Aw":9149,"Cry":9150,"Fal":9151,"Full":9152,"HIPPOLYTA":9153,"JO":9154,"Music":9155,"PANTHINO":9156,"Res":9157,"RIC":9158,"Sc":9159,"aur":9160,"book":9161,"core":9162,"cons":9163,"eer":9164,"groom":9165,"hore":9166,"ply":9167,"vised":9168,"²æ":9169,"ç´":9170,"Ġtrow":9171,"Ġsixt":9172,"inth":9173,"Ġmor":9174,"Ġmur":9175,"Ġmonsieur":9176,"Ġbail":9177,"isement":9178,"erd":9179,"lle":9180,"Ġfence":9181,"ĠIRA":9182,"Ġcities":9183,"Ġcrows":9184,"Ġdried":9185,"Ġdined":9186,"Ġlame":9187,"Ġpath":9188,"Ġheel":9189,"Ġgilt":9190,"ĠTha":9191,"ĠSLENDER":9192,"ĠSIMP":9193,"ĠSomething":9194,"ĠWorthi":9195,"ĠWalter":9196,"Ġeats":9197,"Ġweed":9198,"Ġstink":9199,"rice":9200,"ĠBull":9201,"Ġrepea":9202,"ĠCost":9203,"ĠCELIA":9204,"ĠCLOTEN":9205,"ĠEm":9206,"ĠEly":9207,"ĠEvery":9208,"ĠPROTEUS":9209,"Ġdole":9210,"ĠNurse":9211,"ĠFRIAR":9212,"Ġbutter":9213,"ifer":9214,"Ġanointed":9215,"ĠĠĠĠĠĠĠĠĠĠĠĠĠĠĠĠĠĠĠĠĠĠĠĠĠĠ":9216,"Ġspot":9217,"ĠDorset":9218,"qual":9219,"ALA":9220,"ĠRugby":9221,"iously":9222,"Ġbliss":9223,"olis":9224,"ETO":9225,"uments":9226,"igion":9227,"unuch":9228,"ARDIAN":9229,"Ġproves":9230,"Ġpartner":9231,"Ġ10":9232,"Ġplough":9233,"ĠKENT":9234,"ESSALA":9235,"Ġabund":9236,"Ġrace":9237,"Ġprays":9238,"Ġscold":9239,"Ġstray":9240,"Ġnightly":9241,"Ġrum":9242,"Ġcloth":9243,"Ġfoolery":9244,"Ġnobleman":9245,"Ġentra":9246,"Ġsettled":9247,"Ġputting":9248,"Ġplaying":9249,"Ġconsist":9250,"Ġpleaseth":9251,"ected":9252,"LUCY":9253,"UTE":9254,"Ġhandsome":9255,"Ġdial":9256,"Ġlanded":9257,"Ġmoiety":9258,"lets":9259,"Ġcradle":9260,"Ġhunter":9261,"Ġflying":9262,"scap":9263,"Ġattendants":9264,"VALERIA":9265,"Ġskull":9266,"Ġdrinks":9267,"Ġwiser":9268,"Ġtouching":9269,"Ġprofane":9270,"ĠCommend":9271,"Ġdeeply":9272,"Ġdivided":9273,"Ġattach":9274,"Ġdespise":9275,"Ġframed":9276,"Ġcommends":9277,"ĠMurder":9278,"ĠChristendom":9279,"Ġshoe":9280,"Ġblem":9281,"Ġpitied":9282,"Ġsmallest":9283,"Ġknocks":9284,"Ġfrowning":9285,"ĠRosaline":9286,"Ġsuccession":9287,"Ġverse":9288,"Ġdegrees":9289,"Ġcompanions":9290,"Ġhorror":9291,"Ġgrandfather":9292,"Ġknavery":9293,"Ġusurping":9294,"ĠMarshal":9295,"Ġdetest":9296,"Ġunpro":9297,"Ġbootless":9298,"ĠTrojans":9299,"Ġbells":9300,"Ġheavier":9301,"Ġunkindness":9302,"sembled":9303,"Ġpursuit":9304,"ĠTrinculo":9305,"Ġburnt":9306,"ĠSaturn":9307,"Ġmagic":9308,"Ġruffian":9309,"ĠPolixenes":9310,"Ġcounsellor":9311,"Ġconcluded":9312,"Ġcelestial":9313,"Ġimpediment":9314,"Ġacknowledge":9315,"Ġperiod":9316,"Gainst":9317,"PHILARIO":9318,"nobarbus":9319,"ĠAudrey":9320,"JOY":9321,"ĠIRAS":9322,"'m":9323,"Alack":9324,"Came":9325,"Cousin":9326,"Ed":9327,"Get":9328,"Lie":9329,"OST":9330,"Set":9331,"Tut":9332,"bo":9333,"iction":9334,"make":9335,"mod":9336,"nish":9337,"piece":9338,"ä¸":9339,"ä»":9340,"å¾":9341,"æ²":9342,"æ·":9343,"Ġtainted":9344,"Ġsixth":9345,"Ġmast":9346,"Ġmessengers":9347,"Ġwilful":9348,"Ġbands":9349,"Ġfurious":9350,"itan":9351,"Ġcent":9352,"Ġcro":9353,"Ġdate":9354,"Ġduties":9355,"Ġpatch":9356,"Ġtoys":9357,"Ġgains":9358,"Ġgorge":9359,"ĠAGR":9360,"Ġbeque":9361,"ĠSailor":9362,"Ġepit":9363,"ĠHAM":9364,"raction":9365,"ĠMicha":9366,"ĠEast":9367,"ĠElse":9368,"ĠPur":9369,"Ġdoct":9370,"ĠLea":9371,"ĠOpen":9372,"ckets":9373,"ousins":9374,"Ġherd":9375,"Ġnod":9376,"ĠGower":9377,"ella":9378,"Ġmankind":9379,"antime":9380,"antages":9381,"quiet":9382,"Ġamain":9383,"Ġwhatsoever":9384,"Ġprime":9385,"ĠRivers":9386,"icity":9387,"Ġshelter":9388,"ĠVAL":9389,"Ġhomely":9390,"Ġuses":9391,"Ġunwill":9392,"unction":9393,"Ġparties":9394,"Ġtruce":9395,"Ġgrain":9396,"Ġleaving":9397,"Ġalms":9398,"Ġmarble":9399,"Ġheap":9400,"Ġwhereon":9401,"Ġexpense":9402,"Ġraw":9403,"Ġrags":9404,"IANUS":9405,"Ġscroll":9406,"Ġapply":9407,"swear":9408,"agon":9409,"Ġimpeach":9410,"Ġcontag":9411,"Ġpurple":9412,"ĠMarian":9413,"Ġsmother":9414,"Ġholding":9415,"Ġplayers":9416,"Ġcharitable":9417,"Ġworthless":9418,"Ġmeaner":9419,"ĠStrike":9420,"Ġafterwards":9421,"Ġturning":9422,"Ġdram":9423,"ĠMARINA":9424,"Ġchanges":9425,"ĠLEPIDUS":9426,"Ġimpud":9427,"bler":9428,"fortune":9429,"Ġmoan":9430,"ĠReign":9431,"Ġsickly":9432,"Ġseeking":9433,"ĠEDGAR":9434,"Ġsadly":9435,"ĠBELARIUS":9436,"Ġreports":9437,"Ġreported":9438,"BUSHY":9439,"Ġboldly":9440,"Ġprett":9441,"Ġplainly":9442,"Ġprovoke":9443,"Ġmodel":9444,"Ġempire":9445,"Ġscarf":9446,"Ġidleness":9447,"Ġvilely":9448,"Ġaddress":9449,"Ġmotive":9450,"ĠTyr":9451,"Ġresolute":9452,"Ġbait":9453,"chers":9454,"Ġaye":9455,"Ġcapable":9456,"Ġstops":9457,"Ġsuccor":9458,"ĠLucilius":9459,"IPPA":9460,"ĠTitan":9461,"Ġstarved":9462,"Having":9463,"Ġstorms":9464,"ĠBeseech":9465,"Ġtransport":9466,"rateful":9467,"Ġweighty":9468,"Ġrevels":9469,"Ġbaseness":9470,"Ġfruitful":9471,"ĠPole":9472,"Ġdisguise":9473,"Ġaffected":9474,"Ġbridegroom":9475,"Ġinclined":9476,"Ġpurchased":9477,"Ġnobleness":9478,"Ġfunction":9479,"Ġfuneral":9480,"CORNELIUS":9481,"Ġcoffin":9482,"Ġobservance":9483,"ĠReturn":9484,"Ġprovoked":9485,"Ġsubdued":9486,"ĠBanquo":9487,"ĠHelicanus":9488,"Ġrepeat":9489,"Ġsubscribe":9490,"ĠVarro":9491,"Ġenraged":9492,"Ġfertile":9493,"Ġperempt":9494,"ĠLANCASTER":9495,"Ġlaughed":9496,"ĠAGRIPPA":9497,"Ġepitaph":9498,"ĠHAMLET":9499,"ĠMichael":9500,"DAVY":9501,"Father":9502,"Gl":9503,"ILE":9504,"IFFITH":9505,"Men":9506,"MAMILLIUS":9507,"MOPSA":9508,"NO":9509,"REL":9510,"cer":9511,"calf":9512,"ders":9513,"disc":9514,"fle":9515,"iond":9516,"lion":9517,"large":9518,"made":9519,"pal":9520,"shi":9521,"uction":9522,"vion":9523,"vided":9524,"word":9525,"whel":9526,"äº":9527,"å¯":9528,"åĴ":9529,"çĽ":9530,"è²":9531,"è³":9532,"ĠULYSSES":9533,"inst":9534,"Ġwi":9535,"Ġwave":9536,"Ġbate":9537,"llies":9538,"ĠIAG":9539,"Ġded":9540,"Ġnymph":9541,"aron":9542,"Ġpangs":9543,"Ġtoss":9544,"ann":9545,"stood":9546,"Ġgames":9547,"ĠACH":9548,"ĠAaron":9549,"Ġbeef":9550,"ĠTrust":9551,"seed":9552,"seth":9553,"Ġhal":9554,"ednes":9555,"cho":9556,"Ġnotorious":9557,"earest":9558,"Ġeff":9559,"Ġeunuch":9560,"ĠHE":9561,"hern":9562,"Ġkern":9563,"Ġstates":9564,"asca":9565,"rikes":9566,"ĠBona":9567,"alus":9568,"ĠChamberlain":9569,"ĠCasca":9570,"ENICE":9571,"ĠMis":9572,"Ġasunder":9573,"Ġlivest":9574,"ĠEur":9575,"ĠPANDARUS":9576,"Ġdol":9577,"ĠLive":9578,"Ġdefect":9579,"ĠGri":9580,"ĠGiving":9581,"Ġlofty":9582,"Ġspurs":9583,"Ġmuff":9584,"Ġwhel":9585,"ication":9586,"Ġcauses":9587,"athom":9588,"ĠVIOLA":9589,"ĠVENICE":9590,"ola":9591,"laus":9592,"ĠThings":9593,"umain":9594,"Ġrated":9595,"Ġrod":9596,"LEOM":9597,"Ġabject":9598,"ullus":9599,"lier":9600,"THOMAS":9601,"oult":9602,"Ġsweeter":9603,"Ġworldly":9604,"Ġimit":9605,"Ġcontempl":9606,"Ġtrag":9607,"IDGE":9608,"vilion":9609,"ABHORSON":9610,"Ġchival":9611,"Ġchim":9612,"acity":9613,"Ġpregnant":9614,"Ġcheese":9615,"Ġhush":9616,"days":9617,"Ġmerrim":9618,"Ġboister":9619,"Ġfeats":9620,"ĠRevenge":9621,"Ġbanks":9622,"aply":9623,"GRIFFITH":9624,"Ġinstead":9625,"comp":9626,"OCTAVIA":9627,"Ġwaist":9628,"Ġfooting":9629,"Ġinfamy":9630,"ĠArch":9631,"Ġchoke":9632,"Ġrecount":9633,"Ġminion":9634,"Ġleader":9635,"Ġprofound":9636,"Ġsuitors":9637,"Ġexcursions":9638,"CASSANDRA":9639,"Ġfasting":9640,"Ġcowardly":9641,"ĠLAFEU":9642,"Ġregion":9643,"Ġstirs":9644,"Ġgrove":9645,"Ġmounted":9646,"ĠLUCIO":9647,"Ġbroad":9648,"Ġbeginning":9649,"Ġfeasts":9650,"Ġrelent":9651,"eems":9652,"Ġcrim":9653,"Ġcrimes":9654,"Ġperformance":9655,"SAY":9656,"ucelle":9657,"Ġbastards":9658,"JAQUENETTA":9659,"Ġfellowship":9660,"Ġtransform":9661,"ORCAS":9662,"ispatch":9663,"Ġstomachs":9664,"Ġbounteous":9665,"Ġholiness":9666,"Ġhunting":9667,"Ġwitchcraft":9668,"Ġcorrupted":9669,"Ġcorruption":9670,"IGOT":9671,"Ġprophecy":9672,"Ġhighest":9673,"Ġgazing":9674,"Ġnoblest":9675,"Ġingratitude":9676,"Ġtrifles":9677,"ĠPisa":9678,"Ġderived":9679,"ĠOctavius":9680,"Ġshroud":9681,"Ġmiscarry":9682,"Ġnaughty":9683,"YRREL":9684,"Ġunseen":9685,"VERGNE":9686,"Ġmillion":9687,"Ġtapster":9688,"ĠGUIDERIUS":9689,"ĠSILVIA":9690,"ĠJULIA":9691,"Ġgilded":9692,"ĠOlivia":9693,"Ġcontrol":9694,"Remember":9695,"Ġdiscipline":9696,"ĠAUVERGNE":9697,"Ġcudgel":9698,"BRIDGE":9699,"Ġinsolence":9700,"Ġembassy":9701,"ĠLYSANDER":9702,"Ġproverb":9703,"Ġleek":9704,"Ġlunatic":9705,"ĠTamora":9706,"Ġhaughty":9707,"Ġassembly":9708,"Ġopportunity":9709,"Ġoblivion":9710,"Ġperemptory":9711,"NOUT":9712,"iondello":9713,"ĠIAGO":9714,"ĠACHILLES":9715,"ednesday":9716,"LEOMENES":9717,"'ve":9718,"Boat":9719,"Has":9720,"Leave":9721,"NA":9722,"Play":9723,"Sound":9724,"Tailor":9725,"cast":9726,"char":9727,"gent":9728,"hus":9729,"ipt":9730,"iable":9731,"jud":9732,"lot":9733,"lers":9734,"ma":9735,"maker":9736,"press":9737,"picious":9738,"rot":9739,"tree":9740,"tied":9741,"tered":9742,"ubs":9743,"ye":9744,"åĹ":9745,"è¨":9746,"è©":9747,"Łæ":9748,"Ġtalks":9749,"Ġsow":9750,"recy":9751,"Ġbone":9752,"Ġfol":9753,"Ġfist":9754,"Ġfrant":9755,"Ġoil":9756,"ĠIrish":9757,"Ġcele":9758,"Ġhood":9759,"Ġnourish":9760,"Ġped":9761,"Ġporter":9762,"Ġtower":9763,"atage":9764,"ĠAENEAS":9765,"Ġbeads":9766,"sever":9767,"imo":9768,"ida":9769,"Ġstool":9770,"ĠBreak":9771,"ĠBiondello":9772,"Ġrevel":9773,"ĠCardinal":9774,"ĠCYMBELINE":9775,"INNA":9776,"ĠMethought":9777,"Ġashore":9778,"ĠLend":9779,"Ġshamed":9780,"andra":9781,"ifter":9782,"Ġsums":9783,"Ġsear":9784,"Ġspar":9785,"Ġvio":9786,"ĠDead":9787,"Ġshirt":9788,"Ġmoreover":9789,"Ġblank":9790,"Ġcaps":9791,"Ġarbit":9792,"Ġworser":9793,"Ġrings":9794,"Ġrising":9795,"Ġmadly":9796,"ĠJer":9797,"arers":9798,"orns":9799,"Ġpopul":9800,"Ġmagn":9801,"Ġabominable":9802,"Ġensue":9803,"Ġenrich":9804,"Ġdesc":9805,"Ġdeserving":9806,"Ġrabble":9807,"akest":9808,"lius":9809,"top":9810,"Ġricher":9811,"Ġcalling":9812,"Ġowner":9813,"Ġscars":9814,"Ġapple":9815,"Ġwitty":9816,"Ġstratage":9817,"Ġcomposition":9818,"Ġclay":9819,"Ġgraced":9820,"Ġenters":9821,"Ġentire":9822,"Ġindust":9823,"neath":9824,"Ġplayed":9825,"Ġcounty":9826,"Ġworthiness":9827,"ĠStran":9828,"Ġmeets":9829,"Ġrightful":9830,"Ġprivy":9831,"closed":9832,"Ġaccent":9833,"twould":9834,"LEONINE":9835,"Ġbuzz":9836,"Ġdevilish":9837,"Ġfeature":9838,"Ġsecurity":9839,"Ġsecrecy":9840,"Ġinstinct":9841,"Ġreadiness":9842,"Ġgrowth":9843,"Ġmete":9844,"Ġwearing":9845,"Ġparcel":9846,"Ġmockery":9847,"Ġboldness":9848,"Lords":9849,"Ġdropp":9850,"Ġapprobation":9851,"Ġoffender":9852,"Ġoppression":9853,"Ġcreated":9854,"Ġlacks":9855,"Ġlowly":9856,"Ġinterchan":9857,"Ġmortality":9858,"Ġoccasions":9859,"Ġbriefly":9860,"Ġerr":9861,"Ġintended":9862,"Ġgentry":9863,"atricians":9864,"OSRIC":9865,"ĠEgyptian":9866,"Ġcorner":9867,"Ġthreats":9868,"Ġdebts":9869,"Ġdismay":9870,"Ġdisgraced":9871,"Ġgirls":9872,"poc":9873,"Ġdignities":9874,"Ġsquare":9875,"Ġsquire":9876,"Ġtwelvemonth":9877,"Ġchiefest":9878,"Ġbaby":9879,"Ġdigest":9880,"Ġwolves":9881,"Ġtyrann":9882,"Ġstabb":9883,"Ġworthiest":9884,"Ġsanctuary":9885,"Ġadmirable":9886,"ĠPhilipp":9887,"ĠHostess":9888,"Ġbridge":9889,"ĠGUILDENSTERN":9890,"Ġbeautiful":9891,"Ġpilgrimage":9892,"Ġmanifest":9893,"Ġbulk":9894,"Ġaltar":9895,"Ġlechery":9896,"Ġchampion":9897,"iquity":9898,"ĠFlorentine":9899,"ĠWorthies":9900,"ĠCostard":9901,"Boatswain":9902,"Ġfrantic":9903,"AUDREY":9904,"Char":9905,"GAMEMNON":9906,"Imp":9907,"Jo":9908,"Many":9909,"Measure":9910,"MILIA":9911,"Pyramus":9912,"Richard":9913,"Sm":9914,"SCARUS":9915,"Wor":9916,"Whether":9917,"body":9918,"cor":9919,"count":9920,"eys":9921,"fa":9922,"fish":9923,"ffered":9924,"got":9925,"iors":9926,"iban":9927,"must":9928,"rates":9929,"skin":9930,"uell":9931,"vity":9932,"wall":9933,"¯å":9934,"å°":9935,"æĵ":9936,"çĶ":9937,"Ġtardy":9938,"Ġaut":9939,"ourer":9940,"Ġmort":9941,"Ġmute":9942,"rement":9943,"has":9944,"Ġtheft":9945,"Ġbide":9946,"ism":9947,"Ġfile":9948,"Ġfathom":9949,"Ġomit":9950,"enor":9951,"Ġcured":9952,"Ġhook":9953,"arre":9954,"Ġpup":9955,"Ġtoe":9956,"otent":9957,"owder":9958,"Ġguts":9959,"atin":9960,"ĠAmb":9961,"ĠAGAMEMNON":9962,"ĠTen":9963,"ĠSaw":9964,"ĠSICINIUS":9965,"imple":9966,"iding":9967,"rad":9968,"rave":9969,"ĠBret":9970,"ĠBetter":9971,"ĠCLEON":9972,"ĠCOMINIUS":9973,"geons":9974,"Ġlily":9975,"ĠEMILIA":9976,"ĠPent":9977,"ĠOver":9978,"usale":9979,"ANTIOCHUS":9980,"Ġsevent":9981,"rung":9982,"runk":9983,"artered":9984,"Ġvict":9985,"ĠDrum":9986,"ĠDeliver":9987,"antus":9988,"ĠRight":9989,"ĠRun":9990,"ELY":9991,"Ġsweep":9992,"urer":9993,"emned":9994,"emantus":9995,"Ġthane":9996,"ĠVillain":9997,"Ġarrant":9998,"Ġquake":9999,"iced":10000,"uneration":10001,"Ġoutst":10002,"Ġproject":10003,"Ġtruant":10004,"irectly":10005,"Ġrode":10006,"Ġthinkest":10007,"ĠKne":10008,"Ġfoil":10009,"udes":10010,"THYREUS":10011,"Ġrig":10012,"Ġadul":10013,"Ġadverse":10014,"ĠĠĠĠĠĠĠĠĠĠĠĠĠĠĠĠĠĠĠĠĠĠĠĠĠĠĠĠĠĠĠĠĠĠĠĠĠĠĠĠ":10015,"Ġwayward":10016,"cheap":10017,"Ġcompet":10018,"Ġmightily":10019,"Ġcontend":10020,"ULL":10021,"issing":10022,"Ġbrazen":10023,"AGOT":10024,"ĠOrsino":10025,"Ġrestraint":10026,"Ġpavilion":10027,"Ġeloqu":10028,"Soft":10029,"Ġnativity":10030,"Ġconfined":10031,"Ġresort":10032,"Ġreserved":10033,"these":10034,"Ġdrag":10035,"Ġassay":10036,"Ġimpart":10037,"Ġkilling":10038,"Ġshameful":10039,"ancies":10040,"Ġbuff":10041,"Ġbuilt":10042,"Ġlasting":10043,"Ġcommandment":10044,"Ġcrab":10045,"Ġslack":10046,"Ġwakes":10047,"Ġproudest":10048,"Ġdistin":10049,"LANCH":10050,"Ġasked":10051,"Ġbarge":10052,"Ġpayment":10053,"Ġbeating":10054,"Ġcorporal":10055,"Ġforgotten":10056,"Ġpastime":10057,"ĠComm":10058,"ĠCommand":10059,"Ġprotection":10060,"Ġrichly":10061,"Ġattorn":10062,"avest":10063,"avarre":10064,"Ġsurm":10065,"ĠFluell":10066,"ĠLAUN":10067,"Ġlosses":10068,"Ġharmless":10069,"Ġbadge":10070,"Ġuntimely":10071,"Ġoppose":10072,"Ġinterrupt":10073,"Ġdishonest":10074,"Ġcommendations":10075,"Ġchurlish":10076,"Ġreligion":10077,"Ġranks":10078,"spir":10079,"Ġstudies":10080,"Ġigno":10081,"Ġpractises":10082,"ĠBelarius":10083,"Ġscarcely":10084,"Ġmutual":10085,"Ġintends":10086,"ĠBritish":10087,"Ġwasted":10088,"Haven":10089,"Ġcircle":10090,"Ġhorrid":10091,"Ġproduce":10092,"Ġmelted":10093,"MONTANO":10094,"ĠOLIVER":10095,"ĠItalian":10096,"Ġstockings":10097,"Ġwinged":10098,"Ġadvanced":10099,"Ġsyll":10100,"Ġfinish":10101,"ĠCalais":10102,"ĠSyracus":10103,"Ġpursued":10104,"ĠPARIS":10105,"Ġaffliction":10106,"Ġbeguiled":10107,"olles":10108,"Ġmoody":10109,"Ġaccusation":10110,"Ġtraveller":10111,"ĠJULIET":10112,"ĠApemantus":10113,"Ġdiscontented":10114,"Ġbankrupt":10115,"Ġlambs":10116,"leanor":10117,"Ġbrawl":10118,"Ġimmediately":10119,"Ġapplause":10120,"Ġgossip":10121,"oonshine":10122,"Ġtrod":10123,"Ġbattery":10124,"Kneeling":10125,"ĠGallia":10126,"Help":10127,"ĠKnocking":10128,"ĠQuickly":10129,"ĠBENEDICK":10130,"Ġannoy":10131,"Ġsimplicity":10132,"Ġapprehension":10133,"Ġhabits":10134,"ĠTribunes":10135,"Ġenfranch":10136,"Ġtriumphant":10137,"ĠBeaufort":10138,"Ġdefeat":10139,"Ġuniversal":10140,"ĠSIMPLE":10141,"Ġchivalry":10142,"Ġmerriment":10143,"Ġboisterous":10144,"usalem":10145,"ĠFluellen":10146,"Bless":10147,"Hail":10148,"Man":10149,"XFORD":10150,"Ye":10151,"aled":10152,"bre":10153,"balls":10154,"fellows":10155,"honour":10156,"iard":10157,"mor":10158,"nothing":10159,"vius":10160,"wd":10161,"wes":10162,"yr":10163,"¸è":10164,"å±":10165,"åĢ":10166,"åĸ":10167,"æĪ":10168,"Ġtreat":10169,"Ġtorn":10170,"Ġtext":10171,"inu":10172,"inch":10173,"inent":10174,"reason":10175,"Ġwra":10176,"Ġbal":10177,"Ġbaw":10178,"Ġfre":10179,"Ġfut":10180,"enix":10181,"Ġdul":10182,"Ġdaring":10183,"Ġdash":10184,"Ġlull":10185,"Ġlatest":10186,"Ġhides":10187,"Ġnut":10188,"Ġpence":10189,"Ġpatter":10190,"Ġthigh":10191,"Ġtomorrow":10192,"owland":10193,"Ġgavest":10194,"ĠTouch":10195,"ĠSon":10196,"eable":10197,"ĠHie":10198,"Ġken":10199,"ĠBest":10200,"ĠBell":10201,"ĠBottom":10202,"Ġrehear":10203,"ĠCH":10204,"ĠChe":10205,"ĠMin":10206,"ĠMene":10207,"urther":10208,"ĠEnobarbus":10209,"ĠEleanor":10210,"ĠPres":10211,"ĠLuce":10212,"ĠLatin":10213,"ĠOXFORD":10214,"usions":10215,"ĠNESTOR":10216,"Ġsunder":10217,"Ġsepul":10218,"ĠGives":10219,"Ġfaster":10220,"ĠDel":10221,"ĠDef":10222,"ĠDumain":10223,"Ġmuse":10224,"pple":10225,"ĠVERNON":10226,"Ġarray":10227,"igation":10228,"Ġjade":10229,"Ġdisorder":10230,"ffer":10231,"Ġhowl":10232,"ickle":10233,"wny":10234,"Ġleaf":10235,"Ġleagues":10236,"oughs":10237,"Ġeyel":10238,"Ġplenty":10239,"Ġfollies":10240,"Ġenlarge":10241,"Ġarts":10242,"tock":10243,"Ġadver":10244,"Ġlac":10245,"Ġlabours":10246,"aggers":10247,"ealing":10248,"Ġcloy":10249,"ianus":10250,"Ġbrag":10251,"Ġtabour":10252,"Ġunderneath":10253,"Ġconsort":10254,"Ġpapers":10255,"Noble":10256,"Ġcoal":10257,"Ġconfine":10258,"Ġconfidence":10259,"Ġpassions":10260,"ĠStaff":10261,"LUCILIUS":10262,"ĠDover":10263,"Ġbelief":10264,"aby":10265,"Ġvalued":10266,"Ġdiadem":10267,"Ġfeat":10268,"Ġcrafty":10269,"Ġawaked":10270,"Ġsupport":10271,"Ġmusician":10272,"Ġinfancy":10273,"Ġcoldly":10274,"Ġparle":10275,"Ġparch":10276,"Twould":10277,"bedience":10278,"Ġrecovered":10279,"Ġrecreant":10280,"Ġwished":10281,"Ġpasture":10282,"ĠComes":10283,"Ġattent":10284,"Ġattire":10285,"Ġpenalty":10286,"ĠCanst":10287,"gging":10288,"ĠAdv":10289,"Ġembraced":10290,"Ġthrift":10291,"Ġgladly":10292,"Ġbeggary":10293,"Ġapproaches":10294,"Anon":10295,"Ġconstancy":10296,"Ġregal":10297,"Ġmotions":10298,"Ġadmired":10299,"Ġdirected":10300,"Ġcrush":10301,"Ġsecretly":10302,"Ġposts":10303,"suing":10304,"Ġbowl":10305,"Ġlustre":10306,"Ġpractised":10307,"Ġsorts":10308,"Ġproperty":10309,"Ġcourtesies":10310,"Ġdrunkard":10311,"Ġproofs":10312,"Ġwrathful":10313,"Ġbenef":10314,"Ġmended":10315,"Ġexecutioner":10316,"Ġbigger":10317,"Ġprosperity":10318,"Ġloathsome":10319,"Ġfrighted":10320,"Ġbawdy":10321,"Ġdeceased":10322,"Ġcaptive":10323,"Ġtempted":10324,"Ġextremes":10325,"ĠAlarums":10326,"Ġpearls":10327,"Ġheaviness":10328,"ĠGRATIANO":10329,"Ġworthier":10330,"ĠSwear":10331,"Ġvolunt":10332,"Ġafflict":10333,"Ġevents":10334,"Pericles":10335,"Ġthorns":10336,"Ġdesigns":10337,"Ġbelongs":10338,"ĠMercury":10339,"Ġsteeds":10340,"Ġinheritance":10341,"ĠApril":10342,"Ġendeavour":10343,"Ġhypoc":10344,"Ġcopy":10345,"ĠParthi":10346,"window":10347,"withal":10348,"ĠMENENIUS":10349,"Ġostent":10350,"Ġfantastical":10351,"Ġinfirmity":10352,"Ġprecise":10353,"Ġholiday":10354,"ĠSurrey":10355,"Ġprincipal":10356,"Ġjerkin":10357,"Ġrepeal":10358,"ĠEastcheap":10359,"Ġfolks":10360,"ĠJerusalem":10361,"Ġsepulch":10362,"'!":10363,"Bid":10364,"Cor":10365,"Courtezan":10366,"DORCAS":10367,"Each":10368,"IARD":10369,"IWARD":10370,"Lies":10371,"Pur":10372,"Sur":10373,"Sic":10374,"Sleep":10375,"VIS":10376,"YBAL":10377,"af":10378,"away":10379,"ached":10380,"car":10381,"cence":10382,"down":10383,"door":10384,"doubt":10385,"lings":10386,"pled":10387,"sir":10388,"song":10389,"try":10390,"ually":10391,"ä¿":10392,"å½":10393,"å¿":10394,"åĪ":10395,"æī":10396,"æİ":10397,"æľ":10398,"èª":10399,"èĩ":10400,"éĻ":10401,"éł":10402,"ķè":10403,"Ľç":10404,"Ġtiger":10405,"Ġages":10406,"Ġsheriff":10407,"iners":10408,"inish":10409,"Ġmates":10410,"isa":10411,"orus":10412,"ority":10413,"Ġfren":10414,"ena":10415,"ĠIACH":10416,"ĠIlly":10417,"Ġdit":10418,"Ġnail":10419,"Ġpud":10420,"Ġpipe":10421,"Ġtow":10422,"Ġtoad":10423,"othe":10424,"ĠAw":10425,"Ġbead":10426,"Ġinhabit":10427,"irts":10428,"ĠSa":10429,"ĠSCROOP":10430,"Ġnotable":10431,"ĠWall":10432,"ĠWILLO":10433,"ĠWednesday":10434,"Ġegg":10435,"idents":10436,"raised":10437,"asci":10438,"ĠBless":10439,"ĠBEDFORD":10440,"Ġreform":10441,"Ġrenew":10442,"ĠCRESSIDA":10443,"ĠCARL":10444,"ĠES":10445,"ĠEgl":10446,"ĠPR":10447,"ĠPoly":10448,"ĠParson":10449,"ĠPucelle":10450,"ĠOTH":10451,"ushi":10452,"ĠNear":10453,"ĠNavarre":10454,"ANLEY":10455,"ESDEMONA":10456,"ĠFall":10457,"ĠFetch":10458,"Ġdeem":10459,"Ġnoses":10460,"ERG":10461,"Ġsuffered":10462,"Ġvouch":10463,"ĠDown":10464,"ĠDun":10465,"ĠDESDEMONA":10466,"quer":10467,"quit":10468,"ORGE":10469,"ALIARD":10470,"Ġwheres":10471,"ĠRAT":10472,"ĠROB":10473,"ĠREIGNIER":10474,"ĠRuss":10475,"ĠRowland":10476,"Ġconv":10477,"Ġsheet":10478,"STRAT":10479,"Ġswoon":10480,"Ġworshi":10481,"ode":10482,"Ġquant":10483,"Ġjades":10484,"Ġranc":10485,"Ġsauce":10486,"Ġunlike":10487,"Ġunlaw":10488,"Ġoutside":10489,"pton":10490,"Ġproffer":10491,"Ġgravity":10492,"lict":10493,"liest":10494,"Ġwring":10495,"ISLE":10496,"Ġpermit":10497,"Ġperadventure":10498,"Ġscant":10499,"AMIENS":10500,"Ġlazy":10501,"Ġdownright":10502,"Ġarmies":10503,"Ġclown":10504,"ĠSirs":10505,"Ġharms":10506,"Ġentered":10507,"Ġglance":10508,"Ġgloss":10509,"ĠAntenor":10510,"ĠWhereof":10511,"Ġhighly":10512,"Ġunderstood":10513,"Ġpeaceful":10514,"Ġshowers":10515,"Ġfully":10516,"Ġlevy":10517,"Ġpaltry":10518,"Ġcurb":10519,"Ġcurs":10520,"Ġsuborn":10521,"Ġaccidents":10522,"Ġretired":10523,"Ġhusbandry":10524,"ailing":10525,"Ġcaused":10526,"plex":10527,"Ġfalsely":10528,"Ġgoldsm":10529,"Ġfights":10530,"ĠAlmost":10531,"Ġmole":10532,"Ġdoubts":10533,"Ġgeneration":10534,"Ġrevenges":10535,"MENELAUS":10536,"Ġyields":10537,"Does":10538,"Ġterr":10539,"Ġminutes":10540,"Ġrequired":10541,"Ġtenderness":10542,"aville":10543,"Ġsurgeon":10544,"ĠAbbey":10545,"UGHBY":10546,"Ġchamberlain":10547,"Ġidol":10548,"Ġadded":10549,"ĠPlains":10550,"Ġadmitted":10551,"ĠParolles":10552,"ĠScroop":10553,"Ġchooseth":10554,"Ġbeards":10555,"Ġfeeding":10556,"spur":10557,"ĠSeek":10558,"Ġlane":10559,"sued":10560,"Neither":10561,"Show":10562,"glass":10563,"borne":10564,"said":10565,"Ġmutton":10566,"Ġpriests":10567,"Ġescap":10568,"Ġespecially":10569,"Ġinsult":10570,"ĠSpain":10571,"Ġbeneath":10572,"Ġwaiting":10573,"Ġdwelling":10574,"ĠTHURIO":10575,"Ġantique":10576,"Ġdetested":10577,"Ġrevolted":10578,"ĠBoyet":10579,"MONTJOY":10580,"ĠSTANLEY":10581,"Above":10582,"ĠCaliban":10583,"Ġpatron":10584,"Ġtestimony":10585,"ĠEnough":10586,"Ġarrested":10587,"ĠLabours":10588,"Ġdebate":10589,"Ġcoffers":10590,"ĠLieutenant":10591,"ĠLongaville":10592,"untsman":10593,"ĠHERO":10594,"ĠPOINS":10595,"Ġpainting":10596,"Ġreceipt":10597,"ĠAntiochus":10598,"Ġdungh":10599,"ĠMessal":10600,"Ġlevied":10601,"Ġwrinkled":10602,"ILOSTRAT":10603,"Ġfulf":10604,"Ġcarrion":10605,"ENNY":10606,"Ġornament":10607,"ĠCambridge":10608,"Ġpestilence":10609,"inguish":10610,"ĠForest":10611,"white":10612,"rippa":10613,"ĠGonz":10614,"Ġdesolation":10615,"favoured":10616,"Ġfountain":10617,"deaux":10618,"ounsieur":10619,"ĠDerby":10620,"mannerly":10621,"Ġcovetous":10622,"Ġsixteen":10623,"ĠHECTOR":10624,"Ġfuture":10625,"ĠMenelaus":10626,"YBALT":10627,"Ġfrenzy":10628,"ĠIACHIMO":10629,"ĠWILLOUGHBY":10630,"ascivious":10631,"ĠCARLISLE":10632,"ĠEglamour":10633,"ĠOTHELLO":10634,"ĠRATCLIFF":10635,"ĠROBIN":10636,"Ġgoldsmith":10637,"ILOSTRATE":10638,"Else":10639,"Fly":10640,"NOX":10641,"OUN":10642,"Pandar":10643,"PROCULEIUS":10644,"Right":10645,"Sit":10646,"Send":10647,"Trump":10648,"Up":10649,"ba":10650,"bag":10651,"could":10652,"came":10653,"done":10654,"gard":10655,"gled":10656,"mine":10657,"mind":10658,"mother":10659,"por":10660,"rans":10661,"vile":10662,"¾ç":10663,"å¤":10664,"åĭ":10665,"åĵ":10666,"åĺ":10667,"æį":10668,"æĺ":10669,"è¿":10670,"èĤ":10671,"éļ":10672,"Ġast":10673,"Ġague":10674,"ouble":10675,"Ġsith":10676,"Ġmate":10677,"rehend":10678,"Ġwester":10679,"Ġbills":10680,"lling":10681,"Ġfres":10682,"Ġfitted":10683,"Ġfifth":10684,"Ġfowl":10685,"Ġced":10686,"Ġcue":10687,"Ġcrew":10688,"Ġdr":10689,"Ġyare":10690,"Ġhills":10691,"arition":10692,"Ġpent":10693,"Ġpassed":10694,"Ġtoy":10695,"Ġtokens":10696,"anish":10697,"othel":10698,"strong":10699,"Ġgust":10700,"Ġgets":10701,"ĠALE":10702,"Ġbecom":10703,"Ġinches":10704,"ĠTalk":10705,"cels":10706,"cends":10707,"Ġhag":10708,"irl":10709,"ĠSing":10710,"ĠSings":10711,"ĠSomet":10712,"Ġmeek":10713,"imate":10714,"ĠWitness":10715,"Ġforged":10716,"Ġeg":10717,"rab":10718,"rained":10719,"Ġstairs":10720,"advised":10721,"ordelia":10722,"Ġrelease":10723,"ĠChat":10724,"ĠConst":10725,"ĠCordelia":10726,"Ġsol":10727,"ĠMeet":10728,"ĠMasters":10729,"Ġasking":10730,"Ġascend":10731,"Ġlicence":10732,"ĠPark":10733,"ĠPub":10734,"ĠPresent":10735,"aments":10736,"Ġshakes":10737,"esture":10738,"ĠNan":10739,"ĠFive":10740,"andon":10741,"Ġseated":10742,"Ġsepar":10743,"ĠGot":10744,"Ġloathed":10745,"hole":10746,"ĠDuns":10747,"Ġshower":10748,"Ġwhate":10749,"Ġprating":10750,"ĠYonder":10751,"Ġswagger":10752,"--'":10753,"Ġarrows":10754,"Ġbrothel":10755,"Ġrout":10756,"Ġsavour":10757,"Ġunruly":10758,"Ġdisloy":10759,"Ġdissembling":10760,"Ġoutlive":10761,"ptuous":10762,"Ġprogress":10763,"arest":10764,"Ġplight":10765,"Ġplots":10766,"Ġgreatly":10767,"Ġabst":10768,"Ġabandon":10769,"reech":10770,"Ġenge":10771,"Ġexcess":10772,"Ġrivers":10773,"Ġperceived":10774,"Ġscra":10775,"Ġcompact":10776,"Ġrumin":10777,"civil":10778,"Ġpreserved":10779,"Ġchains":10780,"orship":10781,"Ġbetters":10782,"ĠAny":10783,"ĠAnswer":10784,"ĠCawd":10785,"Ġindent":10786,"Ġtaunt":10787,"Ġsmart":10788,"Ġchrist":10789,"Ġchronic":10790,"Ġcharges":10791,"Ġchildish":10792,"Ġhumorous":10793,"Ġchances":10794,"Ġeager":10795,"Ġfalcon":10796,"Ġdiscom":10797,"Ġdiscovery":10798,"Ġimpress":10799,"Ġlightly":10800,"ĠAlb":10801,"Ġmerits":10802,"Ġhappier":10803,"Ġhorsemen":10804,"enerate":10805,"Ġgetting":10806,"stern":10807,"Ġcram":10808,"Ġgreets":10809,"Ġjudgments":10810,"Ġtemples":10811,"ĠEDMUND":10812,"LENNOX":10813,"Strike":10814,"Ġgenerally":10815,"Ġknighthood":10816,"Twelfth":10817,"Ġaffords":10818,"Ġwisest":10819,"Ġcorpse":10820,"Ġfourth":10821,"Ġpossessed":10822,"ĠDido":10823,"Ġrequires":10824,"Ġdeeper":10825,"Ġsummon":10826,"Ġexcused":10827,"uba":10828,"Ġentreats":10829,"Ġpupp":10830,"Ġweaker":10831,"Ġwalking":10832,"Ġoffenders":10833,"ception":10834,"ĠUncle":10835,"Ġoppress":10836,"Ġplucks":10837,"Ġstirr":10838,"Ġrespected":10839,"Ġmalign":10840,"Ġselfsame":10841,"Ġthrows":10842,"Ġshop":10843,"laws":10844,"Ġobsequ":10845,"Ġcapacity":10846,"Ġobserved":10847,"Ġpublish":10848,"veyor":10849,"ĠLucio":10850,"Ġsafer":10851,"Ġrascally":10852,"Mayor":10853,"Ġlisten":10854,"ĠBritons":10855,"Ġgaoler":10856,"ĠStands":10857,"ĠBeshrew":10858,"Ġnecessities":10859,"Ġfigures":10860,"Ġfiends":10861,"Ġamazement":10862,"Ġdamnation":10863,"Ġlamentable":10864,"Ġfloods":10865,"ĠBassianus":10866,"Ġantic":10867,"Ġcovert":10868,"Ġlodged":10869,"Ġstatutes":10870,"Ġfantasy":10871,"Ġadmiration":10872,"Ġneglected":10873,"Ġsaints":10874,"Ġassistance":10875,"Ġblushes":10876,"Ġachieved":10877,"AMPSON":10878,"Ġgreyh":10879,"ĠAccording":10880,"Ġpoetry":10881,"Ġtumult":10882,"CANIDIUS":10883,"Ġadversaries":10884,"Ġmingle":10885,"Ġmingled":10886,"Ġindignation":10887,"Ġphilosophy":10888,"Ġlingering":10889,"ĠProspero":10890,"Ġdistracted":10891,"Ġcrooked":10892,"Ġvanquish":10893,"England":10894,"ĠBedford":10895,"ĠHecuba":10896,"ĠBourdeaux":10897,"scaped":10898,"Edward":10899,"Ġcentre":10900,"ĠReignier":10901,"Ġchimney":10902,"Ġeyelids":10903,"ĠStafford":10904,"Ġsepulchre":10905,"OUNG":10906,"ĠALEX":10907,"ĠPublius":10908,"ĠCawdor":10909,"AEL":10910,"Cl":10911,"Dies":10912,"Deliver":10913,"DORSET":10914,"Find":10915,"Fare":10916,"Fall":10917,"Giving":10918,"HIT":10919,"Methought":10920,"MITH":10921,"MESSALA":10922,"Singing":10923,"SAMPSON":10924,"TYRREL":10925,"VILE":10926,"Watchman":10927,"ager":10928,"bable":10929,"bbles":10930,"call":10931,"dges":10932,"grown":10933,"iot":10934,"ipp":10935,"ibly":10936,"pri":10937,"pol":10938,"pens":10939,"purse":10940,"poster":10941,"turn":10942,"tta":10943,"å¥":10944,"å§":10945,"å·":10946,"å¼":10947,"åķ":10948,"æģ":10949,"æĤ":10950,"æħ":10951,"æĶ":10952,"æĻ":10953,"æĽ":10954,"è«":10955,"éĸ":10956,"Ģç":10957,"įç":10958,"heres":10959,"Ġau":10960,"Ġache":10961,"Ġapes":10962,"Ġsans":10963,"Ġmus":10964,"Ġwip":10965,"hale":10966,"Ġben":10967,"Ġbias":10968,"ĠĠĠĠĠĠĠĠĠ":10969,"lled":10970,"Ġfen":10971,"Ġfrow":10972,"itiff":10973,"ĠIm":10974,"Ġcushi":10975,"Ġlot":10976,"onna":10977,"Ġnavy":10978,"Ġpoo":10979,"Ġpuff":10980,"Ġthwart":10981,"Ġtops":10982,"anim":10983,"ange":10984,"anks":10985,"stances":10986,"Ġgun":10987,"Ġgull":10988,"athan":10989,"atcl":10990,"ĠALEN":10991,"Ġinn":10992,"Ġinvest":10993,"ĠTears":10994,"ĠTIMON":10995,"ĠTOUCHSTONE":10996,"Ġham":10997,"ĠSURREY":10998,"uto":10999,"utboys":11000,"Ġmeal":11001,"imp":11002,"illings":11003,"ĠWrite":11004,"Ġewes":11005,"ĠHOR":11006,"ĠHum":11007,"ĠHOTSPUR":11008,"Ġstew":11009,"adise":11010,"ribly":11011,"ĠCAL":11012,"ĠCourt":11013,"ENCH":11014,"Ġassembled":11015,"Ġliar":11016,"ĠEver":11017,"ĠELY":11018,"ĠPerchance":11019,"ĠLies":11020,"ĠLAV":11021,"ĠOphe":11022,"Ġshaft":11023,"ĠNich":11024,"ĠNERISSA":11025,"ĠFaul":11026,"Ġanchor":11027,"ĠGrace":11028,"ĠDER":11029,"Ġmangled":11030,"quess":11031,"quenet":11032,"Ġamount":11033,"ended":11034,"Ġprim":11035,"ĠROS":11036,"Ġgoest":11037,"icing":11038,"ulsion":11039,"Ġswe":11040,"Ġcaitiff":11041,"emb":11042,"olas":11043,"Ġarras":11044,"Ġusage":11045,"ĠThrow":11046,"ĠThurs":11047,"Ġbrim":11048,"ROTH":11049,"umps":11050,"umption":11051,"Ġjar":11052,"Ġjump":11053,"Ġmadonna":11054,"ĠJust":11055,"idele":11056,"Ġhandle":11057,"ffith":11058,"Ġplants":11059,"Ġenv":11060,"Ġexquis":11061,"ecess":11062,"Ġrad":11063,"Ġrav":11064,"PHREY":11065,"lia":11066,"Ġwarning":11067,"Ġsonnet":11068,"Ġflames":11069,"sweet":11070,"agne":11071,"Ġplagues":11072,"Ġfooling":11073,"Ġpurses":11074,"Ġbrand":11075,"Ġtrav":11076,"Ġtaper":11077,"Ġtables":11078,"ADAM":11079,"Ġsmack":11080,"ICHAEL":11081,"Ġserving":11082,"Ġrests":11083,"Ġpresented":11084,"ĠStreet":11085,"Ġcurts":11086,"Ġsubmit":11087,"Ġfaithfully":11088,"Ġpricks":11089,"Ġneedless":11090,"Ġtreble":11091,"cloth":11092,"Ġbeshrew":11093,"Ġbedchamber":11094,"Ġbedfellow":11095,"Ġyeoman":11096,"gued":11097,"ĠHerne":11098,"GREEN":11099,"GREY":11100,"Ġsingular":11101,"Ġtemperate":11102,"Ġvoid":11103,"Ġwaft":11104,"Ġproudly":11105,"ĠCleon":11106,"Ġcondemned":11107,"ĠEnglishman":11108,"Ġtrusted":11109,"Ġdisplay":11110,"Ġrecovery":11111,"ĠProve":11112,"Ġforgiven":11113,"ĠQUINCE":11114,"Ġordinary":11115,"Ġsignal":11116,"Ġspeedily":11117,"Ġextra":11118,"Ġwatchful":11119,"Ġappearance":11120,"Ġsuffering":11121,"FLUTE":11122,"ĠAbove":11123,"plain":11124,"Ġwretches":11125,"Ġtakest":11126,"ĠTheseus":11127,"angled":11128,"Ġstrengthen":11129,"Ġwildly":11130,"Ġinterim":11131,"urable":11132,"Ġwoeful":11133,"Ġfills":11134,"MORE":11135,"Ġsimply":11136,"Ġteaching":11137,"Ġsteals":11138,"ĠHadst":11139,"Ġopinions":11140,"Ġdukes":11141,"Ġwhipp":11142,"Ġpublicly":11143,"Ġtorches":11144,"ĠPUCK":11145,"Ġjealousies":11146,"Ġcontinent":11147,"Ġcontinual":11148,"Ġlouder":11149,"Ġgape":11150,"Ġedict":11151,"Ġinsinu":11152,"ĠGuild":11153,"Ġbestowed":11154,"HOLLAND":11155,"Ġdebtor":11156,"ĠGreen":11157,"Ġvictorious":11158,"Ġsailors":11159,"Ġlanguish":11160,"Ġcherry":11161,"cribe":11162,"Ġmirror":11163,"Ġimperious":11164,"ĠCole":11165,"Ġinclination":11166,"Ġungentle":11167,"Ġcompliment":11168,"ĠSHYLOCK":11169,"Ġcozened":11170,"ĠDrawer":11171,"Ġmerchants":11172,"Ġcloudy":11173,"ĠTITANIA":11174,"Ġshrill":11175,"Ġclap":11176,"Ġfeathers":11177,"Ġavouch":11178,"Ġdoting":11179,"Ġyesternight":11180,"Ġpronounced":11181,"ĠBEATRICE":11182,"Ġcorrect":11183,"Ġcharacters":11184,"Arm":11185,"Ġhurl":11186,"ĠSILVIUS":11187,"oubted":11188,"ĠArmado":11189,"ĠJaquenet":11190,"Ġwarrior":11191,"Ġtickle":11192,"ĠMessina":11193,"Ġnapkin":11194,"ĠCASSIO":11195,"Ġvotre":11196,"Ġquestions":11197,"ocate":11198,"Ġrushes":11199,"Ġsprings":11200,"Ġdispersed":11201,"ĠHERMIA":11202,"Ġvigour":11203,"LAMOUR":11204,"Ġsolicit":11205,"Ġchapel":11206,"Ġsubstitute":11207,"Ġnegligence":11208,"ĠJAQUES":11209,"Ġchallenged":11210,"ĠHUMPHREY":11211,"ĠMALVOLIO":11212,"Ġruthless":11213,"ĠHarfle":11214,"Ġmuddy":11215,"Ġmurm":11216,"ĠEmilia":11217,"Ġabundance":11218,"Ġblemish":11219,"Ġbequeath":11220,"ĠVALENTINE":11221,"ĠEurope":11222,"ĠGriffith":11223,"Ġcontemplation":11224,"ĠArchbishop":11225,"Ġcrimson":11226,"Ġtyrannous":11227,"Ġpupil":11228,"Ġsyllable":11229,"Ġbalance":11230,"ĠIllyria":11231,"Ġquantity":11232,"Ġunlawful":11233,"Ġcedar":11234,"HITMORE":11235,"Ġfroward":11236,"atcliff":11237,"ĠALENCON":11238,"ĠLAVINIA":11239,"ĠOphelia":11240,"ĠNicholas":11241,"ĠFaulconbridge":11242,"ĠROSENCRANTZ":11243,"ĠThursday":11244,"Ġexquisite":11245,"ĠJaquenetta":11246,"ĠHarfleur":11247,"AULINA":11248,"Better":11249,"Ch":11250,"CINNA":11251,"France":11252,"Ho":11253,"Present":11254,"RUGBY":11255,"Sblood":11256,"Sheriff":11257,"TUS":11258,"against":11259,"burn":11260,"bby":11261,"better":11262,"cod":11263,"fool":11264,"gone":11265,"lady":11266,"mid":11267,"matter":11268,"miss":11269,"name":11270,"phan":11271,"too":11272,"vial":11273,"witted":11274,"¦æ":11275,"½ç":11276,"å¹":11277,"åĦ":11278,"æ¸":11279,"æĦ":11280,"æĴ":11281,"æĸ":11282,"ç¶":11283,"è¬":11284,"èĥ":11285,"èĪ":11286,"éĤ":11287,"éĩ":11288,"éľ":11289,"éĿ":11290,"Ġsize":11291,"inus":11292,"inity":11293,"inane":11294,"Ġwages":11295,"Ġbars":11296,"Ġbites":11297,"iseth":11298,"issed":11299,"erth":11300,"ergeant":11301,"Ġfishes":11302,"Ġfancies":11303,"Ġobl":11304,"Ġomin":11305,"enown":11306,"Ġcu":11307,"Ġcy":11308,"Ġcott":11309,"Ġcrop":11310,"Ġdice":11311,"Ġdall":11312,"Ġdally":11313,"Ġdomin":11314,"Ġyard":11315,"Ġlink":11316,"Ġnort":11317,"Ġpicked":11318,"Ġparson":11319,"Ġthumb":11320,"omy":11321,"stal":11322,"stock":11323,"Ġgeld":11324,"attle":11325,"ĠAJAX":11326,"lect":11327,"ĠSONG":11328,"utio":11329,"Ġmew":11330,"Ġmember":11331,"Ġmembers":11332,"eased":11333,"Ġwithhold":11334,"idel":11335,"races":11336,"ĠBlanch":11337,"Ġrent":11338,"Ġrevell":11339,"ĠCut":11340,"INTUS":11341,"ĠMet":11342,"ĠMaking":11343,"ĠEl":11344,"ĠEsc":11345,"ĠEthi":11346,"ĠPha":11347,"ĠPrepare":11348,"ĠPAULINA":11349,"ĠFle":11350,"three":11351,"ĠGad":11352,"eller":11353,"Ġspider":11354,"Ġspacious":11355,"ĠDest":11356,"ĠDol":11357,"Ġnecks":11358,"Ġuphold":11359,"Ġgoodman":11360,"Ġprate":11361,"ĠYor":11362,"ĠYield":11363,"Ġconsec":11364,"Ġswing":11365,"Ġswifter":11366,"urence":11367,"Ġcapon":11368,"Ġcanop":11369,"Ġorator":11370,"Ġorphan":11371,"ĠVent":11372,"ĠVOL":11373,"feits":11374,"Ġarrog":11375,"Ġjugg":11376,"ĠNew":11377,"Ġrats":11378,"Ġriddle":11379,"Ġsall":11380,"Ġunfe":11381,"Ġhop":11382,"Ġtrun":11383,"Ġroots":11384,"Ġmarr":11385,"bery":11386,"Ġwhereupon":11387,"Ġanything":11388,"Ġwarn":11389,"Ġhousewife":11390,"Ġstrings":11391,"Ġnighting":11392,"agge":11393,"Ġcomposed":11394,"Ġrud":11395,"Ġheadstrong":11396,"Ġchari":11397,"Ġchambers":11398,"retty":11399,"AFFORD":11400,"ULLUS":11401,"Ġharlot":11402,"isses":11403,"Ġending":11404,"Ġglow":11405,"mean":11406,"ucket":11407,"vils":11408,"before":11409,"Ġcoil":11410,"BERNARD":11411,"Ġsubmission":11412,"Ġneedle":11413,"about":11414,"ĠMARCUS":11415,"ĠMARIANA":11416,"Ġchanging":11417,"Ġassume":11418,"Ġpeck":11419,"Ġlawy":11420,"ourscore":11421,"fortunate":11422,"Ġhappen":11423,"Ġboon":11424,"ĠRegan":11425,"Ġreturns":11426,"Ġdenial":11427,"Ġcomfortable":11428,"Ġwaits":11429,"Ġdefiance":11430,"itories":11431,"Ġparish":11432,"Ġparagon":11433,"Ġfitter":11434,"Ġgallants":11435,"Ġpersonal":11436,"ĠJulies":11437,"Ġsurly":11438,"Ġentreated":11439,"Ġentreaties":11440,"Another":11441,"Ġspeechless":11442,"Ġbroils":11443,"Ġgriev":11444,"Ġfrailty":11445,"Ġfamine":11446,"Ġmalady":11447,"Ġmalicious":11448,"Ġagent":11449,"Ġcrutch":11450,"Ġfeeds":11451,"ĠHappy":11452,"Ġsnake":11453,"Ġoccup":11454,"Ġwedlock":11455,"Ġhurts":11456,"ĠMacd":11457,"ĠExcellent":11458,"Ġelement":11459,"ĠTitinius":11460,"Ġpageant":11461,"monster":11462,"ĠLaurence":11463,"Ġarguments":11464,"Ġdecree":11465,"Ġdecrees":11466,"Ġgaunt":11467,"Ġeduc":11468,"Ġmidst":11469,"Ġmidwife":11470,"Gentlemen":11471,"Ġwickedness":11472,"ĠAlexas":11473,"Ġproclaimed":11474,"Command":11475,"Commend":11476,"Ġbaser":11477,"Ġodious":11478,"Ġslanderous":11479,"brain":11480,"Ġmemor":11481,"Ġdetain":11482,"Ġstarts":11483,"Ġschoolmaster":11484,"attling":11485,"Ġperilous":11486,"Ġkinsmen":11487,"therefore":11488,"ĠAgrippa":11489,"Ġexamine":11490,"ĠFairies":11491,"ĠFroth":11492,"ĠSTAFFORD":11493,"ĠBarb":11494,"Ġghosts":11495,"ĠMenenius":11496,"ĠGRUMIO":11497,"ĠGREMIO":11498,"Ġworthily":11499,"Ġwrestling":11500,"Death":11501,"colour":11502,"Ġambassadors":11503,"Ġchiding":11504,"Ġbuds":11505,"ĠBrab":11506,"ĠMercutio":11507,"Ġdescended":11508,"Ġalehouse":11509,"Ġwealthy":11510,"Ġsequel":11511,"Ġbolt":11512,"Ġfactious":11513,"Ġslippery":11514,"Ġpigeons":11515,"Ġbraggart":11516,"ienna":11517,"Ġtrencher":11518,"ĠLOVELL":11519,"ĠThaisa":11520,"whelm":11521,"ĠPhilippi":11522,"Ġpattern":11523,"ĠLucetta":11524,"Ġadvertis":11525,"Ġvoluntary":11526,"Ġterritories":11527,"Ġwestern":11528,"ĠDunsinane":11529,"Ġominous":11530,"BERNARDO":11531,"BLANCH":11532,"CCO":11533,"Him":11534,"Harry":11535,"Le":11536,"NCAN":11537,"OCCO":11538,"Rather":11539,"RONIUS":11540,"Sure":11541,"Something":11542,"SMITH":11543,"UPH":11544,"UBAL":11545,"Winter":11546,"ait":11547,"cies":11548,"cont":11549,"eels":11550,"fig":11551,"gles":11552,"grace":11553,"journ":11554,"kers":11555,"married":11556,"nor":11557,"pla":11558,"poor":11559,"sur":11560,"sold":11561,"zes":11562,"¨æ":11563,"ä¹":11564,"ä¼":11565,"å£":11566,"å¸":11567,"åº":11568,"å»":11569,"åī":11570,"åĻ":11571,"åŃ":11572,"æ±":11573,"æ³":11574,"æĥ":11575,"æĬ":11576,"æļ":11577,"çĻ":11578,"è¹":11579,"èħ":11580,"èĬ":11581,"Ġire":11582,"ķç":11583,"Ġtack":11584,"Ġtilt":11585,"Ġath":11586,"Ġaust":11587,"Ġsess":11588,"inence":11589,"inty":11590,"Ġbiting":11591,"Ġfet":11592,"Ġfest":11593,"ita":11594,"itc":11595,"ĠIll":11596,"ĠIras":11597,"Ġcod":11598,"Ġdirt":11599,"Ġlur":11600,"Ġlass":11601,"Ġhound":11602,"onish":11603,"Ġnick":11604,"Ġnurs":11605,"Ġpard":11606,"Ġpedant":11607,"Ġpatricians":11608,"Ġthund":11609,"Ġoffered":11610,"Ġheath":11611,"Ġheigh":11612,"vels":11613,"otect":11614,"stant":11615,"Ġgear":11616,"Ġginger":11617,"ĠAf":11618,"ĠAdd":11619,"ĠTar":11620,"ĠTew":11621,"lear":11622,"ĠSister":11623,"ĠSimon":11624,"ĠSupp":11625,"Ġmel":11626,"ĠWear":11627,"ently":11628,"ĠHall":11629,"ĠHoly":11630,"ĠHUBERT":11631,"ĠHalf":11632,"tering":11633,"Ġhiss":11634,"Ġstem":11635,"Ġstark":11636,"ĠBURGUNDY":11637,"alo":11638,"alms":11639,"ĠCent":11640,"ĠMENAS":11641,"Ġliked":11642,"ARNARD":11643,"ĠEROS":11644,"ouldy":11645,"ĠPers":11646,"ĠPOLIXENES":11647,"ĠPEMBROKE":11648,"ĠLast":11649,"ĠLORENZO":11650,"ifully":11651,"Ġsevere":11652,"ĠGany":11653,"ĠGrand":11654,"iless":11655,"rude":11656,"Ġsped":11657,"Ġsphere":11658,"Ġsprite":11659,"Ġsparrow":11660,"Ġkneels":11661,"artar":11662,"Ġvat":11663,"Ġvac":11664,"ĠDick":11665,"ĠDieu":11666,"Ġmansion":11667,"Ġshillings":11668,"ORIDA":11669,"ĠRaven":11670,"ula":11671,"ulf":11672,"athy":11673,"embroke":11674,"ĠVienna":11675,"olve":11676,"ĠThine":11677,"uming":11678,"odest":11679,"Ġjack":11680,"Ġjaws":11681,"erely":11682,"Ġsale":11683,"Ġunmannerly":11684,"Ġmadame":11685,"Ġmadmen":11686,"Ġdishes":11687,"Ġdissemble":11688,"unis":11689,"Ġprobable":11690,"Ġtruest":11691,"Ġpoll":11692,"Ġpole":11693,"ffic":11694,"ffrey":11695,"Ġhowling":11696,"Ġeyne":11697,"Ġplate":11698,"aved":11699,"Ġens":11700,"igne":11701,"ervation":11702,"Ġrages":11703,"CHORIDA":11704,"Ġrive":11705,"Ġperuse":11706,"Ġscale":11707,"ĠĠĠĠĠĠĠĠĠĠĠĠĠĠĠĠĠĠĠĠĠĠĠĠĠĠĠĠĠĠĠĠĠĠĠĠĠĠĠĠĠĠĠĠĠ":11708,"DUNCAN":11709,"chest":11710,"Ġcompel":11711,"Ġchant":11712,"Ġchaff":11713,"Ġchased":11714,"ksbury":11715,"Ġcontains":11716,"Ġcontrad":11717,"Ġlongs":11718,"ĠMary":11719,"Ġtawny":11720,"IDEN":11721,"Ġsmiled":11722,"Ġqueens":11723,"being":11724,"Ġslender":11725,"Ġcope":11726,"Thisbe":11727,"Ġprelate":11728,"ĠProud":11729,"Ġdraught":11730,"Ġdiscovered":11731,"Ġimportune":11732,"ontes":11733,"Ġjustify":11734,"Ġmisled":11735,"Ġmisfortune":11736,"Ġmisdoubt":11737,"blind":11738,"hampton":11739,"penny":11740,"Ġfarm":11741,"ENTIDIUS":11742,"Ġadvantages":11743,"versy":11744,"apolis":11745,"Ġdenies":11746,"Ġjudged":11747,"ADRIAN":11748,"Ġdistraction":11749,"Ġsinful":11750,"shine":11751,"Ġunclean":11752,"Ġairy":11753,"ĠARCHBISHOP":11754,"Ġmurders":11755,"Ġmurdered":11756,"Ġchoked":11757,"Ġbarber":11758,"Ġemulation":11759,"Ġactors":11760,"BEVIS":11761,"Ġordain":11762,"Ġincest":11763,"ubal":11764,"ubber":11765,"Ġvisited":11766,"Ġplainness":11767,"Ġentreaty":11768,"ĠPerd":11769,"Ġsports":11770,"Ġowed":11771,"Ġunth":11772,"mede":11773,"Ġdeliverance":11774,"Proceed":11775,"Ġwilder":11776,"Ġadder":11777,"Ġwitnesses":11778,"Ġrelief":11779,"Ġlabouring":11780,"Ġwoods":11781,"Ġforswore":11782,"Ġstealing":11783,"Ġpoisonous":11784,"Ġmeasured":11785,"Ġroundly":11786,"Herald":11787,"Ġdrives":11788,"ĠBelike":11789,"Ġwhipping":11790,"Ġtorments":11791,"ĠBriton":11792,"chas":11793,"ĠSalique":11794,"Ġrequests":11795,"Ġrefused":11796,"Ġdegenerate":11797,"ĠSpir":11798,"Ġcornets":11799,"Ġutterly":11800,"ishops":11801,"Comes":11802,"Ġsixpence":11803,"Ġdamnable":11804,"ĠGeffrey":11805,"Ġsolemnity":11806,"Ġconjunction":11807,"Ġexpressly":11808,"Enough":11809,"Ġcircumstances":11810,"Ġwonted":11811,"Ġsalve":11812,"Ġrewards":11813,"ĠCob":11814,"cannot":11815,"ĠMusician":11816,"Ġcamps":11817,"Ġingen":11818,"Ġrhymes":11819,"Ġfrozen":11820,"Ġpreferment":11821,"Ġrescued":11822,"Ġfarthest":11823,"Ġtestament":11824,"ĠGreekish":11825,"Ġwinking":11826,"Ġshrewdly":11827,"Ġobservation":11828,"Ġglobe":11829,"Keeper":11830,"Ġsinew":11831,"hancellor":11832,"Ġcholeric":11833,"ĠBrave":11834,"Ġincense":11835,"Ġoverthrown":11836,"ĠBOYET":11837,"ĠOliver":11838,"Ġcomplaints":11839,"Ġapprehended":11840,"Ġrevive":11841,"Ġapplaud":11842,"Ġappointment":11843,"Ġplanet":11844,"chorida":11845,"Ġaccordingly":11846,"Ġpulse":11847,"ĠADRIANO":11848,"Ġpuissance":11849,"Ġappeared":11850,"Ġplenteous":11851,"Ġclamorous":11852,"Ġwhistle":11853,"Ġmorsel":11854,"Ġrumour":11855,"Ġcontagious":11856,"John":11857,"Worthy":11858,"favour":11859,"ĠPentapolis":11860,"Ġignoble":11861,"ĠBellario":11862,"Surveyor":11863,"Ġtowers":11864,"ĠESCALUS":11865,"ĠPolyd":11866,"spurgh":11867,"Ġdunghill":11868,"ĠMessala":11869,"ĠGonzalo":11870,"ĠColevile":11871,"Ġnorthern":11872,"ĠMacduff":11873,"UPHRONIUS":11874,"ĠTewksbury":11875,"ARNARDINE":11876,"ĠGanymede":11877,"ĠRavenspurgh":11878,"Gaoler":11879,"La":11880,"Ly":11881,"Lea":11882,"March":11883,"Making":11884,"Open":11885,"Pri":11886,"Se":11887,"Sen":11888,"Ten":11889,"TYBALT":11890,"Wife":11891,"Warwick":11892,"aces":11893,"bea":11894,"bod":11895,"blown":11896,"break":11897,"bearer":11898,"cond":11899,"dame":11900,"daughter":11901,"ece":11902,"fire":11903,"fair":11904,"low":11905,"mad":11906,"nows":11907,"oes":11908,"overs":11909,"pardon":11910,"pray":11911,"serv":11912,"yally":11913,"å¦":11914,"åĩ":11915,"åĶ":11916,"åĽ":11917,"æ£":11918,"æ°":11919,"æ´":11920,"æĨ":11921,"æı":11922,"ç¥":11923,"è·":11924,"é¤":11925,"Ġtink":11926,"Ġactor":11927,"inies":11928,"Ġwight":11929,"Ġwins":11930,"Ġbau":11931,"Ġbudge":11932,"oric":11933,"lla":11934,"Ġfourscore":11935,"Ġoy":11936,"Ġcow":11937,"Ġcater":11938,"Ġcousins":11939,"Ġdon":11940,"Ġdom":11941,"Ġdwar":11942,"Ġlux":11943,"Ġthra":11944,"Ġhearers":11945,"stasy":11946,"Ġgulf":11947,"ĠAc":11948,"Ġbeest":11949,"Ġbellow":11950,"ĠTush":11951,"ĠTakes":11952,"ĠTunis":11953,"ĠTubal":11954,"irgin":11955,"ĠSam":11956,"ĠSund":11957,"Ġmeasures":11958,"illed":11959,"keys":11960,"ĠHaply":11961,"Ġstings":11962,"ading":11963,"ĠBAL":11964,"ĠBRA":11965,"ĠBIRON":11966,"ĠBORACHIO":11967,"ĠBetwixt":11968,"ĠCin":11969,"ĠCad":11970,"ĠCur":11971,"ĠCont":11972,"ĠCAMILLO":11973,"ĠContent":11974,"ĠMoonshine":11975,"Ġlivers":11976,"ARTIUS":11977,"ores":11978,"robe":11979,"ĠEmb":11980,"ĠPh":11981,"ĠLives":11982,"ĠLARTIUS":11983,"ĠOS":11984,"amity":11985,"ĠFree":11986,"ĠFidele":11987,"Ġherb":11988,"Ġdemean":11989,"Ġloins":11990,"Ġspies":11991,"Ġfac":11992,"earing":11993,"Ġknell":11994,"Ġvices":11995,"Ġshin":11996,"Ġshining":11997,"ORY":11998,"ively":11999,"ĠROM":12000,"indeed":12001,"Ġconject":12002,"ongue":12003,"Ġswan":12004,"Ġswine":12005,"Ġcalend":12006,"Ġcabin":12007,"Ġcanon":12008,"ĠVouchsafe":12009,"olved":12010,"Ġarri":12011,"Ġbrat":12012,"reation":12013,"Ġunst":12014,"Ġunborn":12015,"Ġunquiet":12016,"Ġmustard":12017,"allel":12018,"oyal":12019,"Ġplotted":12020,"urnish":12021,"fulness":12022,"ĠAsk":12023,"Ġenjoin":12024,"Ġexa":12025,"Ġexhi":12026,"Ġexact":12027,"ighbour":12028,"lips":12029,"eadle":12030,"Ġcommence":12031,"ĠĠĠĠĠĠĠĠĠĠĠĠĠĠĠĠĠĠĠĠĠĠĠĠĠĠĠĠĠĠĠĠĠĠĠĠĠĠĠĠĠĠĠĠ":12032,"Ġflinty":12033,"cheon":12034,"ops":12035,"Ġcompulsion":12036,"cible":12037,"Ġcontrived":12038,"Ġpurity":12039,"ĠMaria":12040,"ĠOft":12041,"ĠUse":12042,"Hector":12043,"Ġglories":12044,"Ġbraver":12045,"ĠAntium":12046,"Ġchoo":12047,"Ġconfused":12048,"Ġconfines":12049,"Ġpreposter":12050,"Ġpassages":12051,"Ġpresents":12052,"Ġdragon":12053,"Ġprized":12054,"ables":12055,"Ġretires":12056,"Ġdiscern":12057,"Ġsleepy":12058,"Ġstately":12059,"ĠReceive":12060,"Ġgrin":12061,"Ġgrate":12062,"Ġbreathless":12063,"Ġdances":12064,"Ġgreasy":12065,"Ġfreeze":12066,"Ġmarrying":12067,"Ġcrystal":12068,"show":12069,"Ġaffair":12070,"Ġcontention":12071,"Ġeating":12072,"Ġopening":12073,"Ġordin":12074,"ĠChorus":12075,"Ġpretence":12076,"Ġbegging":12077,"emption":12078,"ĠPluck":12079,"Ġmotley":12080,"ĠChristians":12081,"Ġcasement":12082,"Ġjolly":12083,"Ġadmittance":12084,"Ġvehe":12085,"Ġveil":12086,"Ġrelation":12087,"ĠLovell":12088,"Ġcrosses":12089,"spired":12090,"Ġeffected":12091,"Ġsnail":12092,"Ġsnuff":12093,"Ġcapital":12094,"EGORY":12095,"ĠExc":12096,"ĠExcept":12097,"Ġknocking":12098,"Ġurging":12099,"Ġinjustice":12100,"Ġbeggarly":12101,"Ġexpected":12102,"Ġrarely":12103,"Ġtransg":12104,"Ġremainder":12105,"ĠAmaz":12106,"Ġsongs":12107,"Ġreverent":12108,"Ġcompanies":12109,"Ġimportant":12110,"Ġbasest":12111,"ĠHeavens":12112,"Ġreigns":12113,"Ġports":12114,"Ġmeantime":12115,"Ġbefits":12116,"eese":12117,"ĠRODERIGO":12118,"Ġchiefly":12119,"Ġtriumphs":12120,"olerable":12121,"Ġrooted":12122,"Except":12123,"Ġdetermin":12124,"Beseech":12125,"ĠMusicians":12126,"Ġcompassion":12127,"ĠMenas":12128,"Ġpreferr":12129,"Ġlinea":12130,"Ġstreams":12131,"Ġvexation":12132,"Adieu":12133,"Ġmultit":12134,"Ġdissension":12135,"Ġevidence":12136,"ĠAppear":12137,"ĠApproach":12138,"Ġperfections":12139,"Ġbreadth":12140,"Ġrusty":12141,"aughan":12142,"Ġmagist":12143,"Ġgratis":12144,"ĠHymen":12145,"Ġdemi":12146,"Ġcontroversy":12147,"Ġcounsell":12148,"keeper":12149,"Ġstrangeness":12150,"ĠReady":12151,"Ġunluck":12152,"haste":12153,"Ġgirdle":12154,"Ġgaping":12155,"Ġornaments":12156,"Ġstumble":12157,"Ġdiligence":12158,"Ġdisperse":12159,"Ġcases":12160,"Ġgnaw":12161,"Ġobscure":12162,"According":12163,"Ġconfederates":12164,"Ġtalents":12165,"Ġdrooping":12166,"Ġconspiracy":12167,"Ġcontinuance":12168,"Return":12169,"ĠGONERIL":12170,"Ġstinking":12171,"ĠTyrrel":12172,"Ġindustry":12173,"Ġeloquence":12174,"Ġrehearse":12175,"Ġwheresoe":12176,"minded":12177,"Ġdisloyal":12178,"ĠALEXAS":12179,"enowned":12180,"ĠYorks":12181,"Ġeducation":12182,"ĠBrabant":12183,"stantial":12184,"ĠROMEO":12185,"BUR":12186,"Break":12187,"Betwixt":12188,"CET":12189,"Cont":12190,"CLEOMENES":12191,"Down":12192,"Dead":12193,"Disc":12194,"Five":12195,"FROTH":12196,"Gu":12197,"Gives":12198,"Lead":12199,"NER":12200,"Oh":12201,"OURS":12202,"Par":12203,"PING":12204,"Patience":12205,"PETO":12206,"RS":12207,"Saw":12208,"Sub":12209,"Sext":12210,"Supp":12211,"TS":12212,"TUBAL":12213,"VEL":12214,"Wh":12215,"WAT":12216,"WHITMORE":12217,"ZWAT":12218,"cat":12219,"certain":12220,"claim":12221,"eres":12222,"eking":12223,"gest":12224,"gage":12225,"gown":12226,"iber":12227,"iby":12228,"lord":12229,"lie":12230,"none":12231,"pipe":12232,"vation":12233,"wen":12234,"¥ç":12235,"¨ç":12236,"¬ç":12237,"åĤ":12238,"åĳ":12239,"æĲ":12240,"æķ":12241,"æĹ":12242,"æŃ":12243,"ç¾":12244,"çī":12245,"çŀ":12246,"è¡":12247,"èĨ":12248,"èĮ":12249,"èĳ":12250,"èŃ":12251,"éħ":12252,"Ġou":12253,"Ġil":12254,"Ġ--":12255,"īç":12256,"Ġte":12257,"Ġtu":12258,"heath":12259,"Ġster":12260,"inand":12261,"reath":12262,"Ġwren":12263,"Ġwhale":12264,"Ġbows":12265,"erate":12266,"erning":12267,"ĠĠĠĠĠĠĠ":12268,"Ġfard":12269,"Ġcords":12270,"Ġdaint":12271,"Ġduck":12272,"Ġduteous":12273,"Ġling":12274,"Ġlitter":12275,"Ġhilt":12276,"Ġpru":12277,"Ġpious":12278,"Ġpel":12279,"Ġpig":12280,"Ġpins":12281,"Ġpowder":12282,"another":12283,"anger":12284,"anied":12285,"stool":12286,"Ġglean":12287,"Ġgasp":12288,"ĠAgin":12289,"ĠAquit":12290,"Ġbeet":12291,"Ġinqu":12292,"ĠTur":12293,"Ġhaven":12294,"Ġhaunts":12295,"etition":12296,"ĠSail":12297,"ĠSATURNINUS":12298,"imber":12299,"ĠWife":12300,"ĠWatch":12301,"ĠWILLIAM":12302,"oore":12303,"Ġexeunt":12304,"Ġecho":12305,"Ġweb":12306,"ĠHol":12307,"ĠHigh":12308,"ĠHop":12309,"ĠHonour":12310,"ĠHonest":12311,"ĠHuntsman":12312,"rament":12313,"Ġkitc":12314,"Ġstaves":12315,"ashes":12316,"asphe":12317,"ĠBAN":12318,"ĠBury":12319,"ĠCer":12320,"ĠCold":12321,"ĠCADE":12322,"ĠCERIMON":12323,"lying":12324,"ĠMount":12325,"ĠMouldy":12326,"ĠMoore":12327,"ARVEL":12328,"vert":12329,"rose":12330,"ĠEARL":12331,"ĠPre":12332,"ĠPir":12333,"ĠProm":12334,"ĠPATROCLUS":12335,"ĠPembroke":12336,"ĠLart":12337,"ĠList":12338,"ĠLAB":12339,"ĠLONGAVILLE":12340,"ĠLOST":12341,"ĠOther":12342,"ĠOber":12343,"ushy":12344,"ests":12345,"ĠName":12346,"ANG":12347,"ousy":12348,"ĠFIT":12349,"ĠFerd":12350,"Ġherbs":12351,"Ġdepose":12352,"Ġdeform":12353,"Ġdeformed":12354,"Ġnost":12355,"Ġnodd":12356,"Ġanat":12357,"Ġanim":12358,"things":12359,"ERV":12360,"ERIO":12361,"Ġseed":12362,"ilis":12363,"Ġspear":12364,"Ġspots":12365,"Ġspaniel":12366,"ardener":12367,"ĠDor":12368,"ĠDion":12369,"ĠDOL":12370,"ĠDUM":12371,"ĠDIANA":12372,"ĠDisc":12373,"Ġshouts":12374,"Ġupward":12375,"Ġcomment":12376,"Ġcomedy":12377,"Ġwheat":12378,"ĠRatcliff":12379,"Ġthereupon":12380,"ppily":12381,"Ġhatches":12382,"ĠTogether":12383,"ĠVirtue":12384,"Ġarrow":12385,"Ġargues":12386,"Ġbrine":12387,"iggard":12388,"Ġjet":12389,"Ġjars":12390,"Ġsavours":12391,"Ġunarm":12392,"Ġuncivil":12393,"ĠJac":12394,"ĠJESSICA":12395,"ATILL":12396,"Ġprogen":12397,"Ġspeaker":12398,"Ġmap":12399,"Ġplod":12400,"ĠKill":12401,"Ġability":12402,"Ġabode":12403,"ĠForbear":12404,"Ġheave":12405,"Ass":12406,"Ġensuing":12407,"igned":12408,"Ġdeserv":12409,"Ġbrew":12410,"Ġrapt":12411,"Ġrarest":12412,"Ġrailing":12413,"PHIS":12414,"oused":12415,"CHID":12416,"THALIARD":12417,"Ġripen":12418,"eeds":12419,"Ġtrot":12420,"AMUS":12421,"Ġsweets":12422,"Ġwithered":12423,"opled":12424,"aints":12425,"Ġharp":12426,"Ġpurged":12427,"ĠCapt":12428,"ĠURS":12429,"Ġrepro":12430,"Ġrepute":12431,"Ġreputed":12432,"Ġendow":12433,"Ġtragedy":12434,"Ġtraffic":12435,"Ġlively":12436,"Ġlieu":12437,"Ġhighway":12438,"easy":12439,"Ġfortnight":12440,"Ġcourts":12441,"Ġcourtiers":12442,"beians":12443,"Ġchides":12444,"Ġdearth":12445,"Ġprecept":12446,"Ġkindle":12447,"Ġgripe":12448,"Ġcounted":12449,"Ġafterward":12450,"Ġhopeful":12451,"ablish":12452,"abella":12453,"Ġhumbl":12454,"Ġchannel":12455,"Ġassail":12456,"Beyond":12457,"ROMACH":12458,"Ġjustices":12459,"Ġsealed":12460,"Ġmoist":12461,"Ġlaying":12462,"apes":12463,"Ġuncles":12464,"Ġcommander":12465,"Ġcommanding":12466,"Ġsending":12467,"Ġforego":12468,"Ġspoils":12469,"Ġharder":12470,"Ġawful":12471,"score":12472,"Ġdistressed":12473,"Ġinfants":12474,"Ġcarp":12475,"shill":12476,"ranmer":12477,"ĠARTHUR":12478,"Ġdames":12479,"ĠArden":12480,"Ġrecreation":12481,"Ġbarr":12482,"ceeding":12483,"Ġgarter":12484,"ĠVenet":12485,"Ġprofan":12486,"pherds":12487,"Ġwooer":12488,"ĠWouldst":12489,"Ġincontin":12490,"avish":12491,"Ġdevout":12492,"Ġextort":12493,"overn":12494,"Ġconstruction":12495,"Ġmoonlight":12496,"Ġredemption":12497,"Ġscarlet":12498,"Ġintercept":12499,"Ġdishon":12500,"Ġcommendable":12501,"Ġtenth":12502,"Ġcheerfully":12503,"Ġeasier":12504,"Ġacquit":12505,"Ġseasons":12506,"Ġformal":12507,"Ġproceeded":12508,"Ġwooden":12509,"Ġlantern":12510,"ĠLeontes":12511,"Ġbreasts":12512,"Ġbreathes":12513,"EGLAMOUR":12514,"Ġchurchyard":12515,"Ġduly":12516,"conf":12517,"EPHEN":12518,"Ġcarrying":12519,"Ġbitterly":12520,"Ġsacrament":12521,"Ġargos":12522,"Ġdecla":12523,"Ġdecreed":12524,"Ġclaims":12525,"Ġgentler":12526,"ĠIndian":12527,"Ġpettic":12528,"Ġverity":12529,"Gentlewoman":12530,"Ġcorners":12531,"ĠQuince":12532,"Comm":12533,"Ġglasses":12534,"Ġamaze":12535,"Ġbasilis":12536,"Ġfondly":12537,"ĠEpid":12538,"Ġbuckram":12539,"Ġhunts":12540,"Ġlamentation":12541,"Ġdooms":12542,"ĠTHESEUS":12543,"ĠTHAISA":12544,"ĠPRINCESS":12545,"ĠPeto":12546,"ĠPetition":12547,"Ġapartment":12548,"Excellent":12549,"ĠSALARINO":12550,"Ġearnestly":12551,"Ġmilitary":12552,"Ġdisdainful":12553,"Ġextremest":12554,"Ġlengthen":12555,"ĠSTEPHEN":12556,"ĠCalchas":12557,"Ġheavily":12558,"rsula":12559,"portion":12560,"ibel":12561,"Ġlineal":12562,"Ġclergy":12563,"Ġmurderers":12564,"Ġnicely":12565,"Ġrashness":12566,"Ġwaxen":12567,"ĠCORN":12568,"Ġclimate":12569,"Ġexpedient":12570,"Ġmartial":12571,"Ġvolume":12572,"Ġmiscarried":12573,"Ġcommonweal":12574,"Ġclapp":12575,"Ġdukedoms":12576,"Ġcontracted":12577,"Ġcoronet":12578,"Quick":12579,"coloured":12580,"Ġbags":12581,"Ġadopt":12582,"Ġgrudge":12583,"EBLE":12584,"ALEXANDER":12585,"ĠBOULT":12586,"Ġdemonst":12587,"Ġmoulded":12588,"ĠAUFIDIUS":12589,"ĠMENELAUS":12590,"Ġspectacle":12591,"ĠFLUELLEN":12592,"PROLOGUE":12593,"Ġtarget":12594,"Ġcordial":12595,"Ġnuncle":12596,"Ġsuggestion":12597,"Ġinterpre":12598,"Ġinterpret":12599,"unchient":12600,"ĠHERMIONE":12601,"Ġobscured":12602,"Ġinflu":12603,"Ġpuissant":12604,"ĠBASSANIO":12605,"Ready":12606,"Ġthoroughly":12607,"Ġmoonshine":12608,"Ġwrangling":12609,"Ġsympathy":12610,"Advancing":12611,"Falstaff":12612,"Ġentrails":12613,"ĠSaturnine":12614,"ĠMariana":12615,"Ġprettiest":12616,"ĠTitania":12617,"Ġgamester":12618,"Ġwhelp":12619,"Ġimitate":12620,"Ġstratagem":12621,"ĠAmbassad":12622,"ĠBretagne":12623,"Ġdistinction":12624,"Ġattorney":12625,"ĠAwake":12626,"ĠPROLOGUE":12627,"ĠDuncan":12628,"ĠConstance":12629,"Ġwiped":12630,"Ġhammer":12631,"ĠHORATIO":12632,"Ġtravail":12633,"Ġcurtsy":12634,"Ġcottage":12635,"Ġswinged":12636,"ĠVentidius":12637,"Ġthunders":12638,"ĠSimonides":12639,"ĠPerdita":12640,"BURES":12641,"CETAS":12642,"PINGHAM":12643,"ZWATER":12644,"ĠAgincourt":12645,"ĠAquitaine":12646,"ĠBANQUO":12647,"ARVELING":12648,"ĠLartius":12649,"ĠLABOURS":12650,"ĠOberon":12651,"ĠFITZWATER":12652,"ĠFerdinand":12653,"ĠJacob":12654,"ATILLON":12655,"CHIDAMUS":12656,"ROMACHE":12657,"'--":12658,"Achilles":12659,"Among":12660,"Ever":12661,"Every":12662,"Emb":12663,"Jove":12664,"Knight":12665,"NALD":12666,"Pres":12667,"SONG":12668,"Tush":12669,"VINIA":12670,"ache":12671,"ailed":12672,"basket":12673,"counter":12674,"did":12675,"drink":12676,"every":12677,"fend":12678,"friend":12679,"gor":12680,"gation":12681,"gotten":12682,"hu":12683,"hors":12684,"ially":12685,"lam":12686,"lant":12687,"lves":12688,"nance":12689,"pter":12690,"rine":12691,"rook":12692,"ride":12693,"rings":12694,"rons":12695,"sy":12696,"test":12697,"town":12698,"talk":12699,"true":12700,"vis":12701,"vals":12702,"vaunt":12703,"wal":12704,"who":12705,"wark":12706,"±ç":12707,"¸ç":12708,"ä¾":12709,"å´":12710,"åģ":12711,"åĨ":12712,"åĮ":12713,"åľ":12714,"åĿ":12715,"æ¢":12716,"æ¼":12717,"æĳ":12718,"è£":12719,"èº":12720,"è¼":12721,"èĢ":12722,"èı":12723,"İç":12724,"Ġtough":12725,"Ġtrop":12726,"into":12727,"reth":12728,"Ġbit":12729,"Ġbower":12730,"Ġballs":12731,"isome":12732,"erfl":12733,"erlook":12734,"orate":12735,"Ġfust":12736,"Ġfitting":12737,"Ġoo":12738,"itimate":12739,"esy":12740,"Ġdar":12741,"Ġdastard":12742,"Ġdaggers":12743,"Ġyo":12744,"Ġlect":12745,"Ġlascivious":12746,"Ġlousy":12747,"oned":12748,"onius":12749,"Ġnearest":12750,"Ġniggard":12751,"arce":12752,"arms":12753,"Ġpho":12754,"Ġpag":12755,"Ġpip":12756,"Ġhen":12757,"Ġheres":12758,"omb":12759,"Ġgay":12760,"Ġgout":12761,"Ġgem":12762,"atory":12763,"Ġbeck":12764,"Ġinspired":12765,"seem":12766,"Ġhay":12767,"ĠSout":12768,"ĠSinging":12769,"Ġmechan":12770,"chool":12771,"child":12772,"ĠWr":12773,"ĠWit":12774,"ĠWoe":12775,"ooch":12776,"ĠHoll":12777,"rade":12778,"Ġkick":12779,"Ġstare":12780,"Ġstalk":12781,"Ġstored":12782,"ĠBurn":12783,"ĠBalt":12784,"ĠBishop":12785,"ĠBecomes":12786,"ĠCranmer":12787,"ĠMed":12788,"ĠMart":12789,"ĠMIRANDA":12790,"ĠMECAENAS":12791,"urbs":12792,"rops":12793,"ĠPatri":12794,"ĠPedant":12795,"ĠLed":12796,"ĠLod":12797,"ĠOwen":12798,"ĠFit":12799,"ĠFort":12800,"ĠFellow":12801,"Ġdeity":12802,"Ġdeject":12803,"ifies":12804,"thus":12805,"Ġseiz":12806,"Ġlog":12807,"ilities":12808,"Ġspotted":12809,"Ġfails":12810,"hod":12811,"ĠDec":12812,"ĠDiv":12813,"ĠDirect":12814,"Ġshru":12815,"Ġatone":12816,"ĠRel":12817,"ĠRUGBY":12818,"Ġconception":12819,"Ġwasp":12820,"Ġtherewithal":12821,"Ġswagge":12822,"Ġblasted":12823,"Ġcaper":12824,"ĠVaughan":12825,"Ġune":12826,"Ġunfortunate":12827,"Ġhogs":12828,"ĠJe":12829,"Ġgraft":12830,"LAVINIA":12831,"Ġhearty":12832,"Ġmace":12833,"Ġroyally":12834,"Ġplat":12835,"Ġabb":12836,"Ġbetide":12837,"Ġbetroth":12838,"Ġenow":12839,"Ġenroll":12840,"Ġexempt":12841,"Ġdaylight":12842,"peration":12843,"Ġearls":12844,"Ġperplex":12845,"Ġwhispers":12846,"Ġlab":12847,"Ġclub":12848,"Ġimpose":12849,"Ġimages":12850,"Ġchafed":12851,"ĠSoothsayer":12852,"ĠIsis":12853,"Ġremed":12854,"ĠUrsula":12855,"Ġglut":12856,"Ġglister":12857,"Ġglitter":12858,"Ġtrash":12859,"Ġindirect":12860,"Ġsleeves":12861,"Ġrestrain":12862,"Ġcoven":12863,"Ġconflict":12864,"acon":12865,"Ġfaced":12866,"Ġresidence":12867,"Ġsuburbs":12868,"Ġovercome":12869,"Ġoverheard":12870,"Ġseemeth":12871,"Ġchanced":12872,"ĠGovern":12873,"tween":12874,"Ġdiscreet":12875,"Ġlighted":12876,"Whereof":12877,"Ġmaidens":12878,"guard":12879,"GREGORY":12880,"Ġsuns":12881,"eneral":12882,"Ġthroughly":12883,"Ġstrait":12884,"ĠShore":12885,"Ġcastles":12886,"Ġgenerous":12887,"Ġmusicians":12888,"Ġintolerable":12889,"Ġdreamt":12890,"erers":12891,"ĠArise":12892,"Ġbated":12893,"Ġfitness":12894,"Ġprofits":12895,"Ġentering":12896,"Ġestates":12897,"Ġincur":12898,"Ġvisor":12899,"Ġpenet":12900,"ĠCorporal":12901,"askets":12902,"Ġstraightway":12903,"Ġextem":12904,"Ġwalked":12905,"Ġconstrain":12906,"play":12907,"Ġsoldiership":12908,"Ġcleave":12909,"Prove":12910,"Ġmodern":12911,"Ġmoderate":12912,"Ġwildness":12913,"Ġbondman":12914,"Ġfraught":12915,"Ġidiot":12916,"Ġfamed":12917,"Ġfashions":12918,"Ġcommended":12919,"Ġcommendation":12920,"Ġangle":12921,"Ġorderly":12922,"Ġmistaking":12923,"Ġmistaken":12924,"ĠScots":12925,"spotted":12926,"Ġobd":12927,"ĠSeeing":12928,"Ġlances":12929,"Ġlanthorn":12930,"ĠMurderers":12931,"world":12932,"Ġconsented":12933,"ĠSilvius":12934,"Ġdrowning":12935,"Ġwisdoms":12936,"ĠFalse":12937,"Ġdaunt":12938,"Ġwhores":12939,"Ġpainful":12940,"Ġdemanded":12941,"Ġgaol":12942,"Ġchastisement":12943,"Ġcatching":12944,"Ġdealing":12945,"Ġusurper":12946,"Ġutterance":12947,"Ġtribune":12948,"Ġwretchedness":12949,"Ġconquering":12950,"Ġimagined":12951,"Ġcostly":12952,"Ġconcerning":12953,"Ġbuckle":12954,"flies":12955,"Ġriding":12956,"Ġparticulars":12957,"Ġguiltiness":12958,"Ġtyrants":12959,"Ġlenity":12960,"valiant":12961,"Ġsmells":12962,"Ġdispleased":12963,"Ġaffects":12964,"Ġallowed":12965,"Ġpacking":12966,"Ġpacket":12967,"Ġengine":12968,"monger":12969,"Ġforfeiture":12970,"Ġbuilding":12971,"Ġadvancement":12972,"ĠFriends":12973,"Ġslightly":12974,"ĠLoves":12975,"Ġpiercing":12976,"Ġpilot":12977,"Ġdotage":12978,"Ġcreeping":12979,"Ġgarlands":12980,"ĠMeantime":12981,"thank":12982,"Ġbaggage":12983,"Ġabhorr":12984,"ĠSatan":12985,"Ġtapers":12986,"Ġshriek":12987,"Ġbruised":12988,"Ġcollected":12989,"Ġreceives":12990,"Ġendeavours":12991,"Ġcalamity":12992,"Ġperfume":12993,"Ġperfumed":12994,"Ġgratify":12995,"ĠPlayer":12996,"orpentine":12997,"gentleman":12998,"ĠFLORIZEL":12999,"Ġplanets":13000,"Ġbragging":13001,"Ġtroublesome":13002,"Ġfantastic":13003,"Ġflatterers":13004,"Ġvizards":13005,"Ġpredomin":13006,"Ġperdition":13007,"Ġcomparison":13008,"Ġceremonies":13009,"ĠSyria":13010,"Ġconversation":13011,"Ġecstasy":13012,"Ġinferior":13013,"mighty":13014,"Ġwidows":13015,"Ġpirate":13016,"Ġvapour":13017,"ĠDuchess":13018,"Ġdisobedience":13019,"Ġreconcile":13020,"modated":13021,"Ġgorgeous":13022,"Ġdoctrine":13023,"Ġunwilling":13024,"Ġpopular":13025,"ĠCHIRON":13026,"Ġostentation":13027,"Ġescaped":13028,"Ġpuppet":13029,"Ġmalignant":13030,"ĠCALIBAN":13031,"ĠEscalus":13032,"ĠGadshill":13033,"Ġnightingale":13034,"Ġoccupation":13035,"ĠBarbary":13036,"Ġingenious":13037,"Ġbauble":13038,"Ġoyster":13039,"ĠSunday":13040,"ĠBALTHASAR":13041,"Ġcalendar":13042,"ĠYorkshire":13043,"Sexton":13044,"ĠDUMAIN":13045,"NALDO":13046,"Ġphoenix":13047,"BON":13048,"BOLINGBROKE":13049,"BATES":13050,"BARNARDINE":13051,"Content":13052,"Courage":13053,"Chancellor":13054,"EVILE":13055,"Fortune":13056,"FANG":13057,"IVERS":13058,"Knock":13059,"Meet":13060,"MARDIAN":13061,"Nature":13062,"PEED":13063,"Ro":13064,"Somet":13065,"Suff":13066,"SEED":13067,"Spir":13068,"SNOUT":13069,"TARD":13070,"bi":13071,"bu":13072,"bee":13073,"bred":13074,"black":13075,"cal":13076,"cary":13077,"dow":13078,"dling":13079,"gartered":13080,"houses":13081,"lph":13082,"much":13083,"mercy":13084,"occ":13085,"pill":13086,"pend":13087,"pired":13088,"rmid":13089,"spect":13090,"te":13091,"uity":13092,"wreck":13093,"za":13094,"¡ç":13095,"·ç":13096,"å¨":13097,"åĬ":13098,"åŁ":13099,"æ¨":13100,"æ®":13101,"æ¶":13102,"æ¿":13103,"æĩ":13104,"æĮ":13105,"æĿ":13106,"è±":13107,"è¸":13108,"èģ":13109,"èĽ":13110,"èľ":13111,"é¡":13112,"éĮ":13113,"Ġess":13114,"Ġtha":13115,"Ġtang":13116,"heet":13117,"Ġapr":13118,"Ġsly":13119,"inher":13120,"inable":13121,"Ġmire":13122,"Ġmater":13123,"Ġwand":13124,"hage":13125,"nders":13126,"Ġbree":13127,"Ġboughs":13128,"iser":13129,"erwhelm":13130,"Ġfel":13131,"Ġfitt":13132,"Ġflaw":13133,"Ġfisher":13134,"Ġfetter":13135,"enu":13136,"itus":13137,"itious":13138,"ĠInt":13139,"ĠIach":13140,"Ġcri":13141,"Ġcust":13142,"Ġcert":13143,"Ġcows":13144,"Ġcures":13145,"Ġdub":13146,"Ġdurance":13147,"Ġlump":13148,"Ġhits":13149,"Ġhip":13150,"Ġhoop":13151,"Ġhired":13152,"Ġnations":13153,"arily":13154,"Ġpith":13155,"Ġpry":13156,"Ġpile":13157,"aniard":13158,"Ġgore":13159,"Ġgeese":13160,"athi":13161,"atched":13162,"ĠAli":13163,"ĠAug":13164,"ĠAARON":13165,"Ġbee":13166,"Ġbees":13167,"Ġinve":13168,"ĠTHE":13169,"ĠTRINCULO":13170,"ĠTAMORA":13171,"ĠTrip":13172,"ĠTartar":13173,"cet":13174,"ceives":13175,"ceiving":13176,"aying":13177,"ĠSub":13178,"ĠSCARUS":13179,"ĠSPEED":13180,"utting":13181,"Ġmellow":13182,"ithfield":13183,"Ġissues":13184,"ĠWart":13185,"ĠWast":13186,"ĠWol":13187,"ĠWalk":13188,"ĠWomen":13189,"keley":13190,"Ġeke":13191,"Ġexit":13192,"ented":13193,"Ġitch":13194,"Ġstealth":13195,"ĠBu":13196,"ĠBand":13197,"ĠBase":13198,"ĠBert":13199,"ĠBIGOT":13200,"ĠBeadle":13201,"ĠBushy":13202,"ĠCra":13203,"ĠCON":13204,"ĠCond":13205,"ĠConstable":13206,"ĠMel":13207,"ĠMARDIAN":13208,"ĠMICHAEL":13209,"Ġaspir":13210,"Ġlick":13211,"ARCHIDAMUS":13212,"vering":13213,"urate":13214,"USTARD":13215,"ĠEle":13216,"ĠPe":13217,"ĠPlace":13218,"aining":13219,"ĠLight":13220,"ĠLic":13221,"ĠLud":13222,"uspicious":13223,"Ġshaking":13224,"estic":13225,"ĠFour":13226,"ĠFee":13227,"ĠFab":13228,"ĠFates":13229,"ĠFalls":13230,"ĠFLAVIUS":13231,"ĠFENTON":13232,"Ġhermit":13233,"Ġsulph":13234,"Ġsew":13235,"Ġsect":13236,"ĠGold":13237,"Ġloses":13238,"ilest":13239,"ilogue":13240,"rums":13241,"Ġspheres":13242,"Ġknots":13243,"arthage":13244,"ĠDie":13245,"ĠDIONYZA":13246,"ĠDutch":13247,"ĠDispatch":13248,"quainted":13249,"ender":13250,"Ġmum":13251,"Ġpranks":13252,"Ġprattle":13253,"ĠRest":13254,"ĠRum":13255,"ĠRIVERS":13256,"Ġgover":13257,"Ġgoats":13258,"icial":13259,"venal":13260,"venged":13261,"Ġsways":13262,"urers":13263,"Ġblister":13264,"Ġblade":13265,"Ġblots":13266,"Ġblasphe":13267,"Ġcau":13268,"Ġorb":13269,"Ġoration":13270,"feren":13271,"Ġheretic":13272,"Ġusurer":13273,"lac":13274,"ĠThunder":13275,"Ġbrood":13276,"Ġjig":13277,"Ġrides":13278,"Ġunlook":13279,"ĠWhate":13280,"Ġhoar":13281,"unct":13282,"unto":13283,"Ġpartial":13284,"orner":13285,"Ġmaim":13286,"many":13287,"Ġ13":13288,"oys":13289,"ĠKind":13290,"Ġabound":13291,"Ġabuses":13292,"berd":13293,"berry":13294,"Ġheaved":13295,"ANDON":13296,"Ġtwin":13297,"Ġhearken":13298,"Ġram":13299,"Ġgentlewomen":13300,"Ġwrote":13301,"Ġrival":13302,"Ġcommotion":13303,"Ġwary":13304,"Ġpersever":13305,"Ġadorn":13306,"Ġscald":13307,"Forbear":13308,"AMBRIDGE":13309,"Ġappell":13310,"ĠBeyond":13311,"ccess":13312,"Ġrules":13313,"Ġclout":13314,"Ġclime":13315,"cibi":13316,"Ġgraceful":13317,"Ġharness":13318,"Ġpursues":13319,"Ġremn":13320,"atching":13321,"Ġreplied":13322,"Ġrepetition":13323,"Ġglim":13324,"Ġbrake":13325,"Ġtract":13326,"Ġindirectly":13327,"Ġtaunts":13328,"URBON":13329,"Ġfollower":13330,"Ġsmock":13331,"Ġcourtship":13332,"begotten":13333,"Ġconspire":13334,"Ġcog":13335,"Ġcoals":13336,"Ġcopper":13337,"Ġconfisc":13338,"Ġshowing":13339,"Ġshowed":13340,"Ġstaying":13341,"Ġstayed":13342,"Ġprerog":13343,"Ġtribe":13344,"Ġvirgins":13345,"ĠPrinces":13346,"Ġpalate":13347,"LUCE":13348,"Ġovert":13349,"Ġthreefold":13350,"clasp":13351,"Ġbesiege":13352,"Ġeagles":13353,"Ġimpression":13354,"Ġlightness":13355,"Ġmispr":13356,"ĠNorway":13357,"ĠBristol":13358,"ĠAlcibi":13359,"hames":13360,"AVENNY":13361,"Ġadvocate":13362,"Ġbanners":13363,"Ġsunshine":13364,"Ġspiritual":13365,"Ġbreaths":13366,"RUTLAND":13367,"rested":13368,"Ġreads":13369,"Ġtalked":13370,"Ġwanted":13371,"Ġtemporal":13372,"Ġmethod":13373,"comm":13374,"Ġsuppress":13375,"Ġsuppli":13376,"CAPHIS":13377,"Ġdistinguish":13378,"Ġwinters":13379,"Ġmusical":13380,"lois":13381,"Ġbriers":13382,"Ġcarve":13383,"Ġcarved":13384,"Ġdreaming":13385,"Ġparadise":13386,"ĠArmy":13387,"Ġdispraise":13388,"Ġchop":13389,"Ġskirm":13390,"ĠProd":13391,"Ġgalled":13392,"Ġmines":13393,"Ġopenly":13394,"Ġwooers":13395,"Ġrequital":13396,"Ġdivinity":13397,"Ġincorp":13398,"Ġconfessor":13399,"Ġfasten":13400,"Ġsurge":13401,"without":13402,"prince":13403,"Ġextenu":13404,"FEEBLE":13405,"Any":13406,"Ġconstraint":13407,"Almost":13408,"Ġharmful":13409,"plished":13410,"Ġundes":13411,"Ġclosely":13412,"ipotent":13413,"Ġopposition":13414,"Ġregions":13415,"Ġregiment":13416,"Ġcleft":13417,"Ġmounting":13418,"ĠLUCIANA":13419,"Ġbroker":13420,"Ġworships":13421,"Ġdarkly":13422,"Ġadmire":13423,"Ġrelate":13424,"Ġrelieved":13425,"Ġencount":13426,"Ġcheerly":13427,"Ġlimed":13428,"Ġrange":13429,"MOROCCO":13430,"Ġcrime":13431,"settled":13432,"spo":13433,"spring":13434,"supp":13435,"ĠJewry":13436,"Uncle":13437,"Ġjudgement":13438,"BASSET":13439,"BASSIANUS":13440,"ĠHelenus":13441,"EGEUS":13442,"GUE":13443,"Ġchurchman":13444,"Ġquietly":13445,"Ġcounterpo":13446,"Ġviands":13447,"Ġbitterness":13448,"Ġqualify":13449,"Ġmutinous":13450,"ival":13451,"ivant":13452,"ĠAntonius":13453,"ĠIndia":13454,"ĠInduction":13455,"Ġesquire":13456,"Ġremembered":13457,"Ġlegate":13458,"Ġpunished":13459,"Ġequally":13460,"Ġswiftly":13461,"parable":13462,"Ġverd":13463,"Ġcourageous":13464,"Ġgreetings":13465,"ĠQuite":13466,"Ġthreatens":13467,"ĠGrecians":13468,"Ġmonsters":13469,"bbo":13470,"Ġimaginary":13471,"Ġsolemnly":13472,"bras":13473,"Ġbefal":13474,"Ġunhallow":13475,"ĠTHERSITES":13476,"ĠBlood":13477,"Ġfirmly":13478,"Prince":13479,"Proud":13480,"himself":13481,"Ġallowance":13482,"beard":13483,"Ġcherub":13484,"Ġfurnished":13485,"ternal":13486,"Ġprophecies":13487,"Ġaudacious":13488,"ĠWiltshire":13489,"Ġincline":13490,"Ġcomplexions":13491,"Ġmischiefs":13492,"ĠSTEPHANO":13493,"Ġfunctions":13494,"Ġavoided":13495,"Ġsyn":13496,"ĠFriend":13497,"ĠCORIN":13498,"Ġmassac":13499,"runes":13500,"Ġcoffer":13501,"Ġwrestle":13502,"Ġbullets":13503,"zzled":13504,"Belike":13505,"Ġpennyworth":13506,"Ġhelmet":13507,"ĠConsider":13508,"ĠConspir":13509,"ĠAEd":13510,"Ġadversity":13511,"Ġadversary":13512,"Ġbracelet":13513,"Frenchman":13514,"ĠBlackheath":13515,"Ġdeclined":13516,"Ġoxen":13517,"keeping":13518,"ĠKnights":13519,"Ġdisciplines":13520,"ĠROSALINE":13521,"Ġspectacles":13522,"Ġpikes":13523,"Ġtimeless":13524,"Ġfrosty":13525,"ĠPhilario":13526,"Ġfrankly":13527,"Ġphilosopher":13528,"Ġvizard":13529,"Ġaccomplish":13530,"Ġaccompanied":13531,"bolt":13532,"ĠBerkeley":13533,"Ġblaze":13534,"LAMINIUS":13535,"Ġcomparisons":13536,"ĠSycor":13537,"Ġmajestical":13538,"ĠProclaim":13539,"amnum":13540,"Ġshameless":13541,"ĠFields":13542,"Ġsympathi":13543,"tongued":13544,"Ġpirates":13545,"ĠDukes":13546,"Ġjuvenal":13547,"Ġreconciled":13548,"Ġcropp":13549,"Ġimpudent":13550,"Ġtransported":13551,"Gloucester":13552,"Ġdedicate":13553,"Ġmuffled":13554,"Ġtragic":13555,"Ġsparks":13556,"Ġviolets":13557,"Ġmagnanim":13558,"ĠSyracusian":13559,"Ġparchment":13560,"Sicilius":13561,"othecary":13562,"Ġworshipp":13563,"Ġinsulting":13564,"Ġfresher":13565,"ĠChatillon":13566,"athaniel":13567,"ĠDERBY":13568,"Ġradiant":13569,"Ġcups":13570,"ĠElbow":13571,"Ġpardons":13572,"ĠCentaur":13573,"igneur":13574,"Ġwilderness":13575,"ĠOSWALD":13576,"Ġordinance":13577,"ĠExcursions":13578,"Ġtransgression":13579,"Ġmultitudes":13580,"ĠURSULA":13581,"Ġdeclare":13582,"ĠEpidamnum":13583,"ĠIachimo":13584,"ĠAliena":13585,"ĠBertram":13586,"USTARDSEED":13587,"ĠLicio":13588,"ĠFeeble":13589,"ĠFabian":13590,"ĠAlcibiades":13591,"ĠSycorax":13592,"Ag":13593,"Ang":13594,"Becomes":13595,"Chor":13596,"Def":13597,"Div":13598,"Four":13599,"Fri":13600,"Gave":13601,"Health":13602,"Im":13603,"Jack":13604,"Murd":13605,"Oft":13606,"Perchance":13607,"Run":13608,"Saint":13609,"Talk":13610,"Villain":13611,"Wear":13612,"aper":13613,"bat":13614,"bid":13615,"been":13616,"between":13617,"cass":13618,"cold":13619,"crown":13620,"cides":13621,"cund":13622,"dy":13623,"epp":13624,"fal":13625,"fly":13626,"full":13627,"gans":13628,"hot":13629,"horn":13630,"honest":13631,"ipping":13632,"justice":13633,"lore":13634,"lest":13635,"lust":13636,"mar":13637,"mir":13638,"mast":13639,"nis":13640,"nay":13641,"nal":13642,"oh":13643,"pres":13644,"phant":13645,"point":13646,"poke":13647,"rather":13648,"sla":13649,"suck":13650,"such":13651,"tha":13652,"till":13653,"tri":13654,"uccess":13655,"vise":13656,"villain":13657,"viors":13658,"wink":13659,"year":13660,"zing":13661,"å¡":13662,"å¢":13663,"æ¯":13664,"æ»":13665,"æ½":13666,"æŁ":13667,"çĲ":13668,"çľ":13669,"çĿ":13670,"è¶":13671,"èĭ":13672,"èĶ":13673,"èĻ":13674,"é£":13675,"é©":13676,"é»":13677,"éĪ":13678,"éĳ":13679,"Ĵç":13680,"Ġtis":13681,"Ġtides":13682,"Ġtallow":13683,"Ġaug":13684,"ouches":13685,"Ġmow":13686,"Ġment":13687,"rep":13688,"Ġwan":13689,"Ġwart":13690,"Ġbale":13691,"Ġbench":13692,"Ġbourn":13693,"orm":13694,"Ġfates":13695,"Ġoh":13696,"Ġom":13697,"Ġcard":13698,"Ġcate":13699,"Ġdrench":13700,"Ġdale":13701,"Ġdaff":13702,"Ġdirty":13703,"Ġdressed":13704,"Ġlamp":13705,"Ġnour":13706,"Ġpea":13707,"Ġtot":13708,"Ġtoday":13709,"Ġtoads":13710,"Ġhero":13711,"stones":13712,"strels":13713,"owls":13714,"Ġgesture":13715,"aten":13716,"atisf":13717,"ĠAgain":13718,"ĠAff":13719,"ĠArab":13720,"ĠThames":13721,"cell":13722,"lem":13723,"Ġhale":13724,"Ġhallow":13725,"Ġhalter":13726,"Ġhavoc":13727,"ldst":13728,"ĠSec":13729,"ĠWant":13730,"Ġforfend":13731,"entimes":13732,"ĠHOL":13733,"ĠHealth":13734,"idity":13735,"idered":13736,"terate":13737,"raight":13738,"raign":13739,"raught":13740,"racing":13741,"Ġkite":13742,"Ġkites":13743,"Ġstag":13744,"Ġsteer":13745,"adel":13746,"rious":13747,"rift":13748,"rieve":13749,"ĠBrief":13750,"Ġrealms":13751,"ĠCain":13752,"ĠCertain":13753,"ĠCRANMER":13754,"ĠCURIO":13755,"ĠCarthage":13756,"ĠMad":13757,"ĠEar":13758,"ĠEnt":13759,"ĠExec":13760,"ĠPoint":13761,"Ġdoit":13762,"Ġdoves":13763,"ĠLENN":13764,"ĠThee":13765,"esses":13766,"ĠNYM":13767,"ĠNathaniel":13768,"ĠFoul":13769,"Ġsued":13770,"Ġsexton":13771,"ĠGave":13772,"ĠGert":13773,"Ġspices":13774,"Ġfav":13775,"earch":13776,"Ġknives":13777,"Ġva":13778,"Ġvest":13779,"Ġvary":13780,"Ġvale":13781,"Ġvicious":13782,"Ġvaunt":13783,"holesome":13784,"hanging":13785,"romise":13786,"ĠDull":13787,"quaint":13788,"question":13789,"Ġamiable":13790,"outhed":13791,"ĠRise":13792,"ĠREGAN":13793,"Ġconceived":13794,"Ġsheathe":13795,"Ġshepherds":13796,"Ġcann":13797,"ements":13798,"eminate":13799,"Ġorgan":13800,"Ġorgans":13801,"eps":13802,"ĠThrice":13803,"Ġbrooch":13804,"Ġquill":13805,"Ġquart":13806,"ighed":13807,"Ġrises":13808,"Ġunity":13809,"Ġunrest":13810,"Ġdissu":13811,"Ġdispense":13812,"Ġoutrun":13813,"Ġpropose":13814,"Ġgrapple":13815,"Ġpockets":13816,"Things":13817,"Ġhowsoever":13818,"Ġplum":13819,"Ġplume":13820,"Ġabate":13821,"Ġabides":13822,"berate":13823,"berries":13824,"Ġheaps":13825,"Ġwhereby":13826,"ĠMyrmid":13827,"Ġbetake":13828,"Ġexche":13829,"ecame":13830,"acks":13831,"Ġramp":13832,"akers":13833,"Ġplebeians":13834,"Ġrivals":13835,"Ġwarp":13836,"Ġflows":13837,"ĠBegin":13838,"Ġbrotherhood":13839,"agn":13840,"Ġdownfall":13841,"Ġchal":13842,"ertake":13843,"Ġmightiest":13844,"Ġcontri":13845,"Ġcontrive":13846,"oser":13847,"Ġreprehend":13848,"Ġendless":13849,"Ġbraved":13850,"Ġbrands":13851,"Ġtrace":13852,"Ġtravels":13853,"inted":13854,"Ġconsumed":13855,"Ġelves":13856,"ĠWhence":13857,"Ġchuck":13858,"Ġtrip":13859,"Ġtrivial":13860,"Ġcharter":13861,"Ġgivest":13862,"ĠStabs":13863,"Ġrighteous":13864,"Ġcheques":13865,"ulties":13866,"Ġbelch":13867,"Ġovercame":13868,"Ġseemed":13869,"Ġretain":13870,"Ġearthqu":13871,"Ġassign":13872,"Ġthankfully":13873,"Ġimposition":13874,"Ġsloth":13875,"ĠNormand":13876,"Ġlawless":13877,"Ġhitherto":13878,"Ġmerrier":13879,"ĠHerod":13880,"verend":13881,"Ġstrip":13882,"Ġhorseback":13883,"Ġstrongest":13884,"Ġforesee":13885,"Ġdared":13886,"Ġoftentimes":13887,"Ġawry":13888,"Ġlesson":13889,"Ġgrease":13890,"Ġdoubted":13891,"Ġdrawing":13892,"ials":13893,"Strikes":13894,"Ġdefiled":13895,"Ġfouler":13896,"Ġattendance":13897,"Ġquicken":13898,"Ġsaddle":13899,"Ġcertainty":13900,"Ġinfall":13901,"Ġcarcass":13902,"uesday":13903,"shot":13904,"Ġdepth":13905,"Ġdepends":13906,"Ġparcels":13907,"Ġskilful":13908,"Ġcuts":13909,"Ġmoneys":13910,"Ġgrounds":13911,"azz":13912,"azed":13913,"Ġmocked":13914,"Ġordnance":13915,"Ġinconstant":13916,"ĠDece":13917,"ĠCorinth":13918,"ggar":13919,"Ġsurv":13920,"ĠAdrian":13921,"Ġpuppy":13922,"Ġquarre":13923,"Ġbasely":13924,"proof":13925,"Ġprovision":13926,"Ġwatching":13927,"ĠPerhaps":13928,"Ġoffends":13929,"Ġplucked":13930,"Ġcreation":13931,"Ġrevengeful":13932,"Ġbroach":13933,"Ġrebu":13934,"Ġjocund":13935,"Ġsighing":13936,"REYNALDO":13937,"Ġliberties":13938,"HUME":13939,"Ġlimits":13940,"Ġthrowing":13941,"ĠSennet":13942,"Ġpassionate":13943,"Ġuttered":13944,"Ġwoodcock":13945,"Ġbuys":13946,"voke":13947,"Ġrobbery":13948,"Ġentertained":13949,"Ġblowing":13950,"Ġsorce":13951,"Ġsolely":13952,"ĠLucifer":13953,"Ġdawn":13954,"Ġquietness":13955,"Ġfreshly":13956,"Ġmannerly":13957,"Ġshipp":13958,"Ġviper":13959,"Ġcredulous":13960,"Ġambush":13961,"Ġbastardy":13962,"ĠTrain":13963,"Ġhumbled":13964,"Ġverge":13965,"ĠLeonine":13966,"ĠSpaniard":13967,"Ġuttermost":13968,"Ġventures":13969,"Ġbended":13970,"Ġstuffed":13971,"Ġphysicians":13972,"Ġwantonness":13973,"Ġrepentance":13974,"Ġconcord":13975,"Ġfaintly":13976,"Ġholes":13977,"Ġportly":13978,"Ġportion":13979,"Ġweighs":13980,"Ġfleece":13981,"ĠKnowing":13982,"human":13983,"Ġmiracles":13984,"Ġmildness":13985,"Ġborrowed":13986,"Ġmelting":13987,"Ġdifferent":13988,"weigh":13989,"Ġpictures":13990,"rossed":13991,"Ġobjects":13992,"Ġswells":13993,"Ġconfirmation":13994,"Ġingrateful":13995,"ĠDrawing":13996,"Ġfingres":13997,"Ġderive":13998,"Ġunwholesome":13999,"Ġintellect":14000,"lication":14001,"ĠHenceforth":14002,"ĠTrans":14003,"Ġswallowed":14004,"Ġwhispering":14005,"Ġgroaning":14006,"handise":14007,"Ġwrestler":14008,"zzle":14009,"Ġsticks":14010,"Ġdotes":14011,"Ġunseason":14012,"Ġinnocency":14013,"Ġfilth":14014,"Ġplanted":14015,"Ġhumanity":14016,"Ġravenous":14017,"Ġcurtains":14018,"Ġirons":14019,"Ġbonny":14020,"Ġtrimm":14021,"Ġroused":14022,"Ġunjustly":14023,"Ġbrawling":14024,"Ġtrembles":14025,"ĠTrumpet":14026,"Ġgossips":14027,"ouncing":14028,"Ġseduced":14029,"Ġpeerless":14030,"Ġtimorous":14031,"Ġteaches":14032,"Ġfeigned":14033,"Ġinsolent":14034,"Ġsandy":14035,"Ġsprites":14036,"Ġtrenches":14037,"Ġvigil":14038,"Ġsummers":14039,"Ġdarts":14040,"Ġporridge":14041,"Ġceremonious":14042,"Clarence":14043,"ĠCornwall":14044,"Ġthirsty":14045,"Ġupbraid":14046,"Ġjuice":14047,"aurus":14048,"conscience":14049,"ĠBullcalf":14050,"Ġunprovided":14051,"Ġnymphs":14052,"Ġeffeminate":14053,"Ġcelebr":14054,"ĠStrange":14055,"Ġautumn":14056,"morris":14057,"Ġlullaby":14058,"Ġlackey":14059,"Ġhypocrite":14060,"ĠParthia":14061,"Trumpets":14062,"ĠSometime":14063,"Ġeggs":14064,"Ġchronicle":14065,"Ġgreyhound":14066,"Ġlottery":14067,"ĠTearsheet":14068,"Ġsweating":14069,"Ġforgiveness":14070,"Ġextraord":14071,"Ġdalliance":14072,"ĠEthiope":14073,"ĠDolabella":14074,"Ġorphans":14075,"Ġchariot":14076,"Ġmelody":14077,"ĠSamson":14078,"ĠCinna":14079,"ĠCadwal":14080,"ĠPhry":14081,"Ġcounsellors":14082,"Ġfardel":14083,"ĠSailors":14084,"Ġkitchen":14085,"Ġpetticoat":14086,"Ġplatform":14087,"Ġglittering":14088,"Ġobdurate":14089,"ĠAugust":14090,"Ġincorporate":14091,"Chorus":14092,"Murder":14093,"false":14094,"ĠLENNOX":14095,"ĠGertrude":14096,"ĠNormandy":14097,"',":14098,"AZ":14099,"AUL":14100,"Add":14101,"BL":14102,"BIN":14103,"Best":14104,"BIGOT":14105,"BAGOT":14106,"Chi":14107,"Cold":14108,"Die":14109,"Dem":14110,"Drum":14111,"EUC":14112,"Fetch":14113,"Hum":14114,"High":14115,"Ill":14116,"Just":14117,"Lend":14118,"Live":14119,"Lives":14120,"Name":14121,"New":14122,"NUG":14123,"Od":14124,"Over":14125,"OUL":14126,"Pre":14127,"Part":14128,"PINCH":14129,"PILO":14130,"RIS":14131,"Rich":14132,"Sa":14133,"Ty":14134,"Tra":14135,"Touch":14136,"Teach":14137,"UBL":14138,"Val":14139,"Vouchsafe":14140,"Write":14141,"WEB":14142,"Yield":14143,"YOUNG":14144,"ai":14145,"best":14146,"bud":14147,"bition":14148,"bird":14149,"brate":14150,"cas":14151,"cur":14152,"cils":14153,"duke":14154,"ditary":14155,"dealing":14156,"double":14157,"ev":14158,"ech":14159,"eers":14160,"fight":14161,"fix":14162,"follow":14163,"gom":14164,"gory":14165,"iency":14166,"jurious":14167,"jection":14168,"kill":14169,"keth":14170,"known":14171,"lin":14172,"mate":14173,"matic":14174,"nam":14175,"nocks":14176,"og":14177,"pre":14178,"pot":14179,"past":14180,"ration":14181,"ruth":14182,"rated":14183,"rhus":14184,"sho":14185,"sers":14186,"sium":14187,"simple":14188,"tish":14189,"tale":14190,"taking":14191,"trans":14192,"toric":14193,"uge":14194,"view":14195,"wr":14196,"wood":14197,"while":14198,"words":14199,"yza":14200,"zab":14201,"ªç":14202,"åĥ":14203,"åļ":14204,"åł":14205,"æ¡":14206,"æ¾":14207,"æŀ":14208,"çĪ":14209,"çİ":14210,"çĸ":14211,"è»":14212,"è¾":14213,"èĦ":14214,"èį":14215,"èĹ":14216,"èĿ":14217,"é§":14218,"éĬ":14219,"éİ":14220,"éŁ":14221,"ıç":14222,"Łç":14223,"Ġtil":14224,"Ġtithe":14225,"heth":14226,"inbras":14227,"Ġmature":14228,"rection":14229,"Ġwage":14230,"Ġware":14231,"isander":14232,"eril":14233,"Ġfickle":14234,"ĠIX":14235,"ĠIlion":14236,"Ġcuff":14237,"Ġcran":14238,"Ġclip":14239,"Ġcaskets":14240,"Ġdus":14241,"Ġditch":14242,"Ġyawn":14243,"Ġlour":14244,"Ġloo":14245,"Ġhint":14246,"Ġhinds":14247,"onus":14248,"Ġnin":14249,"Ġnomin":14250,"Ġpau":14251,"Ġpec":14252,"Ġpang":14253,"Ġpander":14254,"Ġthrees":14255,"Ġhew":14256,"otha":14257,"Ġgig":14258,"Ġgud":14259,"Ġgamb":14260,"ĠAUTOLYCUS":14261,"Ġincess":14262,"Ġinhuman":14263,"ĠTa":14264,"ĠTeach":14265,"ĠTowards":14266,"ĠTuesday":14267,"leave":14268,"eta":14269,"ayed":14270,"irnam":14271,"ĠSent":14272,"ĠSad":14273,"ĠSly":14274,"ĠSau":14275,"ĠSits":14276,"ĠSouth":14277,"ĠSeem":14278,"ĠSands":14279,"ĠSIMONIDES":14280,"ĠSNOUT":14281,"Ġissued":14282,"eapol":14283,"Ġforked":14284,"Ġeb":14285,"Ġeel":14286,"entious":14287,"ĠHard":14288,"ĠHung":14289,"ĠHipp":14290,"idge":14291,"rav":14292,"Ġstable":14293,"Ġstony":14294,"ĠBold":14295,"ĠBack":14296,"ĠBeen":14297,"ĠBUT":14298,"ĠBAGOT":14299,"ĠBirnam":14300,"Ġreek":14301,"Ġresemb":14302,"Ġresemble":14303,"ĠCr":14304,"ĠCha":14305,"ĠCret":14306,"ĠCoe":14307,
[...]
